<pad>	0
<unk>	0
<s>	0
</s>	0
▁t	-0
he	-1
▁a	-2
in	-3
re	-4
▁the	-5
on	-6
er	-7
en	-8
is	-9
▁s	-10
at	-11
nd	-12
▁w	-13
ed	-14
▁o	-15
▁c	-16
ha	-17
▁b	-18
▁in	-19
or	-20
it	-21
▁p	-22
▁f	-23
es	-24
▁of	-25
▁T	-26
ar	-27
al	-28
an	-29
ing	-30
▁to	-31
▁and	-32
▁d	-33
ic	-34
ou	-35
ion	-36
as	-37
il	-38
ent	-39
▁m	-40
▁The	-41
▁ha	-42
▁S	-43
ro	-44
▁I	-45
▁be	-46
le	-47
id	-48
▁M	-49
▁A	-50
▁P	-51
▁th	-52
▁re	-53
ve	-54
▁n	-55
▁is	-56
ol	-57
▁B	-58
ter	-59
▁C	-60
ot	-61
ra	-62
ver	-63
▁h	-64
▁H	-65
om	-66
st	-67
ct	-68
▁l	-69
▁g	-70
ation	-71
ri	-72
▁e	-73
ut	-74
ur	-75
ill	-76
▁for	-77
et	-78
am	-79
ad	-80
ir	-81
▁on	-82
▁was	-83
ment	-84
ce	-85
▁al	-86
▁he	-87
ay	-88
▁st	-89
us	-90
el	-91
im	-92
▁has	-93
ice	-94
▁D	-95
ow	-96
▁N	-97
▁R	-98
res	-99
od	-100
ig	-101
ak	-102
▁will	-103
hi	-104
▁de	-105
ly	-106
ist	-107
▁Ind	-108
ia	-109
▁are	-110
ere	-111
▁K	-112
ac	-113
ers	-114
os	-115
▁that	-116
nt	-117
▁G	-118
est	-119
ul	-120
▁con	-121
▁have	-122
▁pro	-123
▁He	-124
olice	-125
her	-126
op	-127
ate	-128
▁u	-129
ister	-130
ith	-131
▁at	-132
▁v	-133
and	-134
▁y	-135
inister	-136
▁not	-137
▁it	-138
art	-139
ort	-140
▁W	-141
▁been	-142
▁an	-143
so	-144
ain	-145
▁by	-146
pp	-147
▁with	-148
▁this	-149
▁se	-150
ab	-151
▁as	-152
ld	-153
▁also	-154
ident	-155
▁F	-156
▁sa	-157
▁com	-158
our	-159
ag	-160
red	-161
▁Minister	-162
um	-163
th	-164
ch	-165
▁India	-166
if	-167
▁wh	-168
▁go	-169
▁J	-170
han	-171
ity	-172
cc	-173
▁O	-174
rom	-175
▁su	-176
▁were	-177
em	-178
▁police	-179
▁L	-180
▁said	-181
▁sp	-182
▁from	-183
ong	-184
ies	-185
ess	-186
me	-187
▁Th	-188
un	-189
▁inc	-190
oc	-191
ud	-192
vern	-193
ous	-194
▁E	-195
ef	-196
end	-197
ect	-198
▁ne	-199
iv	-200
ial	-201
ht	-202
ry	-203
ric	-204
▁ex	-205
vernment	-206
▁k	-207
ress	-208
▁his	-209
▁It	-210
ant	-211
ore	-212
▁wor	-213
▁But	-214
qu	-215
▁le	-216
▁U	-217
har	-218
ll	-219
ther	-220
▁res	-221
hed	-222
▁cou	-223
ated	-224
▁r	-225
ff	-226
ive	-227
ard	-228
▁had	-229
ction	-230
ire	-231
are	-232
▁all	-233
ep	-234
▁ad	-235
ap	-236
ok	-237
▁ag	-238
▁pl	-239
""	-240
▁This	-241
ome	-242
se	-243
ast	-244
ik	-245
eop	-246
▁BJ	-247
▁ar	-248
ital	-249
▁(	-250
▁tak	-251
ted	-252
wo	-253
eople	-254
ue	-255
rime	-256
▁me	-257
one	-258
ust	-259
▁you	-260
fter	-261
orm	-262
ase	-263
ure	-264
▁In	-265
▁St	-266
ge	-267
▁Ra	-268
▁acc	-269
▁Y	-270
ever	-271
ian	-272
▁im	-273
ide	-274
port	-275
▁j	-276
▁or	-277
▁BJP	-278
very	-279
▁sh	-280
hief	-281
▁government	-282
osp	-283
ould	-284
ater	-285
ost	-286
▁part	-287
▁no	-288
mit	-289
▁Prime	-290
ath	-291
▁inv	-292
▁int	-293
nder	-294
ition	-295
ospital	-296
ind	-297
▁V	-298
pl	-299
▁off	-300
▁1	-301
▁2	-302
▁Police	-303
av	-304
▁him	-305
▁do	-306
▁their	-307
▁people	-308
▁ab	-309
ctor	-310
▁count	-311
ec	-312
ew	-313
ary	-314
out	-315
▁pres	-316
owever	-317
▁up	-318
▁Mod	-319
age	-320
ations	-321
▁There	-322
ied	-323
▁man	-324
ult	-325
ence	-326
ace	-327
form	-328
▁there	-329
▁them	-330
▁Modi	-331
all	-332
▁work	-333
▁cont	-334
▁we	-335
▁out	-336
▁Go	-337
▁en	-338
▁invest	-339
▁after	-340
rou	-341
▁incident	-342
▁can	-343
vel	-344
▁other	-345
▁sha	-346
ack	-347
..	-348
▁And	-349
amil	-350
ical	-351
ight	-352
▁under	-353
rict	-354
▁fil	-355
▁ra	-356
▁spot	-357
ru	-358
og	-359
▁hospital	-360
ear	-361
li	-362
▁again	-363
▁two	-364
rad	-365
▁day	-366
▁tim	-367
used	-368
ame	-369
▁app	-370
ious	-371
▁dis	-372
▁Indian	-373
iz	-374
▁Cong	-375
per	-376
hil	-377
▁ro	-378
▁te	-379
ub	-380
ance	-381
▁Congress	-382
istrict	-383
▁investig	-384
ndra	-385
du	-386
ell	-387
▁reg	-388
way	-389
▁one	-390
gh	-391
ail	-392
▁over	-393
ational	-394
ord	-395
hen	-396
ju	-397
ass	-398
▁so	-399
▁am	-400
▁Chief	-401
▁However	-402
▁country	-403
▁sc	-404
▁they	-405
▁case	-406
▁state	-407
▁ser	-408
ip	-409
▁her	-410
ans	-411
▁att	-412
▁As	-413
▁any	-414
▁comp	-415
we	-416
▁Sh	-417
esh	-418
ich	-419
ody	-420
▁into	-421
▁taken	-422
▁dec	-423
▁being	-424
▁new	-425
umb	-426
ade	-427
ang	-428
emb	-429
▁fir	-430
▁lead	-431
▁time	-432
ved	-433
ged	-434
▁inju	-435
ens	-436
ble	-437
alth	-438
ine	-439
oll	-440
ered	-441
erson	-442
ish	-443
▁They	-444
▁against	-445
▁Wh	-446
ions	-447
▁about	-448
▁our	-449
ely	-450
▁which	-451
▁famil	-452
ourt	-453
able	-454
oth	-455
rest	-456
▁bet	-457
ingh	-458
reat	-459
▁cl	-460
now	-461
ree	-462
▁Del	-463
▁ev	-464
ents	-465
ign	-466
ove	-467
▁rec	-468
▁med	-469
▁would	-470
▁Delhi	-471
▁un	-472
▁Un	-473
ities	-474
istan	-475
igh	-476
▁sec	-477
ren	-478
▁get	-479
ram	-480
ob	-481
ates	-482
▁per	-483
velop	-484
▁arrest	-485
▁inform	-486
ash	-487
▁On	-488
▁first	-489
arendra	-490
▁who	-491
ach	-492
▁Singh	-493
ife	-494
▁your	-495
▁Narendra	-496
ght	-497
▁You	-498
▁district	-499
mer	-500
old	-501
▁State	-502
ank	-503
ound	-504
▁20	-505
rit	-506
▁la	-507
▁We	-508
▁its	-509
▁film	-510
▁Raj	-511
▁mat	-512
▁meet	-513
▁ac	-514
ile	-515
ward	-516
▁She	-517
aj	-518
med	-519
na	-520
▁start	-521
▁Government	-522
▁qu	-523
up	-524
▁did	-525
▁person	-526
▁injured	-527
▁report	-528
use	-529
resident	-530
▁far	-531
▁tra	-532
ached	-533
iss	-534
▁Ch	-535
▁Pak	-536
ov	-537
ces	-538
inist	-539
ween	-540
▁between	-541
▁family	-542
ased	-543
▁shall	-544
oin	-545
ating	-546
pect	-547
▁happ	-548
▁offic	-549
ake	-550
▁present	-551
▁ele	-552
▁made	-553
▁De	-554
▁""	-555
▁add	-556
uring	-557
ries	-558
▁soc	-559
▁Pakistan	-560
isha	-561
ood	-562
▁wom	-563
der	-564
."	-565
▁imp	-566
ose	-567
oy	-568
▁arrested	-569
▁reached	-570
▁An	-571
▁President	-572
pt	-573
▁prov	-574
hild	-575
▁know	-576
ject	-577
ings	-578
▁co	-579
▁then	-580
ced	-581
au	-582
▁my	-583
cted	-584
ya	-585
▁lik	-586
▁cro	-587
▁loc	-588
▁Man	-589
ised	-590
ee	-591
lic	-592
▁iss	-593
hip	-594
▁Shri	-595
▁Pat	-596
▁pre	-597
▁rem	-598
▁fire	-599
▁but	-600
▁tr	-601
▁Com	-602
velopment	-603
▁Ma	-604
▁body	-605
mitted	-606
ked	-607
▁every	-608
tern	-609
ters	-610
▁accused	-611
▁Prad	-612
ret	-613
▁Ar	-614
▁bl	-615
eng	-616
▁died	-617
▁stud	-618
▁should	-619
ond	-620
▁occ	-621
ise	-622
▁health	-623
▁more	-624
▁cha	-625
00	-626
als	-627
▁bec	-628
▁child	-629
▁Cha	-630
▁cond	-631
pport	-632
▁investigation	-633
urn	-634
▁unt	-635
ks	-636
lud	-637
▁very	-638
ket	-639
▁Sha	-640
oun	-641
ouse	-642
▁sit	-643
ai	-644
man	-645
▁started	-646
▁All	-647
vers	-648
▁minister	-649
▁fl	-650
...	-651
tain	-652
fere	-653
gan	-654
ma	-655
ook	-656
▁meeting	-657
ting	-658
▁world	-659
ision	-660
other	-661
fore	-662
▁Od	-663
▁dem	-664
ons	-665
ave	-666
here	-667
▁us	-668
▁New	-669
▁water	-670
▁incre	-671
ments	-672
▁rel	-673
ory	-674
▁year	-675
▁mar	-676
pur	-677
▁such	-678
▁many	-679
▁comm	-680
ont	-681
▁ent	-682
ict	-683
▁ter	-684
▁social	-685
own	-686
get	-687
▁some	-688
▁includ	-689
rib	-690
▁Odisha	-691
ather	-692
rin	-693
▁PM	-694
ool	-695
▁Rs	-696
▁place	-697
▁ca	-698
ally	-699
▁post	-700
▁took	-701
▁Sec	-702
stit	-703
day	-704
▁kill	-705
▁pol	-706
▁Gand	-707
ral	-708
und	-709
war	-710
rough	-711
▁death	-712
▁pass	-713
arli	-714
act	-715
▁take	-716
▁when	-717
ution	-718
▁hel	-719
▁unto	-720
ib	-721
▁chief	-722
les	-723
▁than	-724
▁yet	-725
▁need	-726
▁these	-727
▁she	-728
ck	-729
▁matter	-730
▁rain	-731
▁prog	-732
▁good	-733
elf	-734
umar	-735
▁201	-736
▁memb	-737
▁3	-738
ened	-739
ats	-740
ati	-741
▁Union	-742
ss	-743
▁through	-744
▁numb	-745
riend	-746
▁media	-747
▁say	-748
▁vill	-749
▁ass	-750
ning	-751
▁Gandhi	-752
▁No	-753
la	-754
▁team	-755
▁ann	-756
ission	-757
▁action	-758
▁well	-759
▁giv	-760
▁play	-761
▁em	-762
▁informed	-763
▁sent	-764
▁hand	-765
ful	-766
iness	-767
ended	-768
▁pos	-769
▁life	-770
cy	-771
con	-772
▁help	-773
row	-774
▁Ad	-775
ided	-776
▁bus	-777
urity	-778
▁For	-779
▁vis	-780
mers	-781
oor	-782
▁Kumar	-783
▁exp	-784
▁Court	-785
▁dire	-786
ci	-787
▁vide	-788
▁both	-789
▁Pradesh	-790
ued	-791
▁chan	-792
chool	-793
▁road	-794
ollow	-795
▁too	-796
▁So	-797
▁while	-798
▁dif	-799
▁ben	-800
ower	-801
uation	-802
▁during	-803
akh	-804
ural	-805
▁compl	-806
▁eff	-807
▁act	-808
▁due	-809
▁come	-810
▁car	-811
▁prot	-812
ount	-813
▁condition	-814
▁Bh	-815
inistry	-816
ener	-817
▁serv	-818
▁Mo	-819
▁His	-820
retary	-821
iat	-822
▁president	-823
ives	-824
▁"""	-825
▁official	-826
▁5	-827
aint	-828
▁Cent	-829
cer	-830
eep	-831
▁students	-832
ie	-833
olog	-834
▁could	-835
▁like	-836
▁court	-837
▁fin	-838
ific	-839
olle	-840
ey	-841
ana	-842
ior	-843
▁cent	-844
ror	-845
▁"	-846
▁thou	-847
ited	-848
▁development	-849
▁later	-850
▁number	-851
▁house	-852
arious	-853
▁ri	-854
▁Pro	-855
RD	-856
▁contin	-857
ures	-858
▁even	-859
▁occas	-860
▁party	-861
ata	-862
ng	-863
▁cons	-864
▁ind	-865
▁admitted	-866
ala	-867
ite	-868
▁situation	-869
ized	-870
pe	-871
▁Am	-872
▁crore	-873
ran	-874
ushed	-875
conom	-876
read	-877
uss	-878
▁only	-879
▁occasion	-880
▁video	-881
rat	-882
▁cap	-883
ctions	-884
▁accident	-885
ft	-886
ices	-887
▁rece	-888
ried	-889
ors	-890
▁dep	-891
▁pri	-892
▁Patna	-893
▁last	-894
ctors	-895
xt	-896
▁Ram	-897
▁among	-898
▁fac	-899
▁set	-900
▁killed	-901
ness	-902
▁alle	-903
▁disc	-904
▁members	-905
ple	-906
▁appro	-907
▁attack	-908
▁given	-909
▁Ministry	-910
ired	-911
▁rushed	-912
▁high	-913
▁regard	-914
ility	-915
▁what	-916
ublic	-917
▁area	-918
▁ph	-919
▁children	-920
ms	-921
▁treat	-922
ars	-923
▁What	-924
▁reported	-925
artment	-926
hes	-927
▁ret	-928
▁various	-929
ified	-930
irl	-931
ecial	-932
urther	-933
▁Is	-934
▁import	-935
riends	-936
▁sub	-937
ides	-938
▁resp	-939
▁demand	-940
▁Khan	-941
▁fe	-942
air	-943
▁before	-944
▁complaint	-945
▁benef	-946
▁leaders	-947
▁National	-948
▁here	-949
chn	-950
mir	-951
▁farmers	-952
▁found	-953
king	-954
▁Patnaik	-955
ched	-956
▁polit	-957
▁home	-958
▁LO	-959
osed	-960
▁oper	-961
▁treatment	-962
uch	-963
cess	-964
▁LORD	-965
vi	-966
led	-967
ists	-968
anc	-969
▁bu	-970
▁support	-971
avy	-972
▁Comm	-973
ven	-974
▁dead	-975
▁lakh	-976
ants	-977
nect	-978
▁announ	-979
▁Kash	-980
ah	-981
▁After	-982
umbai	-983
arn	-984
arh	-985
ploy	-986
▁inter	-987
ained	-988
ccess	-989
▁proble	-990
uth	-991
▁three	-992
▁former	-993
eth	-994
icip	-995
▁going	-996
▁program	-997
ently	-998
ues	-999
▁cur	-1000
eg	-1001
▁op	-1002
ways	-1003
▁dri	-1004
ele	-1005
▁Sab	-1006
▁security	-1007
▁Mumbai	-1008
anj	-1009
▁make	-1010
▁4	-1011
▁Shah	-1012
orts	-1013
▁days	-1014
▁join	-1015
▁trans	-1016
▁One	-1017
ible	-1018
▁call	-1019
▁ve	-1020
▁differe	-1021
▁Dep	-1022
▁women	-1023
▁school	-1024
▁produ	-1025
ual	-1026
▁down	-1027
▁if	-1028
▁Kashmir	-1029
▁came	-1030
▁project	-1031
▁sever	-1032
cation	-1033
▁held	-1034
▁str	-1035
▁information	-1036
ism	-1037
▁bro	-1038
▁today	-1039
▁mon	-1040
▁several	-1041
▁Then	-1042
oper	-1043
▁son	-1044
▁law	-1045
▁cor	-1046
▁serious	-1047
▁land	-1048
ges	-1049
its	-1050
▁econom	-1051
▁success	-1052
rent	-1053
ament	-1054
▁cle	-1055
▁woman	-1056
▁laun	-1057
▁mur	-1058
▁aff	-1059
▁comple	-1060
wards	-1061
ivers	-1062
ines	-1063
▁connect	-1064
enior	-1065
ute	-1066
▁way	-1067
rol	-1068
▁girl	-1069
hul	-1070
▁back	-1071
ressed	-1072
▁terror	-1073
▁inf	-1074
iel	-1075
▁sy	-1076
wn	-1077
ases	-1078
hic	-1079
aking	-1080
ulture	-1081
▁Hospital	-1082
▁years	-1083
inet	-1084
▁local	-1085
BI	-1086
),	-1087
▁leader	-1088
▁follow	-1089
gy	-1090
ross	-1091
▁further	-1092
att	-1093
▁br	-1094
▁Ex	-1095
▁mov	-1096
vail	-1097
▁Bi	-1098
▁won	-1099
abinet	-1100
▁father	-1101
▁different	-1102
▁decision	-1103
▁long	-1104
▁organ	-1105
▁head	-1106
▁immed	-1107
▁vi	-1108
▁resc	-1109
ug	-1110
▁Shar	-1111
▁Both	-1112
ics	-1113
▁soon	-1114
▁see	-1115
▁others	-1116
ration	-1117
uj	-1118
pected	-1119
▁visit	-1120
oh	-1121
▁Wor	-1122
▁vir	-1123
▁ed	-1124
▁gl	-1125
▁however	-1126
▁Me	-1127
asht	-1128
▁Ass	-1129
▁countries	-1130
ield	-1131
ty	-1132
overed	-1133
oney	-1134
uk	-1135
▁where	-1136
▁requ	-1137
▁Secretary	-1138
▁Tr	-1139
▁God	-1140
ording	-1141
ffic	-1142
▁People	-1143
▁just	-1144
ias	-1145
▁Al	-1146
▁def	-1147
▁across	-1148
▁Kap	-1149
▁lar	-1150
▁done	-1151
▁'	-1152
▁win	-1153
stem	-1154
▁issue	-1155
ner	-1156
▁gu	-1157
▁sus	-1158
▁receiv	-1159
▁went	-1160
▁Sabha	-1161
▁Rahul	-1162
▁sur	-1163
kar	-1164
ris	-1165
▁ext	-1166
▁rep	-1167
▁regist	-1168
ock	-1169
▁crit	-1170
ving	-1171
▁particip	-1172
ax	-1173
▁conf	-1174
▁officials	-1175
▁Amit	-1176
ular	-1177
▁look	-1178
▁Two	-1179
ild	-1180
chnolog	-1181
ternational	-1182
▁har	-1183
ina	-1184
ees	-1185
▁That	-1186
▁At	-1187
▁plac	-1188
▁result	-1189
▁Te	-1190
▁prom	-1191
-1	-1192
ished	-1193
▁train	-1194
▁ident	-1195
▁those	-1196
▁still	-1197
▁investigating	-1198
ush	-1199
▁det	-1200
wood	-1201
▁Nave	-1202
▁Ab	-1203
▁areas	-1204
▁Cabinet	-1205
minist	-1206
▁Naveen	-1207
▁quest	-1208
▁great	-1209
olly	-1210
▁sm	-1211
▁got	-1212
▁current	-1213
▁US	-1214
ason	-1215
andid	-1216
▁rele	-1217
▁Jam	-1218
▁Con	-1219
eneral	-1220
ince	-1221
▁wife	-1222
ashtra	-1223
endra	-1224
▁init	-1225
orth	-1226
▁cam	-1227
▁including	-1228
▁Ag	-1229
go	-1230
iet	-1231
▁Sharma	-1232
operation	-1233
▁districts	-1234
ves	-1235
▁registered	-1236
▁sche	-1237
▁village	-1238
▁Res	-1239
▁air	-1240
▁Just	-1241
▁ob	-1242
▁Health	-1243
▁cause	-1244
tar	-1245
▁ful	-1246
▁second	-1247
▁High	-1248
▁few	-1249
▁colle	-1250
ollywood	-1251
▁commit	-1252
▁vehic	-1253
hile	-1254
▁how	-1255
▁grow	-1256
ned	-1257
▁cre	-1258
reme	-1259
▁Fin	-1260
▁Sam	-1261
▁does	-1262
my	-1263
▁ref	-1264
▁important	-1265
▁poss	-1266
stru	-1267
▁role	-1268
▁How	-1269
▁sign	-1270
outh	-1271
▁exam	-1272
▁Its	-1273
▁discuss	-1274
hal	-1275
▁field	-1276
nel	-1277
▁recovered	-1278
▁lot	-1279
▁away	-1280
hand	-1281
be	-1282
augh	-1283
▁event	-1284
embly	-1285
▁right	-1286
▁fore	-1287
anes	-1288
▁District	-1289
▁edu	-1290
ering	-1291
ages	-1292
ative	-1293
▁remain	-1294
ham	-1295
▁Sup	-1296
▁ins	-1297
▁Bollywood	-1298
▁Mahar	-1299
ause	-1300
▁Bank	-1301
▁avail	-1302
arliament	-1303
▁candid	-1304
▁happened	-1305
ada	-1306
ump	-1307
▁increase	-1308
oot	-1309
▁most	-1310
▁business	-1311
▁vict	-1312
▁impro	-1313
par	-1314
ppos	-1315
▁money	-1316
▁upon	-1317
▁prop	-1318
ortem	-1319
▁same	-1320
ands	-1321
arlier	-1322
▁bo	-1323
▁murder	-1324
ention	-1325
▁power	-1326
▁mother	-1327
▁Supreme	-1328
▁news	-1329
eve	-1330
▁10	-1331
ani	-1332
▁seized	-1333
▁thy	-1334
▁seen	-1335
uthor	-1336
▁alleged	-1337
▁condu	-1338
itiz	-1339
thing	-1340
mu	-1341
▁sk	-1342
unity	-1343
▁much	-1344
iately	-1345
▁pe	-1346
engal	-1347
▁Sa	-1348
▁Indias	-1349
▁places	-1350
▁return	-1351
▁Every	-1352
▁national	-1353
▁youth	-1354
▁senior	-1355
▁each	-1356
▁daugh	-1357
▁known	-1358
▁want	-1359
▁protest	-1360
▁Maharashtra	-1361
▁Home	-1362
▁Be	-1363
▁public	-1364
reng	-1365
ency	-1366
▁Bengal	-1367
▁Many	-1368
gest	-1369
tee	-1370
ared	-1371
▁let	-1372
ajor	-1373
▁beg	-1374
▁become	-1375
▁Z	-1376
▁ch	-1377
men	-1378
hant	-1379
▁adv	-1380
icide	-1381
▁If	-1382
airs	-1383
▁del	-1384
▁entire	-1385
com	-1386
▁ye	-1387
eleb	-1388
ras	-1389
▁care	-1390
▁des	-1391
▁elections	-1392
▁never	-1393
▁Im	-1394
▁Part	-1395
te	-1396
▁Kapoor	-1397
ke	-1398
▁tal	-1399
▁attended	-1400
min	-1401
▁trad	-1402
▁Department	-1403
▁-	-1404
▁filed	-1405
▁big	-1406
▁Commission	-1407
▁immediately	-1408
▁streng	-1409
chnology	-1410
▁Acc	-1411
▁Med	-1412
garh	-1413
).	-1414
▁6	-1415
▁administ	-1416
▁dece	-1417
▁persons	-1418
▁provide	-1419
▁name	-1420
▁must	-1421
▁Sp	-1422
▁Jammu	-1423
▁decla	-1424
▁viral	-1425
▁movie	-1426
▁lo	-1427
▁Ut	-1428
▁suicide	-1429
▁programme	-1430
▁driver	-1431
▁declared	-1432
aw	-1433
▁four	-1434
▁Dr	-1435
▁month	-1436
▁Bhar	-1437
▁beh	-1438
uri	-1439
ts	-1440
▁ens	-1441
▁added	-1442
▁Bha	-1443
▁along	-1444
▁near	-1445
▁launched	-1446
ilit	-1447
▁announced	-1448
▁thee	-1449
▁celeb	-1450
▁Pand	-1451
▁grou	-1452
▁Development	-1453
▁char	-1454
ix	-1455
▁[	-1456
▁leg	-1457
▁These	-1458
▁relations	-1459
erv	-1460
ps	-1461
▁Air	-1462
aged	-1463
▁Lok	-1464
▁next	-1465
▁Bal	-1466
▁form	-1467
▁CBI	-1468
▁towards	-1469
rig	-1470
▁deceased	-1471
chan	-1472
mortem	-1473
arat	-1474
feren	-1475
▁Do	-1476
▁order	-1477
▁writ	-1478
ession	-1479
▁special	-1480
▁World	-1481
ote	-1482
ena	-1483
▁China	-1484
▁Hind	-1485
▁called	-1486
ph	-1487
▁nation	-1488
▁%	-1489
▁main	-1490
▁system	-1491
▁Mad	-1492
ops	-1493
ert	-1494
▁city	-1495
ale	-1496
▁Justice	-1497
▁step	-1498
▁sector	-1499
▁jud	-1500
ird	-1501
▁level	-1502
▁opport	-1503
▁states	-1504
▁7	-1505
▁suff	-1506
▁toget	-1507
ature	-1508
▁together	-1509
lement	-1510
▁tem	-1511
rying	-1512
▁used	-1513
▁Parliament	-1514
ped	-1515
▁sol	-1516
▁spe	-1517
rought	-1518
▁political	-1519
eal	-1520
,""	-1521
▁men	-1522
▁pra	-1523
ience	-1524
▁working	-1525
▁Cor	-1526
▁account	-1527
▁bank	-1528
▁critical	-1529
▁Uttar	-1530
▁Act	-1531
ets	-1532
band	-1533
ten	-1534
▁currently	-1535
▁major	-1536
▁issued	-1537
▁mod	-1538
▁another	-1539
▁Shi	-1540
▁poll	-1541
▁Son	-1542
ready	-1543
▁Central	-1544
ners	-1545
▁end	-1546
asing	-1547
ected	-1548
▁received	-1549
uty	-1550
CC	-1551
▁strong	-1552
▁cooperation	-1553
▁est	-1554
stand	-1555
▁peace	-1556
utt	-1557
▁process	-1558
▁shi	-1559
aug	-1560
ality	-1561
▁reason	-1562
aneswar	-1563
ultural	-1564
arch	-1565
▁Aff	-1566
▁education	-1567
▁open	-1568
▁keep	-1569
▁move	-1570
▁build	-1571
▁sl	-1572
20	-1573
▁&	-1574
ubaneswar	-1575
▁question	-1576
▁happy	-1577
▁food	-1578
▁actor	-1579
mon	-1580
▁already	-1581
ancial	-1582
ination	-1583
▁likely	-1584
mes	-1585
▁shared	-1586
▁min	-1587
▁list	-1588
abad	-1589
▁Friends	-1590
▁address	-1591
▁services	-1592
▁provided	-1593
aim	-1594
aid	-1595
▁put	-1596
▁efforts	-1597
▁run	-1598
▁give	-1599
▁employ	-1600
ured	-1601
▁show	-1602
▁fun	-1603
▁Day	-1604
▁doctors	-1605
ension	-1606
fall	-1607
▁tre	-1608
▁respect	-1609
uman	-1610
az	-1611
▁personnel	-1612
▁celebr	-1613
ick	-1614
▁Def	-1615
pposition	-1616
▁Mal	-1617
▁Bhubaneswar	-1618
▁sw	-1619
▁heart	-1620
not	-1621
▁demanded	-1622
▁Affairs	-1623
▁passeng	-1624
▁since	-1625
▁why	-1626
▁val	-1627
ption	-1628
etition	-1629
itizens	-1630
▁Sub	-1631
▁expressed	-1632
▁Guj	-1633
▁available	-1634
obal	-1635
ither	-1636
▁expected	-1637
ink	-1638
▁heavy	-1639
▁own	-1640
▁rest	-1641
▁scheme	-1642
▁cases	-1643
▁saf	-1644
▁supp	-1645
▁now	-1646
self	-1647
▁achi	-1648
▁[]	-1649
▁match	-1650
jay	-1651
▁BJD	-1652
▁brought	-1653
cing	-1654
▁West	-1655
▁inaug	-1656
wal	-1657
iron	-1658
rael	-1659
▁claim	-1660
▁king	-1661
▁war	-1662
usband	-1663
▁test	-1664
▁Re	-1665
▁My	-1666
▁identified	-1667
ruct	-1668
▁Le	-1669
▁Army	-1670
▁Rail	-1671
▁Who	-1672
ging	-1673
▁gre	-1674
▁implement	-1675
has	-1676
▁dont	-1677
▁Centre	-1678
▁continue	-1679
▁fight	-1680
▁medical	-1681
▁According	-1682
▁Israel	-1683
agar	-1684
▁face	-1685
▁taking	-1686
▁Af	-1687
▁daughter	-1688
▁large	-1689
ricket	-1690
▁getting	-1691
▁victim	-1692
▁chall	-1693
▁problems	-1694
▁plan	-1695
▁bring	-1696
▁friends	-1697
▁Eng	-1698
▁underway	-1699
▁Pun	-1700
▁author	-1701
▁lod	-1702
▁8	-1703
▁Form	-1704
erest	-1705
▁clear	-1706
earch	-1707
ium	-1708
▁because	-1709
▁spok	-1710
▁Su	-1711
▁injuries	-1712
uture	-1713
iversity	-1714
▁develop	-1715
▁hist	-1716
▁asked	-1717
lish	-1718
ailed	-1719
ark	-1720
▁love	-1721
▁occur	-1722
utions	-1723
▁Ja	-1724
▁office	-1725
▁region	-1726
ient	-1727
▁Pra	-1728
▁Why	-1729
▁probe	-1730
iety	-1731
asthan	-1732
▁behind	-1733
▁bas	-1734
ID	-1735
▁may	-1736
▁operation	-1737
ins	-1738
▁problem	-1739
riculture	-1740
▁Gujarat	-1741
▁respons	-1742
▁indust	-1743
▁use	-1744
▁Dire	-1745
ones	-1746
acher	-1747
oss	-1748
▁MP	-1749
▁young	-1750
▁compan	-1751
▁pop	-1752
▁ur	-1753
rices	-1754
arent	-1755
▁pr	-1756
▁Rajasthan	-1757
▁bre	-1758
▁Ele	-1759
▁turn	-1760
▁viol	-1761
▁cong	-1762
▁shif	-1763
▁Later	-1764
▁read	-1765
hya	-1766
▁elect	-1767
▁Former	-1768
▁Assembly	-1769
uted	-1770
▁exper	-1771
▁dam	-1772
▁market	-1773
▁States	-1774
▁things	-1775
▁pay	-1776
esp	-1777
▁dist	-1778
▁beli	-1779
orn	-1780
▁future	-1781
▁following	-1782
▁administration	-1783
▁dev	-1784
going	-1785
mp	-1786
▁.	-1787
hu	-1788
▁lives	-1789
▁projects	-1790
rast	-1791
▁che	-1792
▁lodged	-1793
▁inaugur	-1794
itional	-1795
▁shifted	-1796
▁brother	-1797
▁redu	-1798
▁gone	-1799
rand	-1800
▁didnt	-1801
▁Trump	-1802
▁election	-1803
nath	-1804
▁oil	-1805
irus	-1806
▁met	-1807
▁stop	-1808
▁May	-1809
▁constru	-1810
▁benefit	-1811
▁till	-1812
ising	-1813
▁Stud	-1814
ructure	-1815
▁Finance	-1816
▁poor	-1817
▁camp	-1818
▁Add	-1819
▁pati	-1820
▁night	-1821
▁short	-1822
aries	-1823
weet	-1824
ruck	-1825
▁change	-1826
▁arri	-1827
lim	-1828
line	-1829
ibility	-1830
sequ	-1831
▁Party	-1832
▁Wom	-1833
agement	-1834
aff	-1835
▁best	-1836
atch	-1837
▁phot	-1838
▁Co	-1839
▁Bang	-1840
ential	-1841
▁ple	-1842
agers	-1843
▁concer	-1844
▁workers	-1845
▁dies	-1846
icket	-1847
▁rainfall	-1848
▁Defence	-1849
cell	-1850
avirus	-1851
▁priv	-1852
▁always	-1853
▁interest	-1854
▁third	-1855
▁top	-1856
ime	-1857
▁prices	-1858
▁left	-1859
io	-1860
▁decided	-1861
onavirus	-1862
▁pur	-1863
▁instit	-1864
▁husband	-1865
▁directed	-1866
oj	-1867
▁allow	-1868
ourn	-1869
▁hon	-1870
ber	-1871
▁award	-1872
▁Off	-1873
▁cannot	-1874
▁Jan	-1875
▁issues	-1876
▁locals	-1877
ratul	-1878
▁constit	-1879
▁19	-1880
▁making	-1881
▁Ministers	-1882
icy	-1883
▁prev	-1884
▁rescue	-1885
viron	-1886
cil	-1887
ustral	-1888
▁activ	-1889
▁effect	-1890
▁art	-1891
ference	-1892
▁eng	-1893
▁Ash	-1894
vironment	-1895
idence	-1896
dered	-1897
▁perform	-1898
▁mind	-1899
▁hig	-1900
wit	-1901
pped	-1902
▁mor	-1903
▁South	-1904
oint	-1905
▁passengers	-1906
ilities	-1907
▁Some	-1908
▁around	-1909
▁coming	-1910
▁cust	-1911
▁dest	-1912
▁Chandra	-1913
▁ener	-1914
quar	-1915
▁When	-1916
▁families	-1917
▁coll	-1918
ources	-1919
ek	-1920
▁En	-1921
▁pan	-1922
The	-1923
soci	-1924
hay	-1925
-19	-1926
oad	-1927
olved	-1928
▁Colle	-1929
▁parts	-1930
▁contrib	-1931
▁financial	-1932
▁improve	-1933
▁Pl	-1934
▁parties	-1935
▁Bihar	-1936
then	-1937
fic	-1938
hing	-1939
irth	-1940
▁connection	-1941
▁proper	-1942
▁General	-1943
vernor	-1944
▁Austral	-1945
land	-1946
▁resign	-1947
ences	-1948
▁stand	-1949
rastructure	-1950
reed	-1951
▁international	-1952
ream	-1953
▁forces	-1954
▁search	-1955
▁increasing	-1956
ware	-1957
▁economic	-1958
LA	-1959
quir	-1960
▁hold	-1961
▁service	-1962
▁happen	-1963
▁Par	-1964
undred	-1965
hold	-1966
▁global	-1967
pted	-1968
▁tot	-1969
▁rescued	-1970
ike	-1971
000	-1972
▁Ne	-1973
▁Pri	-1974
view	-1975
▁energy	-1976
▁CO	-1977
▁caused	-1978
irman	-1979
▁possible	-1980
isation	-1981
▁economy	-1982
ification	-1983
▁lost	-1984
por	-1985
▁hear	-1986
▁citizens	-1987
▁aut	-1988
▁without	-1989
▁hit	-1990
▁began	-1991
mi	-1992
▁cost	-1993
▁department	-1994
▁job	-1995
▁better	-1996
▁With	-1997
▁sim	-1998
▁officers	-1999
while	-2000
▁acce	-2001
oday	-2002
▁strengthen	-2003
ivil	-2004
aka	-2005
▁disp	-2006
▁saying	-2007
▁rul	-2008
iding	-2009
lad	-2010
ka	-2011
ending	-2012
▁Can	-2013
cle	-2014
▁prof	-2015
▁sister	-2016
ours	-2017
▁Fore	-2018
▁Far	-2019
▁control	-2020
▁might	-2021
▁Bar	-2022
quiry	-2023
sw	-2024
isl	-2025
▁Her	-2026
of	-2027
ury	-2028
▁emp	-2029
▁deb	-2030
▁function	-2031
ames	-2032
▁meas	-2033
emor	-2034
everal	-2035
▁Pad	-2036
▁key	-2037
▁mob	-2038
▁thing	-2039
▁To	-2040
▁Sal	-2041
▁led	-2042
▁Rep	-2043
▁trib	-2044
less	-2045
jab	-2046
ling	-2047
▁Nad	-2048
▁hard	-2049
▁Director	-2050
▁Several	-2051
▁Famil	-2052
▁progress	-2053
▁ensure	-2054
▁society	-2055
udget	-2056
▁sing	-2057
esides	-2058
▁Office	-2059
ection	-2060
▁estab	-2061
arth	-2062
▁Follow	-2063
▁committed	-2064
▁Sw	-2065
▁Sar	-2066
itive	-2067
anwhile	-2068
▁spread	-2069
▁technology	-2070
▁sal	-2071
▁inst	-2072
▁nothing	-2073
▁congratul	-2074
▁15	-2075
by	-2076
▁Vi	-2077
▁released	-2078
▁Shiv	-2079
arents	-2080
▁Tamil	-2081
▁Pras	-2082
ointed	-2083
▁Not	-2084
▁times	-2085
▁secretary	-2086
anka	-2087
▁Punjab	-2088
elfare	-2089
tained	-2090
wor	-2091
ilar	-2092
▁Students	-2093
val	-2094
sequently	-2095
iod	-2096
▁five	-2097
witter	-2098
▁Karn	-2099
▁inn	-2100
▁birth	-2101
▁growth	-2102
▁Coun	-2103
▁chaired	-2104
▁Family	-2105
▁teacher	-2106
ough	-2107
▁enc	-2108
▁Your	-2109
▁whole	-2110
▁Sc	-2111
ys	-2112
ying	-2113
dra	-2114
▁hous	-2115
▁earlier	-2116
irm	-2117
body	-2118
▁word	-2119
▁include	-2120
▁Pradhan	-2121
▁affected	-2122
▁find	-2123
▁view	-2124
▁Jag	-2125
VID	-2126
▁gener	-2127
illion	-2128
▁tour	-2129
▁based	-2130
▁doing	-2131
▁Following	-2132
oura	-2133
pr	-2134
▁authorities	-2135
yed	-2136
ails	-2137
▁International	-2138
▁sou	-2139
▁rains	-2140
▁Or	-2141
unities	-2142
▁Bharat	-2143
▁book	-2144
uttack	-2145
▁Nar	-2146
▁MLA	-2147
▁equ	-2148
ined	-2149
▁Edu	-2150
▁past	-2151
▁12	-2152
mony	-2153
▁schools	-2154
▁told	-2155
▁Puri	-2156
▁thous	-2157
▁played	-2158
cl	-2159
▁fa	-2160
▁rail	-2161
▁CM	-2162
▁Fire	-2163
▁morning	-2164
▁truck	-2165
▁villagers	-2166
ually	-2167
quarters	-2168
▁tweet	-2169
▁free	-2170
▁susp	-2171
▁participated	-2172
▁sust	-2173
▁COVID	-2174
lt	-2175
IC	-2176
iated	-2177
amb	-2178
hether	-2179
▁Yog	-2180
▁Karnat	-2181
▁private	-2182
▁More	-2183
▁bat	-2184
▁period	-2185
▁steps	-2186
▁Madhya	-2187
▁human	-2188
▁vehicles	-2189
rem	-2190
▁needs	-2191
▁Cuttack	-2192
▁forward	-2193
▁candidate	-2194
▁conducted	-2195
▁Our	-2196
▁dise	-2197
▁traffic	-2198
▁successful	-2199
ceed	-2200
▁Loc	-2201
▁Twitter	-2202
idd	-2203
▁Australia	-2204
range	-2205
▁joined	-2206
▁hath	-2207
▁Jhar	-2208
▁eas	-2209
▁el	-2210
▁Karnataka	-2211
angu	-2212
gation	-2213
▁consid	-2214
▁pict	-2215
▁Lord	-2216
▁Heavy	-2217
▁Ran	-2218
▁answ	-2219
ST	-2220
onse	-2221
▁full	-2222
els	-2223
▁date	-2224
▁Council	-2225
ger	-2226
▁closed	-2227
▁journ	-2228
ily	-2229
▁stay	-2230
aster	-2231
▁Medical	-2232
"""	-2233
▁Under	-2234
itation	-2235
▁resident	-2236
hat	-2237
ilater	-2238
▁gr	-2239
▁relationship	-2240
▁par	-2241
▁Today	-2242
▁final	-2243
bed	-2244
▁lit	-2245
▁Tra	-2246
▁tax	-2247
odies	-2248
▁true	-2249
▁vehicle	-2250
come	-2251
▁2018	-2252
▁milit	-2253
rah	-2254
▁ey	-2255
uge	-2256
iqu	-2257
▁politics	-2258
▁says	-2259
cement	-2260
ches	-2261
ival	-2262
oved	-2263
▁drin	-2264
▁real	-2265
▁infrastructure	-2266
▁contest	-2267
▁sides	-2268
▁cricket	-2269
▁written	-2270
oard	-2271
▁clean	-2272
over	-2273
ilateral	-2274
▁station	-2275
irc	-2276
▁committee	-2277
▁Spe	-2278
ude	-2279
ivity	-2280
▁initiat	-2281
cip	-2282
▁Ah	-2283
standing	-2284
▁seriously	-2285
▁Dev	-2286
abor	-2287
▁Governor	-2288
▁col	-2289
▁Meanwhile	-2290
uck	-2291
▁light	-2292
▁Sus	-2293
▁Commit	-2294
▁guest	-2295
▁live	-2296
▁record	-2297
▁9	-2298
▁expl	-2299
▁captain	-2300
▁Deep	-2301
erred	-2302
utes	-2303
ember	-2304
rincip	-2305
hra	-2306
▁Education	-2307
▁Mish	-2308
ene	-2309
part	-2310
▁blood	-2311
▁Arun	-2312
▁parents	-2313
▁building	-2314
jected	-2315
▁ric	-2316
ern	-2317
ika	-2318
▁foc	-2319
▁fall	-2320
ateg	-2321
iance	-2322
▁recently	-2323
ladesh	-2324
▁reportedly	-2325
▁electric	-2326
da	-2327
▁Test	-2328
▁increased	-2329
▁University	-2330
▁Mishra	-2331
▁Vice	-2332
ulation	-2333
ept	-2334
▁Head	-2335
▁vo	-2336
▁press	-2337
aks	-2338
▁able	-2339
▁sea	-2340
▁boy	-2341
▁phone	-2342
▁teams	-2343
▁School	-2344
▁wel	-2345
▁rise	-2346
▁assist	-2347
▁applic	-2348
wan	-2349
ternal	-2350
▁seats	-2351
▁cultural	-2352
▁terrorists	-2353
ron	-2354
adav	-2355
▁fr	-2356
▁liv	-2357
▁completed	-2358
▁During	-2359
▁gri	-2360
▁achieve	-2361
iver	-2362
epend	-2363
▁mult	-2364
▁Roh	-2365
ns	-2366
▁Ke	-2367
resent	-2368
▁force	-2369
▁bodies	-2370
▁pot	-2371
▁candidates	-2372
▁hop	-2373
▁Ker	-2374
▁While	-2375
▁Tel	-2376
▁Bangladesh	-2377
▁roads	-2378
▁Rajnath	-2379
ances	-2380
▁total	-2381
▁deter	-2382
▁Nath	-2383
▁fell	-2384
CT	-2385
ura	-2386
▁fest	-2387
▁old	-2388
▁gold	-2389
▁Yadav	-2390
▁Sri	-2391
jee	-2392
▁Sm	-2393
▁failed	-2394
ficult	-2395
▁loss	-2396
▁basis	-2397
▁trying	-2398
▁gave	-2399
▁fund	-2400
▁wind	-2401
▁product	-2402
▁Among	-2403
▁anything	-2404
▁bel	-2405
▁Committee	-2406
▁temple	-2407
rug	-2408
▁Sci	-2409
▁reach	-2410
ira	-2411
▁ever	-2412
▁host	-2413
▁prep	-2414
▁response	-2415
▁den	-2416
▁gra	-2417
▁difficult	-2418
▁doctor	-2419
▁general	-2420
▁shot	-2421
▁coronavirus	-2422
era	-2423
put	-2424
eved	-2425
ocked	-2426
▁stars	-2427
▁undergoing	-2428
▁everyone	-2429
▁measures	-2430
amed	-2431
emic	-2432
▁Har	-2433
iah	-2434
▁works	-2435
▁request	-2436
isions	-2437
urs	-2438
▁Serv	-2439
▁houses	-2440
▁Pre	-2441
raft	-2442
▁MoU	-2443
▁mot	-2444
aign	-2445
▁Security	-2446
itor	-2447
▁reports	-2448
rs	-2449
vest	-2450
▁dig	-2451
▁Sanj	-2452
▁Besides	-2453
▁complet	-2454
▁history	-2455
edd	-2456
▁inquiry	-2457
work	-2458
etrol	-2459
▁Earlier	-2460
head	-2461
▁patients	-2462
▁threat	-2463
▁feel	-2464
mar	-2465
▁mobile	-2466
▁detained	-2467
▁Bill	-2468
▁Sun	-2469
▁eat	-2470
IT	-2471
ability	-2472
▁officer	-2473
cap	-2474
▁direct	-2475
▁App	-2476
icial	-2477
▁Sit	-2478
▁cere	-2479
▁Kerala	-2480
▁central	-2481
▁Hy	-2482
▁Kh	-2483
▁accom	-2484
ify	-2485
▁married	-2486
▁evening	-2487
▁statement	-2488
ban	-2489
▁enhan	-2490
▁according	-2491
▁opportunity	-2492
▁supply	-2493
▁attend	-2494
IM	-2495
▁sele	-2496
▁Mar	-2497
▁sug	-2498
▁Dis	-2499
▁ant	-2500
▁construction	-2501
pan	-2502
vind	-2503
▁Koh	-2504
▁Afric	-2505
SP	-2506
▁lab	-2507
▁approved	-2508
▁Instit	-2509
▁Don	-2510
▁Indust	-2511
▁passed	-2512
▁appre	-2513
▁small	-2514
▁flood	-2515
▁miss	-2516
▁Thats	-2517
irit	-2518
▁Panda	-2519
▁Opposition	-2520
▁Ban	-2521
▁within	-2522
ples	-2523
▁side	-2524
▁changed	-2525
▁environment	-2526
ards	-2527
▁tar	-2528
aught	-2529
aker	-2530
▁bow	-2531
▁sons	-2532
▁rate	-2533
uru	-2534
CP	-2535
▁star	-2536
▁became	-2537
▁healthy	-2538
▁related	-2539
cha	-2540
▁Andhra	-2541
ises	-2542
▁emer	-2543
▁destro	-2544
ports	-2545
ule	-2546
▁Hence	-2547
▁heard	-2548
iate	-2549
▁Rohit	-2550
▁,	-2551
ici	-2552
order	-2553
ators	-2554
illed	-2555
▁created	-2556
▁industry	-2557
▁Kar	-2558
▁House	-2559
hest	-2560
▁member	-2561
▁Chand	-2562
▁arrange	-2563
▁Prasad	-2564
▁claimed	-2565
anjan	-2566
rial	-2567
▁Kohli	-2568
▁films	-2569
udd	-2570
▁deploy	-2571
▁Pol	-2572
▁huge	-2573
▁foot	-2574
▁kind	-2575
▁self	-2576
▁_	-2577
▁Offic	-2578
▁aware	-2579
ize	-2580
."""	-2581
▁facing	-2582
vere	-2583
meric	-2584
▁Rajya	-2585
▁necess	-2586
▁organised	-2587
▁common	-2588
ipur	-2589
atives	-2590
rincipal	-2591
ense	-2592
▁week	-2593
ization	-2594
▁Muk	-2595
▁stat	-2596
▁Rel	-2597
▁som	-2598
ovind	-2599
▁results	-2600
▁circ	-2601
itness	-2602
▁appointed	-2603
▁fav	-2604
▁opportunities	-2605
▁Force	-2606
▁2017	-2607
atural	-2608
▁occurred	-2609
ids	-2610
▁et	-2611
▁jail	-2612
▁United	-2613
▁ascer	-2614
ively	-2615
▁deep	-2616
▁policy	-2617
▁Everyone	-2618
ama	-2619
▁worked	-2620
▁data	-2621
▁Women	-2622
▁earth	-2623
▁associ	-2624
▁himself	-2625
.5	-2626
▁details	-2627
▁ceremony	-2628
ier	-2629
▁Mr	-2630
down	-2631
round	-2632
▁trade	-2633
▁campaign	-2634
▁operations	-2635
▁fear	-2636
▁seat	-2637
▁North	-2638
nership	-2639
▁governments	-2640
app	-2641
▁returned	-2642
▁dream	-2643
▁sil	-2644
▁begun	-2645
▁Kovind	-2646
iting	-2647
▁Now	-2648
▁hands	-2649
▁series	-2650
,000	-2651
▁contro	-2652
▁challeng	-2653
▁price	-2654
omes	-2655
▁residents	-2656
▁cast	-2657
▁continu	-2658
uf	-2659
bal	-2660
▁shalt	-2661
pir	-2662
▁amount	-2663
▁letter	-2664
▁Ay	-2665
▁Chh	-2666
▁Nob	-2667
▁feat	-2668
▁sold	-2669
▁responsibility	-2670
▁believe	-2671
ertain	-2672
▁Q	-2673
▁50	-2674
▁san	-2675
ights	-2676
▁stated	-2677
▁establish	-2678
▁resol	-2679
olk	-2680
▁Mus	-2681
rong	-2682
▁review	-2683
▁bilateral	-2684
▁Other	-2685
▁impact	-2686
ites	-2687
▁agriculture	-2688
ev	-2689
▁Tha	-2690
▁arrived	-2691
▁Jud	-2692
▁Salman	-2693
▁involved	-2694
▁ver	-2695
▁don	-2696
bs	-2697
▁class	-2698
▁Adity	-2699
▁Das	-2700
▁tw	-2701
side	-2702
▁fulf	-2703
▁propos	-2704
▁rich	-2705
▁Vir	-2706
▁toss	-2707
▁largest	-2708
▁announcement	-2709
atra	-2710
hari	-2711
derabad	-2712
▁cities	-2713
▁cy	-2714
▁raised	-2715
ald	-2716
▁mess	-2717
▁vac	-2718
▁required	-2719
▁represent	-2720
▁custody	-2721
▁director	-2722
▁mom	-2723
▁div	-2724
raj	-2725
▁Their	-2726
▁Therefore	-2727
ayag	-2728
atory	-2729
ley	-2730
▁wal	-2731
▁prime	-2732
▁joint	-2733
▁wa	-2734
▁Hary	-2735
▁deal	-2736
ta	-2737
ari	-2738
ilt	-2739
▁sat	-2740
▁ND	-2741
▁Sah	-2742
▁initiated	-2743
▁Sy	-2744
ains	-2745
apur	-2746
▁bur	-2747
▁Hindi	-2748
▁forest	-2749
▁activities	-2750
edic	-2751
▁Commissioner	-2752
▁spirit	-2753
▁remained	-2754
▁teachers	-2755
▁Hyderabad	-2756
▁Where	-2757
▁allowed	-2758
rip	-2759
▁Sim	-2760
▁spec	-2761
aram	-2762
▁command	-2763
▁paid	-2764
know	-2765
▁Ali	-2766
▁nab	-2767
▁once	-2768
▁community	-2769
▁receiving	-2770
reen	-2771
▁Bus	-2772
attis	-2773
abh	-2774
▁cal	-2775
▁song	-2776
ety	-2777
▁11	-2778
dom	-2779
his	-2780
▁rejected	-2781
hab	-2782
▁Ganj	-2783
▁ready	-2784
cent	-2785
▁relig	-2786
▁opp	-2787
▁College	-2788
ored	-2789
▁target	-2790
▁Haryana	-2791
▁hundred	-2792
rish	-2793
▁Ganjam	-2794
▁transport	-2795
ita	-2796
▁late	-2797
▁Water	-2798
▁anyone	-2799
▁competition	-2800
▁Patel	-2801
▁focus	-2802
▁Farmers	-2803
▁Trans	-2804
▁stri	-2805
▁formed	-2806
oon	-2807
▁rev	-2808
▁Ashok	-2809
▁Indians	-2810
hap	-2811
sel	-2812
reement	-2813
▁100	-2814
▁nearby	-2815
▁Special	-2816
▁investment	-2817
▁facilities	-2818
▁scient	-2819
▁age	-2820
▁innov	-2821
▁langu	-2822
▁online	-2823
▁Russ	-2824
▁handed	-2825
▁Ka	-2826
hood	-2827
oting	-2828
▁gas	-2829
▁scene	-2830
etro	-2831
▁investigations	-2832
▁necessary	-2833
▁sisters	-2834
Ind	-2835
▁Bab	-2836
▁ess	-2837
ung	-2838
ories	-2839
▁suffered	-2840
gn	-2841
coming	-2842
▁Sena	-2843
▁petition	-2844
ini	-2845
attisgarh	-2846
▁appeal	-2847
▁front	-2848
▁condol	-2849
▁charge	-2850
ource	-2851
▁Sushant	-2852
▁etc	-2853
▁Sat	-2854
▁neg	-2855
▁port	-2856
▁democ	-2857
▁prepar	-2858
▁Nadu	-2859
action	-2860
▁Will	-2861
▁positive	-2862
▁launch	-2863
ali	-2864
▁Chairman	-2865
▁deployed	-2866
▁management	-2867
▁aim	-2868
▁company	-2869
▁think	-2870
▁conference	-2871
▁arrangements	-2872
▁Gu	-2873
aled	-2874
▁Cont	-2875
after	-2876
▁Dav	-2877
▁dou	-2878
▁discussed	-2879
▁object	-2880
▁ordered	-2881
rid	-2882
▁cover	-2883
▁months	-2884
▁severe	-2885
▁2019	-2886
ery	-2887
▁Dh	-2888
▁conduct	-2889
▁Reg	-2890
ufact	-2891
▁having	-2892
ogn	-2893
▁consum	-2894
▁signific	-2895
ojana	-2896
▁ministers	-2897
▁Cap	-2898
▁hal	-2899
▁access	-2900
▁eyes	-2901
▁helps	-2902
▁release	-2903
▁training	-2904
▁opposition	-2905
ser	-2906
ighb	-2907
▁shoot	-2908
▁Headquarters	-2909
oo	-2910
rodu	-2911
angana	-2912
selves	-2913
▁suspected	-2914
atform	-2915
stitution	-2916
▁Jap	-2917
gations	-2918
▁hol	-2919
▁CCT	-2920
▁strength	-2921
▁maintain	-2922
▁session	-2923
raman	-2924
▁Nab	-2925
▁Also	-2926
harm	-2927
▁tried	-2928
▁CCTV	-2929
cies	-2930
▁ide	-2931
▁Africa	-2932
▁popular	-2933
▁research	-2934
▁institutions	-2935
▁medic	-2936
▁worth	-2937
▁happiness	-2938
.1	-2939
pper	-2940
▁Child	-2941
▁super	-2942
▁Senior	-2943
▁living	-2944
IS	-2945
▁sum	-2946
▁friend	-2947
▁stopped	-2948
▁ground	-2949
▁tweeted	-2950
▁conv	-2951
▁culture	-2952
▁assembly	-2953
▁er	-2954
▁es	-2955
isher	-2956
▁roles	-2957
▁Nit	-2958
▁Pakistani	-2959
anda	-2960
▁actress	-2961
▁Chhattisgarh	-2962
▁low	-2963
▁Road	-2964
olkata	-2965
▁depart	-2966
▁income	-2967
▁suspended	-2968
▁quality	-2969
▁witness	-2970
▁pow	-2971
▁diesel	-2972
▁England	-2973
ogra	-2974
▁dedic	-2975
▁refused	-2976
▁villages	-2977
▁cr	-2978
adha	-2979
▁Deputy	-2980
▁inaugurated	-2981
▁Kan	-2982
▁fra	-2983
rimin	-2984
▁Chen	-2985
▁Railways	-2986
cial	-2987
▁pros	-2988
▁broke	-2989
aut	-2990
▁truth	-2991
▁celebrated	-2992
▁po	-2993
▁Youth	-2994
▁story	-2995
▁employment	-2996
▁ste	-2997
▁Inst	-2998
▁benefits	-2999
▁therefore	-3000
▁ris	-3001
▁Forest	-3002
▁Nobody	-3003
oms	-3004
mend	-3005
▁festival	-3006
▁fact	-3007
▁David	-3008
▁begin	-3009
▁staff	-3010
formation	-3011
▁Bl	-3012
▁Bach	-3013
ething	-3014
ically	-3015
ler	-3016
imum	-3017
▁Ahmed	-3018
▁exact	-3019
▁Rec	-3020
▁Sur	-3021
▁constitu	-3022
▁thought	-3023
akes	-3024
▁fel	-3025
▁providing	-3026
MC	-3027
▁reve	-3028
▁minor	-3029
erc	-3030
▁turned	-3031
▁Kolkata	-3032
▁Kal	-3033
▁Let	-3034
▁speed	-3035
ems	-3036
▁Election	-3037
▁file	-3038
▁less	-3039
ately	-3040
▁ahead	-3041
▁presented	-3042
▁Cup	-3043
▁prior	-3044
▁Bachchan	-3045
▁movement	-3046
▁Vijay	-3047
▁Mission	-3048
empt	-3049
▁urged	-3050
▁respond	-3051
▁assistance	-3052
▁Memor	-3053
▁Econom	-3054
▁sle	-3055
▁Technology	-3056
nai	-3057
▁Lal	-3058
AN	-3059
▁six	-3060
otion	-3061
▁fast	-3062
▁bench	-3063
ties	-3064
▁Mam	-3065
let	-3066
▁Sum	-3067
▁sports	-3068
▁challen	-3069
▁mis	-3070
▁everything	-3071
rif	-3072
▁abs	-3073
▁close	-3074
▁create	-3075
▁schemes	-3076
▁visited	-3077
acity	-3078
▁Dont	-3079
▁offer	-3080
▁signed	-3081
▁comes	-3082
▁rup	-3083
▁legisl	-3084
ocu	-3085
oses	-3086
▁wis	-3087
ton	-3088
▁Adv	-3089
▁Three	-3090
▁rural	-3091
▁damaged	-3092
▁ear	-3093
▁violence	-3094
▁bad	-3095
▁civil	-3096
▁denied	-3097
▁employees	-3098
▁Thous	-3099
▁elected	-3100
▁immediate	-3101
▁Board	-3102
▁capital	-3103
hib	-3104
▁25	-3105
▁nor	-3106
▁Sund	-3107
▁purp	-3108
▁river	-3109
had	-3110
▁safe	-3111
▁student	-3112
▁followed	-3113
▁kn	-3114
lished	-3115
▁whether	-3116
DP	-3117
▁Sanjay	-3118
▁caught	-3119
tle	-3120
▁Even	-3121
▁Railway	-3122
▁aud	-3123
ensation	-3124
▁manufact	-3125
▁Agriculture	-3126
▁electricity	-3127
erjee	-3128
ledge	-3129
▁Invest	-3130
wa	-3131
▁Int	-3132
▁integ	-3133
attle	-3134
rance	-3135
▁approval	-3136
▁ang	-3137
▁Chennai	-3138
adi	-3139
▁higher	-3140
▁neighb	-3141
▁ascertained	-3142
▁mus	-3143
▁highest	-3144
▁thousand	-3145
▁allegations	-3146
▁Pa	-3147
rigade	-3148
▁Welfare	-3149
▁platform	-3150
uda	-3151
▁Secret	-3152
▁sustained	-3153
▁programmes	-3154
hase	-3155
▁gun	-3156
ajpur	-3157
▁congratulated	-3158
unic	-3159
▁Zeal	-3160
▁Thousands	-3161
▁dom	-3162
▁examination	-3163
▁Fil	-3164
▁dra	-3165
▁disease	-3166
▁X	-3167
den	-3168
▁Yojana	-3169
yal	-3170
Mo	-3171
▁30	-3172
▁moment	-3173
itude	-3174
▁kept	-3175
▁railway	-3176
▁suffering	-3177
urb	-3178
▁Amb	-3179
▁Leg	-3180
▁Sonia	-3181
encies	-3182
▁Public	-3183
▁Constitution	-3184
riage	-3185
▁judge	-3186
▁foreign	-3187
oud	-3188
▁creat	-3189
▁Banerjee	-3190
▁13	-3191
▁coun	-3192
▁space	-3193
▁completely	-3194
ius	-3195
jit	-3196
▁San	-3197
▁bill	-3198
▁Institute	-3199
▁14	-3200
amin	-3201
▁laid	-3202
▁vent	-3203
▁share	-3204
vent	-3205
▁Nirm	-3206
▁Business	-3207
aily	-3208
▁Nav	-3209
▁Zealand	-3210
▁growing	-3211
▁suspect	-3212
▁Ak	-3213
ohan	-3214
▁exist	-3215
▁border	-3216
▁Iran	-3217
▁fled	-3218
uished	-3219
▁saith	-3220
▁carried	-3221
▁challenges	-3222
▁Corpor	-3223
▁firing	-3224
▁developed	-3225
▁net	-3226
▁Jajpur	-3227
drak	-3228
▁Soc	-3229
▁wrong	-3230
▁appreci	-3231
ots	-3232
▁opened	-3233
▁defence	-3234
▁direction	-3235
▁production	-3236
▁boost	-3237
▁group	-3238
▁importance	-3239
uel	-3240
irst	-3241
▁amb	-3242
harge	-3243
merce	-3244
▁Priy	-3245
remely	-3246
▁pract	-3247
▁Exp	-3248
ayan	-3249
▁budget	-3250
▁polls	-3251
rab	-3252
▁misha	-3253
▁receive	-3254
▁proposed	-3255
▁companies	-3256
▁non	-3257
▁pand	-3258
▁card	-3259
▁crime	-3260
▁wicket	-3261
▁certain	-3262
▁something	-3263
ously	-3264
▁position	-3265
▁using	-3266
▁Bhadrak	-3267
▁implemented	-3268
▁z	-3269
▁playing	-3270
▁questions	-3271
to	-3272
road	-3273
ji	-3274
play	-3275
▁partnership	-3276
▁Sche	-3277
▁mass	-3278
anchay	-3279
▁Sitha	-3280
ager	-3281
oured	-3282
▁either	-3283
yan	-3284
uled	-3285
khand	-3286
▁Donald	-3287
▁hearing	-3288
kan	-3289
▁IP	-3290
▁wid	-3291
▁skill	-3292
dict	-3293
▁rap	-3294
▁Moham	-3295
▁prepared	-3296
▁forth	-3297
▁18	-3298
▁Se	-3299
▁block	-3300
▁essential	-3301
oted	-3302
▁similar	-3303
▁colleges	-3304
▁ban	-3305
mb	-3306
▁nom	-3307
▁rank	-3308
▁digital	-3309
▁distrib	-3310
▁weather	-3311
▁Sitharaman	-3312
mad	-3313
urt	-3314
▁UP	-3315
ator	-3316
racy	-3317
▁petrol	-3318
▁airport	-3319
▁proposal	-3320
▁lim	-3321
▁lock	-3322
▁norm	-3323
ming	-3324
▁Another	-3325
AI	-3326
ukh	-3327
alled	-3328
▁fans	-3329
▁Nirmala	-3330
▁Gaj	-3331
▁daily	-3332
▁understand	-3333
▁Aks	-3334
craft	-3335
▁Mamata	-3336
▁controvers	-3337
acted	-3338
▁tell	-3339
▁neither	-3340
ze	-3341
asons	-3342
▁vision	-3343
▁brigade	-3344
▁critic	-3345
▁pandemic	-3346
▁hospitals	-3347
ining	-3348
ecially	-3349
iversary	-3350
▁destroyed	-3351
▁bul	-3352
▁cut	-3353
▁wors	-3354
▁agreed	-3355
▁included	-3356
SE	-3357
known	-3358
▁leading	-3359
▁products	-3360
▁Sambal	-3361
ara	-3362
nam	-3363
▁recom	-3364
▁Janata	-3365
ault	-3366
rist	-3367
▁alert	-3368
▁Virat	-3369
▁safety	-3370
▁Due	-3371
▁GST	-3372
▁hope	-3373
▁dispute	-3374
▁prevent	-3375
▁vice	-3376
▁crores	-3377
▁Ben	-3378
▁photo	-3379
▁answer	-3380
▁mishap	-3381
▁presence	-3382
.2	-3383
▁Kendra	-3384
▁tension	-3385
▁postmortem	-3386
vo	-3387
▁rupees	-3388
▁advised	-3389
▁defe	-3390
▁single	-3391
▁Prot	-3392
▁words	-3393
▁picture	-3394
▁Principal	-3395
van	-3396
yer	-3397
▁sac	-3398
▁honour	-3399
▁north	-3400
▁rules	-3401
prit	-3402
▁mas	-3403
▁Tour	-3404
▁centre	-3405
▁ago	-3406
book	-3407
▁regarding	-3408
ona	-3409
iers	-3410
▁Grou	-3411
▁Science	-3412
▁saw	-3413
▁Sambalpur	-3414
achal	-3415
▁accept	-3416
vell	-3417
▁prosper	-3418
ows	-3419
▁Var	-3420
▁mil	-3421
▁Assam	-3422
▁East	-3423
▁reli	-3424
▁ill	-3425
▁dele	-3426
▁Whats	-3427
▁Jos	-3428
▁journey	-3429
PF	-3430
▁Jay	-3431
▁speak	-3432
ME	-3433
ring	-3434
▁Are	-3435
▁Krish	-3436
▁Sundar	-3437
reedom	-3438
▁concerned	-3439
▁population	-3440
▁SP	-3441
rated	-3442
▁posted	-3443
jun	-3444
▁Cl	-3445
▁Ge	-3446
▁college	-3447
▁hast	-3448
▁round	-3449
iled	-3450
▁2020	-3451
▁Republic	-3452
▁capacity	-3453
▁subsequently	-3454
▁hot	-3455
▁cant	-3456
▁leave	-3457
▁drinking	-3458
▁personal	-3459
for	-3460
iri	-3461
▁introdu	-3462
▁bri	-3463
inary	-3464
▁cash	-3465
▁Muslim	-3466
inal	-3467
▁surpr	-3468
▁discussion	-3469
▁Up	-3470
▁panic	-3471
▁Az	-3472
ghan	-3473
▁half	-3474
▁town	-3475
▁terrorism	-3476
andum	-3477
▁lear	-3478
▁Rajput	-3479
anta	-3480
▁whom	-3481
▁histor	-3482
▁docu	-3483
▁Apart	-3484
▁enter	-3485
▁Theres	-3486
▁active	-3487
We	-3488
▁Hindu	-3489
▁Research	-3490
ami	-3491
▁Mant	-3492
▁travel	-3493
agram	-3494
▁banks	-3495
▁couple	-3496
▁require	-3497
▁significant	-3498
angir	-3499
ishermen	-3500
risis	-3501
▁reply	-3502
▁cred	-3503
▁quar	-3504
▁doesnt	-3505
▁esp	-3506
▁produced	-3507
ken	-3508
▁SC	-3509
▁reform	-3510
▁21	-3511
▁ment	-3512
▁const	-3513
▁interro	-3514
ological	-3515
▁line	-3516
▁site	-3517
most	-3518
▁promote	-3519
▁reasons	-3520
▁accompan	-3521
▁marriage	-3522
▁allegedly	-3523
▁IS	-3524
▁lay	-3525
▁changes	-3526
orrow	-3527
▁shar	-3528
esters	-3529
▁rally	-3530
mission	-3531
angpur	-3532
igation	-3533
▁grief	-3534
▁additional	-3535
▁grant	-3536
▁talks	-3537
▁Afghan	-3538
▁trains	-3539
▁lakhs	-3540
▁tradition	-3541
esperson	-3542
▁Instagram	-3543
▁fru	-3544
▁though	-3545
une	-3546
▁girls	-3547
int	-3548
▁16	-3549
▁ut	-3550
▁charges	-3551
▁foundation	-3552
miss	-3553
▁prin	-3554
▁faith	-3555
▁Akshay	-3556
▁potential	-3557
dul	-3558
▁bless	-3559
▁Jharkhand	-3560
▁connectivity	-3561
ela	-3562
opsy	-3563
▁Ter	-3564
▁Mahat	-3565
▁Scheme	-3566
igence	-3567
▁continues	-3568
▁leadership	-3569
vt	-3570
▁Ve	-3571
inese	-3572
▁bail	-3573
▁spoke	-3574
▁wro	-3575
▁Face	-3576
▁transf	-3577
▁compensation	-3578
▁Sol	-3579
▁exchan	-3580
▁autopsy	-3581
▁protect	-3582
▁implementation	-3583
▁victims	-3584
▁Jer	-3585
▁Prog	-3586
▁watch	-3587
▁remains	-3588
▁notification	-3589
▁UN	-3590
ternet	-3591
▁greet	-3592
▁named	-3593
athy	-3594
▁Kul	-3595
▁Prof	-3596
▁contribution	-3597
▁pil	-3598
▁Amitabh	-3599
▁murdered	-3600
apati	-3601
▁extremely	-3602
▁game	-3603
▁tele	-3604
ependence	-3605
▁Japan	-3606
▁tab	-3607
▁ir	-3608
ians	-3609
ti	-3610
▁ty	-3611
▁Chan	-3612
▁Award	-3613
▁Dha	-3614
▁crisis	-3615
▁million	-3616
light	-3617
nergy	-3618
▁emphas	-3619
▁Deepika	-3620
CCI	-3621
▁ord	-3622
▁Dharm	-3623
▁Imran	-3624
▁Since	-3625
▁recogn	-3626
▁democracy	-3627
▁lif	-3628
▁Chinese	-3629
▁Jes	-3630
inated	-3631
▁Civil	-3632
▁quite	-3633
▁trust	-3634
▁Mahatma	-3635
▁knowledge	-3636
▁commitment	-3637
▁voice	-3638
▁resignation	-3639
▁bab	-3640
where	-3641
aps	-3642
rep	-3643
▁mag	-3644
▁First	-3645
▁especially	-3646
hel	-3647
▁justice	-3648
▁addition	-3649
▁consider	-3650
mber	-3651
rage	-3652
▁Set	-3653
gu	-3654
oned	-3655
▁Priyanka	-3656
▁experience	-3657
▁partic	-3658
▁encoura	-3659
▁Bas	-3660
▁built	-3661
▁mention	-3662
▁nations	-3663
▁application	-3664
▁lin	-3665
▁fourth	-3666
▁modern	-3667
▁attention	-3668
cept	-3669
af	-3670
roud	-3671
utive	-3672
▁previous	-3673
▁anniversary	-3674
▁Lanka	-3675
▁means	-3676
ervation	-3677
▁200	-3678
▁Organ	-3679
▁sched	-3680
▁takes	-3681
ruption	-3682
▁message	-3683
▁Roy	-3684
▁exting	-3685
▁reduce	-3686
DI	-3687
▁Net	-3688
▁gets	-3689
▁Jesus	-3690
▁intens	-3691
▁manner	-3692
▁sources	-3693
▁suggest	-3694
▁terrorist	-3695
▁save	-3696
▁coast	-3697
▁looking	-3698
▁initiatives	-3699
JP	-3700
▁Ur	-3701
▁Best	-3702
▁phase	-3703
▁stone	-3704
▁Budget	-3705
▁Christ	-3706
▁Trip	-3707
▁rape	-3708
▁wrote	-3709
▁damage	-3710
▁Similar	-3711
▁Na	-3712
▁freedom	-3713
▁ji	-3714
year	-3715
▁Min	-3716
▁rout	-3717
▁sure	-3718
▁Ranjan	-3719
▁Pul	-3720
▁bra	-3721
▁Over	-3722
person	-3723
▁players	-3724
▁deterior	-3725
de	-3726
iab	-3727
cast	-3728
fort	-3729
kash	-3730
▁Super	-3731
eech	-3732
▁imm	-3733
▁suc	-3734
▁clos	-3735
▁pain	-3736
▁Yoga	-3737
▁Brah	-3738
▁music	-3739
▁Americ	-3740
erve	-3741
celled	-3742
India	-3743
▁repl	-3744
▁Legisl	-3745
ricultural	-3746
▁escap	-3747
▁natural	-3748
lam	-3749
▁Fund	-3750
▁beat	-3751
▁rights	-3752
▁outside	-3753
▁approves	-3754
▁squ	-3755
▁vote	-3756
▁Further	-3757
▁Mohant	-3758
▁rising	-3759
otees	-3760
▁English	-3761
▁Gur	-3762
▁Kej	-3763
aring	-3764
uguda	-3765
urance	-3766
▁continued	-3767
▁else	-3768
▁cancer	-3769
▁priest	-3770
▁Telangana	-3771
▁skin	-3772
▁Kejri	-3773
▁lockdown	-3774
▁value	-3775
▁career	-3776
▁sought	-3777
▁opposed	-3778
ening	-3779
ularly	-3780
▁condem	-3781
▁attempt	-3782
▁Cons	-3783
joy	-3784
chnical	-3785
▁thereof	-3786
▁features	-3787
oni	-3788
suguda	-3789
vention	-3790
▁plea	-3791
▁Local	-3792
▁log	-3793
▁ten	-3794
▁includes	-3795
▁AI	-3796
inghpur	-3797
▁succeed	-3798
AT	-3799
▁spokesperson	-3800
rene	-3801
▁wants	-3802
▁aircraft	-3803
handi	-3804
▁Gang	-3805
▁welfare	-3806
▁IC	-3807
▁Sik	-3808
▁oath	-3809
▁Mantri	-3810
▁strict	-3811
▁Mohanty	-3812
▁heav	-3813
▁Action	-3814
▁Bharati	-3815
▁Facebook	-3816
-2	-3817
clear	-3818
pping	-3819
▁sectors	-3820
▁Che	-3821
▁extended	-3822
▁Team	-3823
▁south	-3824
▁wasnt	-3825
▁Economic	-3826
anath	-3827
ourse	-3828
▁camera	-3829
▁really	-3830
▁facility	-3831
▁Information	-3832
▁army	-3833
▁Kejriwal	-3834
▁Tourism	-3835
▁purpose	-3836
▁science	-3837
▁complete	-3838
▁Dharmendra	-3839
ograph	-3840
▁Jagats	-3841
▁initiative	-3842
deep	-3843
▁Most	-3844
▁Yogi	-3845
▁Group	-3846
▁mer	-3847
▁Jharsuguda	-3848
icit	-3849
ulted	-3850
bing	-3851
izing	-3852
▁proud	-3853
▁NCP	-3854
mohan	-3855
▁express	-3856
estic	-3857
hered	-3858
▁mount	-3859
reprene	-3860
▁ticket	-3861
▁victory	-3862
SS	-3863
ays	-3864
▁capt	-3865
▁obser	-3866
▁separ	-3867
▁appear	-3868
▁Jagatsinghpur	-3869
▁Nep	-3870
▁exec	-3871
▁biggest	-3872
▁upcoming	-3873
▁Project	-3874
▁Naid	-3875
▁salt	-3876
▁Of	-3877
veer	-3878
uresh	-3879
▁path	-3880
▁shut	-3881
aput	-3882
inder	-3883
▁worried	-3884
▁Cooperation	-3885
▁accompanied	-3886
hanj	-3887
▁seven	-3888
▁verdict	-3889
▁resources	-3890
▁Kor	-3891
▁Good	-3892
▁brothers	-3893
▁Ang	-3894
▁Suresh	-3895
asi	-3896
▁toll	-3897
▁Energy	-3898
▁daughters	-3899
ived	-3900
ricke	-3901
RF	-3902
iy	-3903
▁Program	-3904
bir	-3905
▁easy	-3906
▁empower	-3907
▁revealed	-3908
hot	-3909
▁Him	-3910
▁check	-3911
▁sleep	-3912
▁Summit	-3913
unt	-3914
▁Cro	-3915
irmed	-3916
▁soldiers	-3917
▁Nu	-3918
▁Asia	-3919
idamb	-3920
▁mand	-3921
▁Services	-3922
IR	-3923
▁needed	-3924
▁facilit	-3925
▁Yet	-3926
▁relief	-3927
▁Memorandum	-3928
▁gar	-3929
▁Hundred	-3930
▁example	-3931
▁Gajapati	-3932
▁decl	-3933
▁phys	-3934
▁groups	-3935
▁bike	-3936
▁Arvind	-3937
▁little	-3938
▁awarded	-3939
▁continuing	-3940
hips	-3941
▁risk	-3942
▁Naidu	-3943
▁belong	-3944
▁i	-3945
▁Sk	-3946
rant	-3947
▁Nag	-3948
▁Plan	-3949
▁undert	-3950
▁missing	-3951
aya	-3952
▁Sin	-3953
▁shooting	-3954
▁decisions	-3955
▁performance	-3956
clud	-3957
void	-3958
enced	-3959
▁Such	-3960
eds	-3961
▁blast	-3962
▁loved	-3963
▁mut	-3964
▁Sahu	-3965
▁Author	-3966
▁France	-3967
▁welcom	-3968
▁Krishna	-3969
▁benefici	-3970
vey	-3971
▁recent	-3972
▁accepted	-3973
▁Mand	-3974
▁plays	-3975
▁Social	-3976
▁born	-3977
▁above	-3978
ertific	-3979
▁deaths	-3980
care	-3981
▁tro	-3982
▁via	-3983
▁Kala	-3984
▁Only	-3985
▁themselves	-3986
icked	-3987
▁fine	-3988
uit	-3989
▁sn	-3990
wama	-3991
▁die	-3992
▁Anil	-3993
▁Balangir	-3994
▁collabor	-3995
▁throughout	-3996
mosp	-3997
▁Pal	-3998
▁Swar	-3999
▁Rajiv	-4000
▁Locals	-4001
▁notice	-4002
▁Transport	-4003
▁Film	-4004
▁didn	-4005
hapatra	-4006
▁conditions	-4007
imate	-4008
rupted	-4009
▁Cricket	-4010
isf	-4011
▁Pulwama	-4012
▁pictures	-4013
▁pressure	-4014
▁supported	-4015
▁Pan	-4016
▁educ	-4017
▁smart	-4018
▁powder	-4019
▁Prakash	-4020
▁provision	-4021
inent	-4022
▁Srin	-4023
▁virus	-4024
▁discussions	-4025
▁extinguished	-4026
▁Russia	-4027
ode	-4028
arned	-4029
▁monitor	-4030
idambaram	-4031
▁17	-4032
▁Dhoni	-4033
▁tourism	-4034
▁moved	-4035
▁responsible	-4036
cher	-4037
ract	-4038
▁Lad	-4039
based	-4040
▁2016	-4041
▁baby	-4042
▁Afghanistan	-4043
AP	-4044
aging	-4045
▁Take	-4046
▁repe	-4047
▁Speaker	-4048
▁militants	-4049
▁Chidambaram	-4050
mosphere	-4051
▁km	-4052
▁Met	-4053
iture	-4054
▁talk	-4055
▁Arjun	-4056
▁gather	-4057
resh	-4058
▁Rao	-4059
▁ran	-4060
▁Adityanath	-4061
▁early	-4062
▁welcome	-4063
▁carrying	-4064
rac	-4065
▁Hon	-4066
▁pack	-4067
▁levels	-4068
▁Governments	-4069
iber	-4070
▁cas	-4071
▁none	-4072
▁From	-4073
▁inside	-4074
▁Hundreds	-4075
▁selected	-4076
'.	-4077
▁term	-4078
▁journal	-4079
▁attacked	-4080
▁participate	-4081
hy	-4082
▁couldnt	-4083
▁constituency	-4084
oure	-4085
randed	-4086
een	-4087
▁opt	-4088
▁doub	-4089
rising	-4090
▁thine	-4091
▁ren	-4092
▁grad	-4093
▁rule	-4094
▁shops	-4095
▁Subsequently	-4096
▁fif	-4097
inger	-4098
▁soul	-4099
▁board	-4100
▁treated	-4101
alem	-4102
▁Actor	-4103
▁Manmohan	-4104
▁Corporation	-4105
▁Mayurb	-4106
▁Sports	-4107
▁effort	-4108
▁nobody	-4109
▁devotees	-4110
▁thousands	-4111
▁atmosphere	-4112
EO	-4113
iter	-4114
▁deg	-4115
▁design	-4116
RC	-4117
▁oppos	-4118
▁Associ	-4119
▁accounts	-4120
.3	-4121
rate	-4122
uary	-4123
anger	-4124
ushan	-4125
▁Power	-4126
▁headed	-4127
leum	-4128
▁cricke	-4129
▁crimin	-4130
▁wishes	-4131
usion	-4132
▁MLAs	-4133
▁Thus	-4134
▁Ranveer	-4135
▁cancelled	-4136
▁pleas	-4137
▁Bharatiya	-4138
▁40	-4139
▁pray	-4140
ping	-4141
▁fou	-4142
▁alone	-4143
▁Bargarh	-4144
▁Speaking	-4145
▁24	-4146
▁rob	-4147
▁prevail	-4148
wat	-4149
ivid	-4150
▁Art	-4151
▁cul	-4152
▁ways	-4153
gency	-4154
▁giving	-4155
▁unknown	-4156
eed	-4157
▁experi	-4158
▁welcomed	-4159
▁Kalahandi	-4160
▁Sundargarh	-4161
▁Em	-4162
▁Trad	-4163
▁thanked	-4164
""."	-4165
▁grand	-4166
etroleum	-4167
▁ministry	-4168
▁duty	-4169
endment	-4170
▁blocked	-4171
▁proceed	-4172
▁enjoy	-4173
pay	-4174
▁anti	-4175
▁season	-4176
▁speech	-4177
▁hair	-4178
▁rapid	-4179
▁numbers	-4180
▁Commerce	-4181
▁Bengaluru	-4182
▁Abdul	-4183
▁External	-4184
▁...	-4185
apada	-4186
▁inj	-4187
oming	-4188
▁surv	-4189
RO	-4190
▁argu	-4191
▁protesters	-4192
khar	-4193
ashed	-4194
▁temper	-4195
▁careful	-4196
crib	-4197
▁tom	-4198
▁display	-4199
▁addressed	-4200
well	-4201
▁eld	-4202
▁Lead	-4203
▁laws	-4204
▁Those	-4205
▁Dig	-4206
under	-4207
▁language	-4208
repreneurs	-4209
ane	-4210
▁Ba	-4211
▁Tal	-4212
▁categ	-4213
▁Koraput	-4214
hera	-4215
▁warm	-4216
He	-4217
ialog	-4218
venue	-4219
▁offering	-4220
▁stranded	-4221
ex	-4222
▁IA	-4223
▁mission	-4224
▁lat	-4225
erted	-4226
vision	-4227
▁peaceful	-4228
▁MS	-4229
uses	-4230
▁Keep	-4231
eshwar	-4232
▁contain	-4233
▁dismiss	-4234
the	-4235
▁Khur	-4236
▁instru	-4237
▁preparations	-4238
ohar	-4239
▁Trib	-4240
▁requested	-4241
atic	-4242
▁comb	-4243
▁Mayurbhanj	-4244
bar	-4245
icted	-4246
▁Nepal	-4247
▁tourn	-4248
▁offered	-4249
▁investigated	-4250
▁drink	-4251
▁motor	-4252
▁screen	-4253
▁Additional	-4254
▁Understanding	-4255
▁Gl	-4256
ounter	-4257
▁travell	-4258
▁affect	-4259
▁IT	-4260
ades	-4261
▁Kart	-4262
▁Foreign	-4263
▁sustain	-4264
umer	-4265
▁Maha	-4266
▁course	-4267
▁weap	-4268
ayagada	-4269
▁Service	-4270
▁diseases	-4271
PM	-4272
▁pen	-4273
▁break	-4274
▁appreciated	-4275
eder	-4276
imes	-4277
▁sad	-4278
▁anim	-4279
▁vacc	-4280
ulated	-4281
▁household	-4282
▁technolog	-4283
JD	-4284
▁Atal	-4285
▁BCCI	-4286
pri	-4287
▁photos	-4288
▁protests	-4289
▁surprised	-4290
▁confidence	-4291
▁Prat	-4292
▁weight	-4293
ato	-4294
▁Col	-4295
▁Ajay	-4296
edding	-4297
▁battle	-4298
▁engine	-4299
▁priority	-4300
▁referred	-4301
▁challenge	-4302
▁pollution	-4303
▁beneficial	-4304
icle	-4305
▁Dal	-4306
adium	-4307
ariat	-4308
▁Environment	-4309
udi	-4310
▁202	-4311
▁Cov	-4312
▁Ac	-4313
arangpur	-4314
BJP	-4315
ott	-4316
uro	-4317
▁served	-4318
ables	-4319
▁black	-4320
▁status	-4321
opal	-4322
ockey	-4323
▁Hard	-4324
▁mentioned	-4325
▁lack	-4326
▁study	-4327
▁profession	-4328
▁manufacturing	-4329
amp	-4330
eddy	-4331
▁Pass	-4332
▁Jerus	-4333
▁cross	-4334
▁chairman	-4335
▁ap	-4336
viation	-4337
▁delive	-4338
▁Rayagada	-4339
▁existing	-4340
II	-4341
▁Ji	-4342
▁organis	-4343
▁Jerusalem	-4344
eor	-4345
hik	-4346
▁System	-4347
▁alliance	-4348
▁happening	-4349
▁pun	-4350
▁Jait	-4351
▁leav	-4352
▁until	-4353
▁awards	-4354
ires	-4355
▁custom	-4356
▁wanted	-4357
▁approach	-4358
omb	-4359
▁burnt	-4360
▁knows	-4361
▁demanding	-4362
▁submitted	-4363
▁commission	-4364
rel	-4365
▁Bro	-4366
▁tit	-4367
▁judicial	-4368
▁bar	-4369
rison	-4370
▁wish	-4371
ounded	-4372
▁mater	-4373
▁Panchay	-4374
▁individ	-4375
▁red	-4376
▁Whether	-4377
reet	-4378
achin	-4379
▁percent	-4380
▁:	-4381
▁Tem	-4382
▁milk	-4383
▁makes	-4384
▁actors	-4385
▁looked	-4386
▁enhance	-4387
▁winners	-4388
▁Agreement	-4389
ne	-4390
▁Sunil	-4391
▁names	-4392
▁audience	-4393
▁communic	-4394
itamin	-4395
▁Nabarangpur	-4396
▁hy	-4397
iful	-4398
ighters	-4399
otes	-4400
▁coal	-4401
▁apply	-4402
▁subject	-4403
▁Work	-4404
▁evil	-4405
▁mark	-4406
▁legal	-4407
▁threatened	-4408
▁condolences	-4409
▁silver	-4410
vernance	-4411
▁laboure	-4412
▁removed	-4413
set	-4414
ilty	-4415
▁MPs	-4416
▁War	-4417
▁delivered	-4418
▁demands	-4419
▁brid	-4420
▁satisf	-4421
▁invited	-4422
▁Association	-4423
ga	-4424
▁desp	-4425
▁door	-4426
elines	-4427
rises	-4428
▁send	-4429
▁ties	-4430
▁Sinha	-4431
▁agree	-4432
bit	-4433
▁BR	-4434
level	-4435
▁text	-4436
astern	-4437
▁terms	-4438
▁hospitalised	-4439
acy	-4440
gypt	-4441
▁trees	-4442
▁domestic	-4443
▁Coronavirus	-4444
▁deteriorated	-4445
rugg	-4446
▁Rain	-4447
▁sens	-4448
▁controversy	-4449
▁Kat	-4450
▁Nay	-4451
▁burn	-4452
▁loan	-4453
▁trou	-4454
▁happens	-4455
▁Industry	-4456
ugu	-4457
ependent	-4458
▁Brahm	-4459
▁sex	-4460
icious	-4461
▁fields	-4462
▁Management	-4463
▁TV	-4464
dden	-4465
▁Aries	-4466
▁Bec	-4467
▁pred	-4468
▁runs	-4469
▁explos	-4470
enditure	-4471
ja	-4472
▁cho	-4473
▁Port	-4474
ategic	-4475
▁Joint	-4476
▁guilty	-4477
▁contact	-4478
▁Secretariat	-4479
ented	-4480
▁Kapil	-4481
▁resigned	-4482
▁generation	-4483
▁sin	-4484
▁Food	-4485
▁territ	-4486
▁Mohapatra	-4487
▁Pe	-4488
▁box	-4489
▁often	-4490
▁expand	-4491
▁Similarly	-4492
aur	-4493
▁By	-4494
enty	-4495
▁BJPs	-4496
ique	-4497
▁incl	-4498
▁exerc	-4499
▁Telugu	-4500
▁comment	-4501
▁Administ	-4502
▁beneficiaries	-4503
sh	-4504
▁cru	-4505
▁Kore	-4506
▁bowl	-4507
▁Moses	-4508
▁raped	-4509
entment	-4510
▁running	-4511
▁identity	-4512
▁associated	-4513
hara	-4514
▁Kam	-4515
▁dro	-4516
▁casual	-4517
▁strike	-4518
▁effective	-4519
▁encounter	-4520
▁exc	-4521
▁Luck	-4522
▁Swach	-4523
▁finance	-4524
▁wedding	-4525
▁tournament	-4526
▁Show	-4527
▁ongoing	-4528
▁Children	-4529
▁IN	-4530
▁2014	-4531
▁infl	-4532
hankar	-4533
▁military	-4534
▁Judah	-4535
▁colour	-4536
▁incidents	-4537
mary	-4538
▁network	-4539
▁Inf	-4540
▁Human	-4541
▁goods	-4542
▁creating	-4543
▁investigate	-4544
kanal	-4545
▁Woman	-4546
henkanal	-4547
▁Brother	-4548
▁solution	-4549
SC	-4550
▁Op	-4551
▁Gas	-4552
ressing	-4553
▁Jaitley	-4554
▁certific	-4555
▁provides	-4556
arty	-4557
eswar	-4558
▁Than	-4559
▁stake	-4560
▁Policy	-4561
▁behold	-4562
▁resolve	-4563
-20	-4564
▁Here	-4565
▁window	-4566
ender	-4567
▁Paduk	-4568
▁normal	-4569
▁resolved	-4570
iple	-4571
▁Jena	-4572
▁prec	-4573
▁abroad	-4574
▁initial	-4575
eorological	-4576
ICS	-4577
▁Gad	-4578
▁Control	-4579
▁culprit	-4580
▁managed	-4581
▁venture	-4582
▁stations	-4583
IMS	-4584
▁Sush	-4585
▁isnt	-4586
▁sacrif	-4587
▁Officer	-4588
president	-4589
▁Conference	-4590
▁Mu	-4591
lled	-4592
▁JD	-4593
▁gain	-4594
▁stable	-4595
▁fathers	-4596
▁disrupted	-4597
▁gat	-4598
▁upd	-4599
▁Arab	-4600
▁Swaraj	-4601
▁distan	-4602
▁Dhenkanal	-4603
▁confirmed	-4604
uff	-4605
hens	-4606
▁Mahe	-4607
▁Once	-4608
mercial	-4609
▁Dhawan	-4610
▁keeping	-4611
▁directly	-4612
▁pat	-4613
ushka	-4614
▁Ajit	-4615
▁cold	-4616
▁Bhatt	-4617
▁awareness	-4618
▁Everything	-4619
▁Cur	-4620
▁webs	-4621
▁strugg	-4622
ols	-4623
▁beaut	-4624
▁point	-4625
▁moving	-4626
▁Programme	-4627
▁dedicated	-4628
▁Thereafter	-4629
▁representatives	-4630
▁ones	-4631
▁funds	-4632
0.	-4633
cal	-4634
▁itself	-4635
▁Nuapada	-4636
▁religious	-4637
orters	-4638
▁matters	-4639
▁offices	-4640
reak	-4641
▁tou	-4642
▁Chop	-4643
▁Prab	-4644
▁serve	-4645
▁debate	-4646
▁becomes	-4647
▁corruption	-4648
▁goal	-4649
▁inspir	-4650
▁flow	-4651
▁Balas	-4652
▁Ranbir	-4653
▁footage	-4654
▁ec	-4655
▁note	-4656
sp	-4657
▁deliver	-4658
▁rid	-4659
▁learn	-4660
▁greater	-4661
▁agricultural	-4662
mpt	-4663
▁CEO	-4664
mpions	-4665
▁Egypt	-4666
▁files	-4667
▁events	-4668
▁Narayan	-4669
▁Padukone	-4670
▁achieved	-4671
▁prosperity	-4672
▁resentment	-4673
aken	-4674
▁Rem	-4675
▁acqu	-4676
▁Covid	-4677
▁parliament	-4678
ipper	-4679
▁Elect	-4680
▁squad	-4681
▁Pratap	-4682
▁injury	-4683
▁headquarters	-4684
sec	-4685
▁Make	-4686
▁link	-4687
▁demise	-4688
rigation	-4689
▁consult	-4690
▁strongly	-4691
▁Di	-4692
▁Red	-4693
▁adj	-4694
▁Command	-4695
▁inaugurate	-4696
▁di	-4697
▁Post	-4698
▁thin	-4699
irperson	-4700
▁historic	-4701
▁NE	-4702
▁Per	-4703
▁holy	-4704
▁setting	-4705
▁Srinagar	-4706
▁healthcare	-4707
▁af	-4708
▁least	-4709
▁Anushka	-4710
▁counter	-4711
▁scheduled	-4712
aper	-4713
tery	-4714
phone	-4715
▁tree	-4716
olution	-4717
▁BS	-4718
▁videos	-4719
▁participation	-4720
▁Wash	-4721
▁source	-4722
▁goes	-4723
unicip	-4724
▁fully	-4725
▁flight	-4726
▁worlds	-4727
▁massive	-4728
▁Lt	-4729
▁hurt	-4730
▁qual	-4731
▁homes	-4732
▁CR	-4733
▁Je	-4734
iddle	-4735
▁dign	-4736
▁image	-4737
▁plans	-4738
▁sugar	-4739
▁innovation	-4740
equ	-4741
▁thats	-4742
▁withdra	-4743
▁considered	-4744
▁Gup	-4745
oints	-4746
▁thank	-4747
▁interrog	-4748
▁recorded	-4749
aly	-4750
▁Comp	-4751
▁coord	-4752
▁users	-4753
▁appealed	-4754
▁complaints	-4755
itage	-4756
▁subs	-4757
▁BRICS	-4758
▁urban	-4759
▁sitting	-4760
▁Has	-4761
▁guid	-4762
▁properties	-4763
▁departments	-4764
▁Lets	-4765
ardhan	-4766
▁plant	-4767
▁driving	-4768
▁killing	-4769
iles	-4770
lect	-4771
▁stage	-4772
▁touch	-4773
▁sudden	-4774
▁winning	-4775
▁birthday	-4776
▁nut	-4777
gment	-4778
▁busy	-4779
▁Inter	-4780
▁demon	-4781
▁loans	-4782
▁possession	-4783
word	-4784
aches	-4785
▁Culture	-4786
▁wickets	-4787
▁drug	-4788
▁Anand	-4789
▁crops	-4790
▁regional	-4791
▁established	-4792
ably	-4793
load	-4794
wise	-4795
▁Chopra	-4796
▁secret	-4797
▁adop	-4798
▁whose	-4799
▁Behera	-4800
▁Authority	-4801
2.	-4802
▁buy	-4803
▁Sing	-4804
▁fighting	-4805
▁gathered	-4806
▁educational	-4807
ora	-4808
pril	-4809
▁Mor	-4810
▁Sud	-4811
▁fail	-4812
▁jobs	-4813
▁mine	-4814
▁credit	-4815
▁Mohammed	-4816
▁remember	-4817
▁Financial	-4818
anasi	-4819
▁majority	-4820
▁strengthening	-4821
jan	-4822
anced	-4823
▁Skill	-4824
▁Ramesh	-4825
▁danger	-4826
▁partner	-4827
arsh	-4828
▁Sidd	-4829
▁opening	-4830
▁organized	-4831
▁scientific	-4832
▁Cancer	-4833
▁Citizens	-4834
ba	-4835
▁agitation	-4836
▁performed	-4837
▁thus	-4838
▁?	-4839
che	-4840
▁flag	-4841
ayagarh	-4842
▁billion	-4843
▁Ahmedabad	-4844
▁accidents	-4845
▁improving	-4846
▁charac	-4847
▁expect	-4848
▁highway	-4849
▁evidence	-4850
▁material	-4851
▁developing	-4852
▁Law	-4853
▁distancing	-4854
oti	-4855
otal	-4856
▁faced	-4857
▁Ambani	-4858
▁shocked	-4859
▁Ins	-4860
▁Tax	-4861
▁property	-4862
▁institution	-4863
AM	-4864
▁pub	-4865
▁Meet	-4866
▁walk	-4867
▁spent	-4868
▁cricketer	-4869
nav	-4870
▁kid	-4871
▁mid	-4872
▁Gogo	-4873
▁spar	-4874
▁favour	-4875
▁mutual	-4876
▁exchange	-4877
▁Petroleum	-4878
▁tri	-4879
▁Gogoi	-4880
▁stood	-4881
▁aspect	-4882
wd	-4883
▁Nir	-4884
▁fired	-4885
▁saved	-4886
▁century	-4887
▁entered	-4888
▁honoured	-4889
▁conducting	-4890
ima	-4891
▁recommend	-4892
▁thr	-4893
antly	-4894
▁City	-4895
▁felt	-4896
▁medal	-4897
▁engaged	-4898
▁provisions	-4899
▁questioned	-4900
run	-4901
▁votes	-4902
▁Because	-4903
EL	-4904
▁Cy	-4905
▁Fl	-4906
uter	-4907
▁Ven	-4908
ajpay	-4909
▁Rukh	-4910
▁mill	-4911
▁Region	-4912
▁profit	-4913
▁Mahendra	-4914
▁presided	-4915
▁organisation	-4916
▁Hous	-4917
▁prem	-4918
▁delay	-4919
▁estim	-4920
▁beautiful	-4921
▁dismissed	-4922
▁fulfilled	-4923
ague	-4924
back	-4925
grad	-4926
▁Ple	-4927
▁Sad	-4928
▁Kand	-4929
eoples	-4930
▁clash	-4931
ensions	-4932
ourable	-4933
▁Brothers	-4934
▁organisations	-4935
ology	-4936
▁Mukesh	-4937
▁infection	-4938
ask	-4939
rown	-4940
▁Found	-4941
▁regul	-4942
▁values	-4943
▁assured	-4944
law	-4945
▁user	-4946
▁youths	-4947
▁Drin	-4948
▁heat	-4949
▁Ayush	-4950
▁Mohan	-4951
▁debut	-4952
▁collaps	-4953
▁patient	-4954
▁reforms	-4955
▁skipper	-4956
.4	-4957
▁seek	-4958
▁green	-4959
▁dialog	-4960
▁markets	-4961
▁Meteorological	-4962
ift	-4963
aced	-4964
uals	-4965
▁enem	-4966
▁farmer	-4967
▁becoming	-4968
▁Vis	-4969
▁sell	-4970
▁ambul	-4971
▁coach	-4972
▁Sushma	-4973
▁joy	-4974
▁aspir	-4975
▁answered	-4976
older	-4977
itizen	-4978
▁items	-4979
▁Sachin	-4980
▁centres	-4981
▁Varanasi	-4982
▁Aam	-4983
▁IPL	-4984
▁believed	-4985
▁medicines	-4986
▁introduced	-4987
ema	-4988
▁Bad	-4989
▁solar	-4990
▁technical	-4991
▁transform	-4992
▁industrial	-4993
▁constituted	-4994
uv	-4995
hai	-4996
▁concern	-4997
▁Balasore	-4998
para	-4999
iling	-5000
▁slow	-5001
mptoms	-5002
▁Space	-5003
▁enable	-5004
▁attacks	-5005
ext	-5006
zes	-5007
▁bal	-5008
▁Jagan	-5009
▁criminal	-5010
DM	-5011
ball	-5012
jhar	-5013
▁Sard	-5014
▁hasnt	-5015
▁Father	-5016
▁nature	-5017
▁pending	-5018
▁Nayagarh	-5019
▁neighbour	-5020
▁monitoring	-5021
rya	-5022
aste	-5023
▁max	-5024
▁mig	-5025
orted	-5026
▁kids	-5027
▁Tom	-5028
opped	-5029
▁upro	-5030
▁reality	-5031
▁fishermen	-5032
igarh	-5033
▁Reddy	-5034
riya	-5035
HI	-5036
▁grat	-5037
▁broken	-5038
▁Out	-5039
ondon	-5040
▁storm	-5041
▁responded	-5042
AR	-5043
ida	-5044
▁sett	-5045
▁reduced	-5046
▁CP	-5047
▁vol	-5048
▁Malk	-5049
▁residence	-5050
ober	-5051
▁glob	-5052
▁pace	-5053
▁Investigation	-5054
▁Raf	-5055
▁Navy	-5056
▁wall	-5057
inations	-5058
▁testing	-5059
▁protection	-5060
dha	-5061
▁NDRF	-5062
▁April	-5063
▁quick	-5064
▁rates	-5065
eel	-5066
overy	-5067
▁Saudi	-5068
▁Vill	-5069
▁carry	-5070
▁chill	-5071
ferencing	-5072
▁RBI	-5073
ground	-5074
onjhar	-5075
▁collect	-5076
▁produce	-5077
▁repeated	-5078
oke	-5079
▁fam	-5080
ester	-5081
▁Char	-5082
▁mean	-5083
▁Nitin	-5084
▁Aditya	-5085
▁Please	-5086
▁addressing	-5087
▁god	-5088
▁pac	-5089
▁mode	-5090
▁Media	-5091
aji	-5092
pex	-5093
ray	-5094
rew	-5095
▁Aar	-5096
earing	-5097
▁Though	-5098
▁placed	-5099
▁thereafter	-5100
US	-5101
▁0	-5102
▁Could	-5103
▁Capital	-5104
▁univers	-5105
▁website	-5106
▁Keonjhar	-5107
▁countrys	-5108
▁jaw	-5109
eared	-5110
ctober	-5111
▁spotted	-5112
▁Ayushman	-5113
EC	-5114
usive	-5115
▁Which	-5116
▁noted	-5117
ception	-5118
▁Airport	-5119
▁Parliamentary	-5120
▁NDA	-5121
▁Alia	-5122
▁transp	-5123
▁Er	-5124
▁Goa	-5125
▁wat	-5126
▁pers	-5127
angiri	-5128
▁Traffic	-5129
▁contesting	-5130
▁Deb	-5131
▁Vik	-5132
▁fat	-5133
osing	-5134
▁Sele	-5135
▁arms	-5136
▁drive	-5137
ajpayee	-5138
▁passing	-5139
▁systems	-5140
wadi	-5141
▁CRPF	-5142
▁fuel	-5143
▁ruling	-5144
▁warned	-5145
eb	-5146
uls	-5147
▁bats	-5148
▁bear	-5149
▁Relations	-5150
▁Bis	-5151
▁ask	-5152
▁Pandey	-5153
▁matches	-5154
▁facilitate	-5155
osh	-5156
adem	-5157
▁FIR	-5158
▁Life	-5159
ensive	-5160
▁Ganga	-5161
▁Modis	-5162
▁marty	-5163
▁tribal	-5164
5.	-5165
nce	-5166
▁fal	-5167
lands	-5168
▁feet	-5169
▁insp	-5170
▁Angul	-5171
▁Crore	-5172
▁track	-5173
▁worry	-5174
▁London	-5175
▁King	-5176
▁Nayak	-5177
▁beginning	-5178
aved	-5179
▁MSME	-5180
verage	-5181
▁Asian	-5182
▁Nadda	-5183
▁crowd	-5184
▁posts	-5185
▁documents	-5186
▁points	-5187
▁collaboration	-5188
50	-5189
oom	-5190
roc	-5191
▁bag	-5192
▁Open	-5193
▁March	-5194
▁Global	-5195
▁physical	-5196
kari	-5197
▁Time	-5198
▁Goyal	-5199
▁deputy	-5200
▁allegation	-5201
leg	-5202
ocks	-5203
▁Sid	-5204
ocation	-5205
▁multiple	-5206
▁Amendment	-5207
▁pist	-5208
othing	-5209
▁liter	-5210
▁Kendrapara	-5211
▁wash	-5212
▁Sardar	-5213
▁increases	-5214
▁competitions	-5215
ED	-5216
ead	-5217
het	-5218
▁Mah	-5219
▁Phil	-5220
▁Express	-5221
▁ce	-5222
▁enough	-5223
▁learnt	-5224
▁felicit	-5225
▁meetings	-5226
▁temperature	-5227
▁outl	-5228
▁improved	-5229
It	-5230
▁apex	-5231
▁page	-5232
▁agreement	-5233
board	-5234
▁caut	-5235
▁crop	-5236
▁cycl	-5237
▁dark	-5238
▁gives	-5239
actions	-5240
▁widely	-5241
▁cautious	-5242
▁Corona	-5243
▁spoken	-5244
▁citizen	-5245
▁gathering	-5246
▁Malkangiri	-5247
lip	-5248
▁Ann	-5249
▁Lim	-5250
▁bit	-5251
▁Gold	-5252
▁Islam	-5253
▁fruit	-5254
▁flights	-5255
▁religion	-5256
▁commercial	-5257
IP	-5258
elt	-5259
▁Dem	-5260
▁Som	-5261
▁Know	-5262
▁Thak	-5263
▁shown	-5264
▁Bhushan	-5265
▁scientists	-5266
time	-5267
▁Maj	-5268
ethod	-5269
storm	-5270
▁wont	-5271
▁teach	-5272
▁Temple	-5273
▁afford	-5274
▁collapsed	-5275
▁condemned	-5276
▁possibility	-5277
emale	-5278
ratic	-5279
fortun	-5280
▁cooper	-5281
▁resulted	-5282
▁congratulate	-5283
▁(1	-5284
eful	-5285
iabet	-5286
▁firm	-5287
▁disci	-5288
▁mouth	-5289
▁middle	-5290
.0	-5291
MS	-5292
agh	-5293
istic	-5294
▁memor	-5295
▁scale	-5296
▁constructed	-5297
▁expenditure	-5298
In	-5299
▁DG	-5300
▁Brit	-5301
▁trig	-5302
▁Based	-5303
▁heaven	-5304
▁mental	-5305
▁objective	-5306
mun	-5307
ureau	-5308
▁almost	-5309
elligence	-5310
▁culprits	-5311
▁proc	-5312
▁Gupta	-5313
▁guests	-5314
▁climate	-5315
▁granted	-5316
▁Industries	-5317
▁22	-5318
keep	-5319
▁Behold	-5320
▁Various	-5321
▁exercise	-5322
▁policemen	-5323
rina	-5324
▁broad	-5325
▁Deepak	-5326
▁Kuldeep	-5327
▁primary	-5328
▁quit	-5329
▁regular	-5330
▁highlight	-5331
▁respectively	-5332
TI	-5333
▁hom	-5334
▁Advis	-5335
▁Indira	-5336
▁criticised	-5337
icro	-5338
▁Fad	-5339
▁room	-5340
▁anger	-5341
▁tight	-5342
▁Katrina	-5343
▁sharing	-5344
pati	-5345
liness	-5346
▁Samaj	-5347
▁pride	-5348
▁Swachh	-5349
▁Doctors	-5350
▁heritage	-5351
off	-5352
▁Ant	-5353
priate	-5354
▁Urban	-5355
▁phones	-5356
▁wished	-5357
▁internet	-5358
▁labourers	-5359
▁Dil	-5360
▁Polit	-5361
▁bound	-5362
▁Petrol	-5363
▁Foundation	-5364
▁travelling	-5365
▁successfully	-5366
fit	-5367
▁knew	-5368
▁soft	-5369
rative	-5370
▁ensuring	-5371
▁languages	-5372
▁du	-5373
▁Rai	-5374
heast	-5375
ewable	-5376
▁route	-5377
▁shows	-5378
▁device	-5379
▁technologies	-5380
▁Ju	-5381
ends	-5382
▁cord	-5383
▁2018.	-5384
▁theme	-5385
▁Eastern	-5386
▁October	-5387
▁polling	-5388
▁passenger	-5389
son	-5390
▁harass	-5391
▁determin	-5392
▁particularly	-5393
▁Ashw	-5394
▁Sect	-5395
estern	-5396
▁Start	-5397
▁entry	-5398
▁questioning	-5399
ume	-5400
▁Eff	-5401
▁try	-5402
ashes	-5403
using	-5404
▁nort	-5405
▁helped	-5406
▁appoint	-5407
▁promoting	-5408
▁photograph	-5409
wide	-5410
▁Neh	-5411
▁Biju	-5412
▁nearly	-5413
▁scared	-5414
▁witnessed	-5415
hta	-5416
abled	-5417
▁Read	-5418
▁wait	-5419
adhaar	-5420
▁invol	-5421
▁pregn	-5422
▁Fadnav	-5423
▁Khurda	-5424
▁politic	-5425
▁Vajpayee	-5426
▁sustainable	-5427
.7	-5428
AA	-5429
ope	-5430
▁toil	-5431
▁avoid	-5432
holders	-5433
NG	-5434
▁31	-5435
endent	-5436
▁Employ	-5437
▁compet	-5438
▁empowerment	-5439
▁Ladakh	-5440
▁Mother	-5441
▁degree	-5442
ER	-5443
nes	-5444
▁Vid	-5445
▁sup	-5446
▁clar	-5447
▁masks	-5448
▁panel	-5449
▁maximum	-5450
▁sparked	-5451
▁Fadnavis	-5452
▁locality	-5453
▁servants	-5454
rect	-5455
▁See	-5456
akhand	-5457
▁bread	-5458
▁Baleswar	-5459
▁bi	-5460
▁fre	-5461
▁stra	-5462
▁unique	-5463
▁resolution	-5464
alore	-5465
▁Last	-5466
ighter	-5467
▁frame	-5468
▁lower	-5469
▁defeat	-5470
▁mechan	-5471
onom	-5472
▁purs	-5473
▁Nagar	-5474
▁dreams	-5475
unicipal	-5476
▁Nations	-5477
▁Ph	-5478
▁tur	-5479
▁Myan	-5480
▁Enter	-5481
▁veget	-5482
▁excell	-5483
▁thinking	-5484
▁150	-5485
▁Gar	-5486
▁ICC	-5487
embers	-5488
▁below	-5489
▁argument	-5490
▁emergency	-5491
MoU	-5492
▁60	-5493
▁cin	-5494
▁forg	-5495
▁false	-5496
▁fifth	-5497
▁bridge	-5498
▁lawyer	-5499
▁Aadhaar	-5500
▁Gadkari	-5501
▁Recently	-5502
▁Arunachal	-5503
▁ambulance	-5504
log	-5505
tty	-5506
uddin	-5507
▁improvement	-5508
▁Budd	-5509
▁Pawar	-5510
▁agency	-5511
▁Stadium	-5512
▁context	-5513
▁symptoms	-5514
chol	-5515
▁solved	-5516
▁feature	-5517
▁probing	-5518
▁Uttarakhand	-5519
▁Bu	-5520
lict	-5521
▁NEW	-5522
enant	-5523
▁Jaish	-5524
▁brief	-5525
▁error	-5526
▁units	-5527
▁Kandham	-5528
▁Moreover	-5529
▁UK	-5530
▁Jas	-5531
▁eye	-5532
thren	-5533
▁Produ	-5534
▁Thakur	-5535
▁explosion	-5536
ixed	-5537
raid	-5538
▁Des	-5539
▁Hel	-5540
▁America	-5541
▁Digital	-5542
▁cabinet	-5543
▁tourists	-5544
▁insurance	-5545
▁published	-5546
aze	-5547
▁70	-5548
ooth	-5549
▁begins	-5550
▁visible	-5551
▁Himachal	-5552
▁gratitude	-5553
▁transferred	-5554
DA	-5555
▁BSP	-5556
▁Bhut	-5557
atever	-5558
espite	-5559
▁trial	-5560
▁Excell	-5561
▁seeking	-5562
▁creation	-5563
▁Rawat	-5564
▁movies	-5565
▁despite	-5566
▁hundreds	-5567
bh	-5568
hus	-5569
▁'%	-5570
aman	-5571
▁Ref	-5572
▁Jaipur	-5573
▁Pandya	-5574
hl	-5575
▁Ir	-5576
vant	-5577
▁fle	-5578
▁Rural	-5579
▁multi	-5580
▁disapp	-5581
▁longer	-5582
yle	-5583
ystem	-5584
▁govt	-5585
▁afraid	-5586
▁claims	-5587
▁--	-5588
iler	-5589
▁Mon	-5590
ategy	-5591
▁AIIMS	-5592
munition	-5593
▁dischar	-5594
▁strategy	-5595
CB	-5596
wing	-5597
▁Staff	-5598
▁forget	-5599
▁latest	-5600
▁Despite	-5601
▁Devendra	-5602
.6	-5603
pro	-5604
▁util	-5605
▁Current	-5606
▁Natural	-5607
▁studies	-5608
▁tributes	-5609
▁relatives	-5610
hs	-5611
gar	-5612
ores	-5613
▁Car	-5614
▁DEL	-5615
▁Play	-5616
▁floods	-5617
▁waiting	-5618
▁entrepreneurs	-5619
IA	-5620
mical	-5621
rific	-5622
▁DELHI	-5623
▁Myanmar	-5624
▁brethren	-5625
▁separate	-5626
▁ammunition	-5627
vis	-5628
quake	-5629
▁Dutt	-5630
▁farm	-5631
▁Income	-5632
▁contains	-5633
▁fis	-5634
▁Bhag	-5635
▁cook	-5636
▁trigg	-5637
oe	-5638
eous	-5639
ishing	-5640
▁double	-5641
▁prizes	-5642
▁weapons	-5643
▁Kha	-5644
▁pit	-5645
erman	-5646
▁Manoj	-5647
▁crucial	-5648
▁judgment	-5649
▁Organisation	-5650
▁El	-5651
rised	-5652
▁ended	-5653
▁Officers	-5654
▁observed	-5655
acha	-5656
gent	-5657
▁PCC	-5658
▁cop	-5659
▁Vehic	-5660
▁model	-5661
▁worse	-5662
▁Disaster	-5663
▁protesting	-5664
▁tear	-5665
▁holds	-5666
▁lands	-5667
captain	-5668
▁diabet	-5669
hibition	-5670
ox	-5671
▁fair	-5672
▁spend	-5673
▁prepare	-5674
▁agencies	-5675
▁register	-5676
▁confident	-5677
▁delegation	-5678
▁governance	-5679
▁fig	-5680
ertil	-5681
▁unit	-5682
▁marks	-5683
▁raids	-5684
▁sound	-5685
▁Leader	-5686
▁singer	-5687
▁Nothing	-5688
▁servant	-5689
▁Brahmapur	-5690
▁critically	-5691
lying	-5692
▁Korea	-5693
▁Rafale	-5694
▁accord	-5695
▁respective	-5696
▁understanding	-5697
"",	-5698
▁Lab	-5699
▁Deog	-5700
▁affairs	-5701
▁connected	-5702
As	-5703
▁Use	-5704
engers	-5705
▁Feder	-5706
▁Harsh	-5707
▁Bihari	-5708
▁orders	-5709
▁changing	-5710
▁opposite	-5711
▁character	-5712
cond	-5713
▁Rat	-5714
oused	-5715
▁June	-5716
▁equip	-5717
▁booked	-5718
▁conver	-5719
▁skills	-5720
cks	-5721
▁Kis	-5722
orage	-5723
rehens	-5724
aborate	-5725
▁Nitish	-5726
▁factor	-5727
▁stones	-5728
▁innings	-5729
▁outrage	-5730
▁distributed	-5731
▁Piy	-5732
overty	-5733
▁amongst	-5734
▁channel	-5735
▁Collector	-5736
▁felicitated	-5737
▁difficulties	-5738
raz	-5739
fight	-5740
▁luck	-5741
▁Piyush	-5742
▁Aviation	-5743
▁Have	-5744
▁elder	-5745
▁assess	-5746
▁installed	-5747
▁sacrifice	-5748
PG	-5749
sc	-5750
▁Sain	-5751
▁adequ	-5752
▁Manipur	-5753
▁someone	-5754
▁interact	-5755
▁estimated	-5756
▁celebrations	-5757
▁Inc	-5758
▁Mas	-5759
▁agit	-5760
▁diet	-5761
▁Engine	-5762
▁jointly	-5763
▁approached	-5764
eev	-5765
▁Mit	-5766
▁ODI	-5767
▁rum	-5768
▁table	-5769
▁Change	-5770
▁solutions	-5771
▁neighbours	-5772
▁operational	-5773
▁Ti	-5774
phant	-5775
▁Error	-5776
▁irrigation	-5777
▁permission	-5778
▁university	-5779
This	-5780
ranch	-5781
▁Amar	-5782
▁ISRO	-5783
▁Padma	-5784
▁crash	-5785
▁overt	-5786
▁completion	-5787
ashi	-5788
▁Val	-5789
erved	-5790
▁remar	-5791
▁pension	-5792
▁signing	-5793
▁Niranjan	-5794
▁severely	-5795
▁Meg	-5796
▁Rak	-5797
place	-5798
▁decide	-5799
▁located	-5800
▁citizenship	-5801
▁independence	-5802
ups	-5803
▁26	-5804
▁Ltd	-5805
▁mort	-5806
etimes	-5807
▁female	-5808
▁mortem	-5809
▁fielded	-5810
▁motorcy	-5811
▁supporting	-5812
yas	-5813
▁La	-5814
,...	-5815
lies	-5816
▁suffer	-5817
▁Legislative	-5818
▁establishment	-5819
▁depos	-5820
▁spake	-5821
▁stock	-5822
▁Sector	-5823
▁acting	-5824
▁annual	-5825
▁January	-5826
lah	-5827
▁Ha	-5828
▁Puj	-5829
▁Yes	-5830
▁Agar	-5831
▁Kare	-5832
▁load	-5833
▁vers	-5834
▁sight	-5835
▁passes	-5836
▁Meeting	-5837
▁circuit	-5838
▁experts	-5839
▁learning	-5840
▁Independence	-5841
ila	-5842
▁Ent	-5843
▁Mall	-5844
▁bond	-5845
andeep	-5846
▁Major	-5847
mark	-5848
▁Thou	-5849
▁Aaron	-5850
▁subst	-5851
▁unfortun	-5852
▁ep	-5853
▁Oly	-5854
▁Kaif	-5855
▁hang	-5856
▁type	-5857
cribed	-5858
▁Patra	-5859
▁influ	-5860
▁payment	-5861
▁industries	-5862
▁cleanliness	-5863
▁aims	-5864
▁Olymp	-5865
▁waste	-5866
▁Forces	-5867
▁player	-5868
▁section	-5869
ull	-5870
oves	-5871
rees	-5872
▁Dhan	-5873
▁calls	-5874
▁miner	-5875
▁decades	-5876
▁demonst	-5877
▁options	-5878
▁recovery	-5879
▁greetings	-5880
gri	-5881
▁sword	-5882
fighters	-5883
▁totally	-5884
▁premises	-5885
▁specific	-5886
▁inspiration	-5887
▁dry	-5888
▁Arabia	-5889
▁Ravind	-5890
▁bullet	-5891
▁rivers	-5892
▁trouble	-5893
▁contribute	-5894
.8	-5895
▁37	-5896
athi	-5897
iger	-5898
▁Mob	-5899
uting	-5900
▁Mald	-5901
▁fort	-5902
▁Shami	-5903
▁defin	-5904
▁leads	-5905
▁Schools	-5906
▁fighter	-5907
▁strategic	-5908
▁triggered	-5909
eks	-5910
igil	-5911
▁Shak	-5912
▁About	-5913
▁extra	-5914
▁indic	-5915
▁filing	-5916
▁covered	-5917
▁escaped	-5918
▁millions	-5919
▁comprising	-5920
hana	-5921
▁Inn	-5922
▁polic	-5923
▁German	-5924
▁document	-5925
▁protestors	-5926
co	-5927
ikh	-5928
elled	-5929
▁ginger	-5930
▁nabbed	-5931
▁imposed	-5932
▁favourable	-5933
▁journalist	-5934
zz	-5935
uram	-5936
apore	-5937
▁lose	-5938
▁shop	-5939
▁method	-5940
▁conclud	-5941
▁bringing	-5942
▁Ml	-5943
SEAN	-5944
▁Pay	-5945
▁Saf	-5946
uated	-5947
urned	-5948
▁Games	-5949
▁Nation	-5950
▁courts	-5951
▁tribute	-5952
▁tomorrow	-5953
▁complained	-5954
ny	-5955
asw	-5956
▁Any	-5957
▁Div	-5958
astic	-5959
▁eight	-5960
▁category	-5961
▁negative	-5962
▁association	-5963
half	-5964
▁Joh	-5965
▁sharp	-5966
▁simple	-5967
▁Efforts	-5968
▁Members	-5969
▁enquiry	-5970
▁starred	-5971
▁internal	-5972
▁Jagannath	-5973
▁appropriate	-5974
usp	-5975
▁IAF	-5976
Moham	-5977
▁unve	-5978
ancing	-5979
▁besides	-5980
dy	-5981
ils	-5982
ony	-5983
ria	-5984
cked	-5985
▁mist	-5986
▁slog	-5987
▁Minor	-5988
▁Sched	-5989
▁labour	-5990
▁charged	-5991
▁infected	-5992
▁sections	-5993
▁challenged	-5994
▁Administration	-5995
30	-5996
▁AAP	-5997
▁Sind	-5998
▁liqu	-5999
▁lines	-6000
▁retal	-6001
▁Shahid	-6002
▁defeated	-6003
oram	-6004
yaan	-6005
▁und	-6006
ivery	-6007
teran	-6008
▁Mang	-6009
▁acted	-6010
▁conve	-6011
▁seeing	-6012
▁assault	-6013
▁emerged	-6014
▁warning	-6015
▁Bel	-6016
▁Sag	-6017
▁Sant	-6018
▁basic	-6019
▁remove	-6020
▁Limited	-6021
▁promotion	-6022
▁proceedings	-6023
▁stakeholders	-6024
AC	-6025
GB	-6026
was	-6027
▁Ye	-6028
▁Hig	-6029
ittar	-6030
▁Deogarh	-6031
▁Vardhan	-6032
▁install	-6033
rehensive	-6034
▁Mohammad	-6035
hem	-6036
▁Ser	-6037
▁sam	-6038
ients	-6039
▁quant	-6040
▁Hardik	-6041
▁stands	-6042
▁voters	-6043
▁encourage	-6044
▁Mur	-6045
▁Rath	-6046
▁Sara	-6047
charge	-6048
ichand	-6049
▁Steel	-6050
▁filled	-6051
▁reiter	-6052
▁unable	-6053
▁package	-6054
▁planning	-6055
▁everywhere	-6056
acle	-6057
▁Miz	-6058
▁ign	-6059
▁eating	-6060
▁string	-6061
▁termin	-6062
▁humanity	-6063
HO	-6064
hav	-6065
rav	-6066
epur	-6067
▁Love	-6068
▁gate	-6069
ademic	-6070
omatic	-6071
▁Assist	-6072
▁Internet	-6073
▁discharged	-6074
▁Citizenship	-6075
▁communities	-6076
▁traditional	-6077
rupt	-6078
odhya	-6079
▁Find	-6080
▁worst	-6081
▁beaten	-6082
▁distribution	-6083
▁75	-6084
▁AN	-6085
born	-6086
▁Poll	-6087
▁Tele	-6088
▁dwell	-6089
▁sworn	-6090
ovember	-6091
▁easily	-6092
▁fruits	-6093
▁prevailed	-6094
▁intensified	-6095
ney	-6096
eless	-6097
eving	-6098
▁Rana	-6099
▁Karan	-6100
▁escape	-6101
▁export	-6102
▁revenue	-6103
amy	-6104
▁Emp	-6105
▁var	-6106
eline	-6107
illeg	-6108
▁Taur	-6109
▁ball	-6110
▁orig	-6111
▁Trade	-6112
▁douse	-6113
ovation	-6114
▁chance	-6115
▁staged	-6116
▁governor	-6117
ube	-6118
▁Get	-6119
apers	-6120
break	-6121
▁Jain	-6122
▁Count	-6123
▁dance	-6124
▁Ayodhya	-6125
▁Manohar	-6126
▁captured	-6127
▁interaction	-6128
▁Lakh	-6129
▁Mass	-6130
▁wear	-6131
▁shock	-6132
▁linked	-6133
izations	-6134
▁guidelines	-6135
DC	-6136
star	-6137
▁hum	-6138
ocate	-6139
ugust	-6140
▁Euro	-6141
▁negl	-6142
▁angry	-6143
▁diver	-6144
▁limit	-6145
▁extend	-6146
▁garlic	-6147
▁unclear	-6148
▁appeared	-6149
▁struggle	-6150
RI	-6151
▁Bum	-6152
athan	-6153
ronic	-6154
▁feed	-6155
lihood	-6156
▁scuff	-6157
▁Kareena	-6158
▁convers	-6159
▁finally	-6160
▁customers	-6161
▁prominent	-6162
▁Ek	-6163
▁Ver	-6164
efore	-6165
reets	-6166
▁clot	-6167
▁Bumrah	-6168
▁Taurus	-6169
▁advant	-6170
▁option	-6171
▁poverty	-6172
▁yourself	-6173
▁achievement	-6174
ief	-6175
wala	-6176
▁fit	-6177
▁Vide	-6178
▁Kandhamal	-6179
▁principal	-6180
▁specified	-6181
▁Chandigarh	-6182
▁Secretaries	-6183
nagar	-6184
▁Govt	-6185
▁Pran	-6186
▁Resc	-6187
▁penal	-6188
▁twice	-6189
▁doused	-6190
▁pistol	-6191
ibilities	-6192
angi	-6193
▁Aut	-6194
▁Lib	-6195
eness	-6196
manent	-6197
▁satell	-6198
▁planned	-6199
▁predicted	-6200
▁righteous	-6201
▁Hol	-6202
▁Chak	-6203
▁Odia	-6204
▁illeg	-6205
ression	-6206
▁Bhutan	-6207
▁courage	-6208
▁pleasant	-6209
ials	-6210
▁IIT	-6211
▁emb	-6212
▁task	-6213
▁ASEAN	-6214
▁Earth	-6215
imately	-6216
ittarius	-6217
▁diabetes	-6218
▁password	-6219
▁Sagittarius	-6220
za	-6221
▁Kings	-6222
▁fresh	-6223
▁ideas	-6224
▁sexual	-6225
▁Lucknow	-6226
▁Teacher	-6227
▁compared	-6228
▁reviewed	-6229
▁territory	-6230
▁undertaken	-6231
▁communication	-6232
▁Ki	-6233
face	-6234
▁reb	-6235
enses	-6236
istics	-6237
▁Khord	-6238
▁aspects	-6239
▁Champions	-6240
▁Addressing	-6241
▁participants	-6242
gs	-6243
pes	-6244
▁Hes	-6245
▁Jac	-6246
▁Naw	-6247
▁Guru	-6248
▁Pune	-6249
▁breath	-6250
▁coastal	-6251
▁practices	-6252
▁sanitation	-6253
OC	-6254
ero	-6255
gery	-6256
akshi	-6257
▁Prin	-6258
▁transfer	-6259
▁Bangalore	-6260
▁commanded	-6261
ni	-6262
hlot	-6263
▁Mag	-6264
▁Smt	-6265
▁Vin	-6266
▁Abhi	-6267
▁advis	-6268
▁union	-6269
▁Member	-6270
▁talked	-6271
▁feeling	-6272
▁kingdom	-6273
▁peoples	-6274
▁speaking	-6275
▁mandatory	-6276
PC	-6277
▁Ext	-6278
▁Oil	-6279
igned	-6280
▁Four	-6281
▁plane	-6282
▁Gehlot	-6283
▁Prepar	-6284
▁minimum	-6285
▁storage	-6286
▁delivery	-6287
▁Singapore	-6288
hek	-6289
▁Devi	-6290
▁Fort	-6291
orable	-6292
▁Metro	-6293
▁Bhavan	-6294
▁Shikhar	-6295
▁interview	-6296
anti	-6297
ishi	-6298
with	-6299
▁Tur	-6300
▁tough	-6301
▁instead	-6302
▁Maldives	-6303
▁adequate	-6304
▁Fishermen	-6305
oval	-6306
▁Back	-6307
▁harm	-6308
▁seed	-6309
▁Press	-6310
▁prote	-6311
▁leaves	-6312
▁Highways	-6313
▁remaining	-6314
▁500	-6315
▁Wind	-6316
▁Aamir	-6317
▁Rescue	-6318
▁causes	-6319
▁content	-6320
▁individual	-6321
ES	-6322
awa	-6323
▁IM	-6324
rain	-6325
inate	-6326
▁idea	-6327
▁seems	-6328
▁banned	-6329
▁twenty	-6330
▁Tripura	-6331
▁pregnant	-6332
▁Infrastructure	-6333
ayal	-6334
▁Bik	-6335
inion	-6336
enance	-6337
▁Strict	-6338
▁talking	-6339
▁policies	-6340
▁Mir	-6341
▁2015	-6342
▁Jade	-6343
enders	-6344
▁looks	-6345
▁range	-6346
▁white	-6347
▁Person	-6348
▁folder	-6349
▁Muslims	-6350
▁rapidly	-6351
▁disaster	-6352
▁vegetables	-6353
-19.	-6354
rang	-6355
▁Put	-6356
▁Vive	-6357
▁anybody	-6358
▁joining	-6359
▁wearing	-6360
inistries	-6361
▁Reliance	-6362
▁interacted	-6363
▁23	-6364
▁Gh	-6365
▁iron	-6366
▁books	-6367
▁glory	-6368
▁numer	-6369
▁Manish	-6370
▁Mukher	-6371
▁bright	-6372
▁fulfil	-6373
▁shortly	-6374
▁dialogue	-6375
▁1,	-6376
issa	-6377
▁piv	-6378
▁tru	-6379
idents	-6380
ounced	-6381
▁raise	-6382
▁tests	-6383
▁Higher	-6384
▁affordable	-6385
cient	-6386
mense	-6387
▁Sure	-6388
▁Kamal	-6389
▁doesn	-6390
▁uncle	-6391
▁Before	-6392
▁Bureau	-6393
▁fought	-6394
▁Russian	-6395
▁Shankar	-6396
▁greeted	-6397
▁thunder	-6398
▁elephant	-6399
▁Currently	-6400
kh	-6401
▁Us	-6402
▁earn	-6403
▁stab	-6404
▁lying	-6405
▁enthus	-6406
▁remand	-6407
▁standing	-6408
hit	-6409
emed	-6410
kela	-6411
pada	-6412
▁Meh	-6413
iment	-6414
itime	-6415
▁symb	-6416
▁Abhis	-6417
▁Subhas	-6418
▁accompl	-6419
▁immense	-6420
▁promise	-6421
▁vaccine	-6422
▁conveyed	-6423
▁27	-6424
▁bed	-6425
▁slam	-6426
▁views	-6427
▁Europe	-6428
▁myself	-6429
▁wicked	-6430
▁Station	-6431
▁relevant	-6432
▁survived	-6433
▁Ren	-6434
▁hits	-6435
▁Jadeja	-6436
▁circum	-6437
▁waters	-6438
liminary	-6439
▁Legislature	-6440
▁requirements	-6441
RA	-6442
haz	-6443
arpur	-6444
orders	-6445
rition	-6446
▁medium	-6447
▁abscond	-6448
▁Abhishek	-6449
▁childhood	-6450
abu	-6451
apt	-6452
uate	-6453
▁Pil	-6454
anship	-6455
▁weeks	-6456
▁Indies	-6457
▁silent	-6458
▁scuffle	-6459
▁thoughts	-6460
▁visiting	-6461
▁investments	-6462
lets	-6463
more	-6464
▁Aay	-6465
▁Att	-6466
▁stead	-6467
▁apolog	-6468
▁average	-6469
▁stressed	-6470
▁generations	-6471
ork	-6472
unal	-6473
rench	-6474
▁Chou	-6475
▁Soon	-6476
▁pivotal	-6477
▁streets	-6478
▁identify	-6479
▁restrict	-6480
anna	-6481
▁Rab	-6482
▁pron	-6483
▁Medic	-6484
▁pilot	-6485
itaries	-6486
▁Actress	-6487
▁trailer	-6488
▁vitamin	-6489
▁%1	-6490
hend	-6491
olen	-6492
▁mal	-6493
▁tack	-6494
ington	-6495
▁listen	-6496
eptember	-6497
▁farming	-6498
▁28	-6499
▁Jav	-6500
▁SCB	-6501
▁duo	-6502
▁Saul	-6503
▁Vish	-6504
▁cell	-6505
▁ease	-6506
▁remarks	-6507
▁location	-6508
▁chairperson	-6509
▁conferencing	-6510
▁35	-6511
ibre	-6512
▁Happ	-6513
▁Kann	-6514
▁Prom	-6515
▁soil	-6516
▁weak	-6517
▁handle	-6518
▁subsid	-6519
▁holding	-6520
▁priests	-6521
▁Ravindra	-6522
▁friendly	-6523
gi	-6524
▁AT	-6525
ript	-6526
▁lie	-6527
right	-6528
▁Oper	-6529
▁sick	-6530
friend	-6531
▁flesh	-6532
▁onion	-6533
▁summit	-6534
▁tested	-6535
▁applications	-6536
▁constitution	-6537
▁ID	-6538
ogle	-6539
lling	-6540
▁diss	-6541
▁sale	-6542
▁wins	-6543
▁griev	-6544
▁highly	-6545
▁statue	-6546
▁writer	-6547
▁article	-6548
▁Justices	-6549
▁blockade	-6550
▁outbreak	-6551
AS	-6552
▁Cle	-6553
▁Din	-6554
▁Est	-6555
assad	-6556
atures	-6557
mended	-6558
▁equal	-6559
iciency	-6560
▁chilli	-6561
▁actions	-6562
▁commence	-6563
▁equipment	-6564
▁negligence	-6565
▁universities	-6566
oi	-6567
▁Jal	-6568
▁rice	-6569
ossible	-6570
▁correct	-6571
▁spiritual	-6572
▁functioning	-6573
▁TMC	-6574
▁Vad	-6575
▁Judge	-6576
▁Nehru	-6577
▁score	-6578
▁behalf	-6579
▁troops	-6580
▁Khordha	-6581
▁attract	-6582
▁detailed	-6583
▁distance	-6584
▁download	-6585
▁availability	-6586
▁Jy	-6587
▁Pur	-6588
▁hur	-6589
cious	-6590
▁List	-6591
▁size	-6592
▁Forum	-6593
▁Never	-6594
▁sweet	-6595
uration	-6596
▁blamed	-6597
▁rememb	-6598
▁November	-6599
▁blessings	-6600
▁ic	-6601
▁Pram	-6602
▁elig	-6603
▁hero	-6604
▁Along	-6605
▁Smart	-6606
ourkela	-6607
▁proced	-6608
▁Training	-6609
▁medicine	-6610
▁$	-6611
▁HC	-6612
anth	-6613
▁USA	-6614
oring	-6615
▁famous	-6616
▁offers	-6617
-16	-6618
chi	-6619
▁pip	-6620
agues	-6621
▁isol	-6622
▁mour	-6623
prises	-6624
▁Mahes	-6625
cholars	-6626
▁Orissa	-6627
▁Search	-6628
▁indeed	-6629
uspicious	-6630
▁Mukherjee	-6631
▁friendship	-6632
▁particular	-6633
▁Po	-6634
▁Tend	-6635
▁poet	-6636
keeper	-6637
▁hours	-6638
▁keeps	-6639
▁Second	-6640
▁scored	-6641
▁stress	-6642
▁talent	-6643
▁Protest	-6644
▁commits	-6645
▁younger	-6646
▁comments	-6647
▁searching	-6648
▁parliamentary	-6649
▁recommendations	-6650
eph	-6651
mal	-6652
iced	-6653
osen	-6654
poll	-6655
ride	-6656
illing	-6657
▁midst	-6658
urement	-6659
▁conferred	-6660
▁inauguration	-6661
App	-6662
▁nu	-6663
oudh	-6664
yond	-6665
▁PMs	-6666
iving	-6667
▁meat	-6668
▁absol	-6669
▁solve	-6670
oration	-6671
▁Google	-6672
▁beyond	-6673
▁except	-6674
▁engagement	-6675
enda	-6676
▁Saty	-6677
▁lies	-6678
▁songs	-6679
▁Compan	-6680
▁outlay	-6681
▁chopped	-6682
▁closely	-6683
▁overall	-6684
▁Elections	-6685
▁constituencies	-6686
▁Bob	-6687
akers	-6688
ridor	-6689
▁Each	-6690
employ	-6691
itable	-6692
▁Bijay	-6693
▁steel	-6694
▁Proper	-6695
▁gunfight	-6696
▁returning	-6697
▁independent	-6698
▁Nam	-6699
▁rad	-6700
kaiah	-6701
razil	-6702
▁blue	-6703
▁alive	-6704
▁valid	-6705
regation	-6706
▁British	-6707
▁chances	-6708
▁enemies	-6709
▁Rourkela	-6710
▁executive	-6711
▁earthquake	-6712
▁dignitaries	-6713
HA	-6714
heb	-6715
▁Bur	-6716
▁kil	-6717
▁marg	-6718
anguly	-6719
▁Joshi	-6720
▁buses	-6721
▁unity	-6722
istrate	-6723
▁Tendul	-6724
▁celebrate	-6725
Ch	-6726
▁ED	-6727
hans	-6728
lied	-6729
▁Book	-6730
▁Clim	-6731
iction	-6732
ertiliz	-6733
ishment	-6734
▁chosen	-6735
▁wonder	-6736
▁Reserve	-6737
▁limited	-6738
▁recover	-6739
▁regions	-6740
▁casualties	-6741
▁constantly	-6742
▁Nan	-6743
useum	-6744
▁Ganguly	-6745
▁Mizoram	-6746
▁Tension	-6747
▁arrives	-6748
▁serving	-6749
▁enhanced	-6750
▁collision	-6751
▁exception	-6752
▁recommended	-6753
▁Qu	-6754
soon	-6755
unch	-6756
▁Bet	-6757
oving	-6758
▁Sikk	-6759
▁base	-6760
▁computer	-6761
▁reaching	-6762
▁Aj	-6763
▁Jit	-6764
▁scen	-6765
istans	-6766
restig	-6767
▁Padhi	-6768
▁tense	-6769
▁trace	-6770
▁Common	-6771
▁Rashtra	-6772
▁concerns	-6773
▁practice	-6774
▁Samajwadi	-6775
▁highlighted	-6776
St	-6777
▁Ud	-6778
uties	-6779
▁acres	-6780
▁heads	-6781
▁animal	-6782
▁corpor	-6783
▁symbol	-6784
▁manager	-6785
▁American	-6786
▁Presidents	-6787
▁KL	-6788
imal	-6789
▁LPG	-6790
▁awa	-6791
▁boys	-6792
▁pill	-6793
▁Hockey	-6794
▁destroy	-6795
▁producer	-6796
▁suddenly	-6797
▁innovative	-6798
▁aspirations	-6799
fect	-6800
▁Dam	-6801
▁Mat	-6802
▁Saif	-6803
▁Tata	-6804
▁east	-6805
▁stir	-6806
▁sport	-6807
▁Resources	-6808
▁selection	-6809
▁certificate	-6810
EA	-6811
OD	-6812
mod	-6813
▁JP	-6814
onic	-6815
atoes	-6816
▁glad	-6817
▁Benef	-6818
▁Class	-6819
▁manif	-6820
ndering	-6821
▁pilgri	-6822
▁prison	-6823
▁consist	-6824
abilities	-6825
▁collected	-6826
▁stability	-6827
▁maintained	-6828
201	-6829
▁Bai	-6830
▁Dec	-6831
arian	-6832
▁Same	-6833
▁blaze	-6834
▁faces	-6835
▁stolen	-6836
▁harmony	-6837
▁numerous	-6838
▁unfortunate	-6839
▁conservation	-6840
fer	-6841
ips	-6842
▁ju	-6843
noon	-6844
ship	-6845
▁Jon	-6846
▁Kab	-6847
▁Sang	-6848
▁Stand	-6849
▁altar	-6850
▁Mobile	-6851
▁secure	-6852
▁sevent	-6853
▁Venkaiah	-6854
▁television	-6855
▁Partnership	-6856
PP	-6857
▁Bah	-6858
▁aid	-6859
ctoral	-6860
▁apart	-6861
▁taste	-6862
▁elaborate	-6863
▁permitted	-6864
iant	-6865
nsic	-6866
▁sky	-6867
itely	-6868
▁Resp	-6869
▁lived	-6870
▁survey	-6871
▁Jasprit	-6872
▁prestig	-6873
intendent	-6874
▁actually	-6875
▁promised	-6876
▁auspicious	-6877
Cong	-6878
ancy	-6879
umed	-6880
▁ton	-6881
▁Init	-6882
▁hall	-6883
vendra	-6884
▁Watch	-6885
▁vital	-6886
▁NIT	-6887
▁RJD	-6888
▁Rah	-6889
▁August	-6890
▁Tribal	-6891
▁flames	-6892
▁Climate	-6893
▁Tendulkar	-6894
▁participating	-6895
riti	-6896
▁dipl	-6897
▁Malik	-6898
▁couns	-6899
▁seeds	-6900
▁yield	-6901
▁Brazil	-6902
▁balance	-6903
▁hanging	-6904
▁forecast	-6905
▁locations	-6906
▁platforms	-6907
yl	-6908
▁197	-6909
▁Did	-6910
ilding	-6911
▁compon	-6912
▁hockey	-6913
▁Indones	-6914
▁retired	-6915
▁Washington	-6916
▁establishments	-6917
CR	-6918
▁jump	-6919
▁vess	-6920
▁showc	-6921
▁Candid	-6922
▁Sharad	-6923
▁submit	-6924
▁Husband	-6925
▁alerted	-6926
▁complex	-6927
▁panchay	-6928
▁Tripathy	-6929
▁Cal	-6930
▁nar	-6931
▁Aayog	-6932
▁trend	-6933
▁Awards	-6934
▁Hindus	-6935
▁Sikkim	-6936
▁altern	-6937
▁Article	-6938
irmanship	-6939
pre	-6940
▁Ham	-6941
▁Prov	-6942
▁Broad	-6943
▁toward	-6944
▁banking	-6945
▁Bir	-6946
cember	-6947
ifying	-6948
rashed	-6949
▁losing	-6950
▁Housing	-6951
▁reducing	-6952
▁shortage	-6953
▁80	-6954
hern	-6955
▁Non	-6956
▁hor	-6957
▁July	-6958
▁Pant	-6959
▁Very	-6960
▁York	-6961
▁fish	-6962
▁Banks	-6963
▁opted	-6964
▁slogans	-6965
▁processing	-6966
Go	-6967
cean	-6968
habad	-6969
omach	-6970
▁calm	-6971
▁kills	-6972
▁sense	-6973
essions	-6974
▁council	-6975
▁conflict	-6976
▁framework	-6977
▁Innovation	-6978
▁emphasized	-6979
bo	-6980
pa	-6981
pet	-6982
eras	-6983
▁Bij	-6984
▁cri	-6985
▁Stay	-6986
▁Well	-6987
ocking	-6988
▁floor	-6989
▁goals	-6990
▁Kangana	-6991
▁worship	-6992
▁writing	-6993
▁retaliated	-6994
▁Id	-6995
unar	-6996
▁van	-6997
▁whe	-6998
▁Land	-6999
▁shew	-7000
▁swit	-7001
▁2019.	-7002
▁hosts	-7003
▁incon	-7004
▁wisdom	-7005
▁ancient	-7006
▁default	-7007
▁wounded	-7008
▁apprised	-7009
▁interests	-7010
▁livelihood	-7011
▁smartphone	-7012
▁Pr	-7013
wara	-7014
▁Acha	-7015
▁neck	-7016
▁write	-7017
▁turmeric	-7018
▁regularly	-7019
▁reiterated	-7020
VM	-7021
hak	-7022
pty	-7023
pass	-7024
▁Mis	-7025
▁cult	-7026
▁Ganes	-7027
▁Swami	-7028
▁chest	-7029
▁forced	-7030
▁expenses	-7031
▁interrogation	-7032
.9	-7033
hank	-7034
umber	-7035
▁Disc	-7036
▁input	-7037
▁Advani	-7038
▁smooth	-7039
ashtriya	-7040
ota	-7041
▁Om	-7042
lick	-7043
▁Mot	-7044
▁Ray	-7045
▁hike	-7046
▁lord	-7047
▁cards	-7048
▁fibre	-7049
▁clothes	-7050
▁delight	-7051
▁Pakistans	-7052
Pak	-7053
abb	-7054
ole	-7055
hary	-7056
▁Tar	-7057
▁Win	-7058
▁gut	-7059
emory	-7060
indra	-7061
▁Band	-7062
▁cops	-7063
▁elim	-7064
▁erup	-7065
▁holid	-7066
▁Terror	-7067
▁Sciences	-7068
▁Villagers	-7069
▁afternoon	-7070
▁exhibition	-7071
asa	-7072
eav	-7073
▁Tej	-7074
essor	-7075
ruary	-7076
sters	-7077
▁hasn	-7078
▁imag	-7079
heries	-7080
▁crude	-7081
▁motiv	-7082
▁nuclear	-7083
▁declined	-7084
▁waterlog	-7085
aintenance	-7086
▁enhancing	-7087
▁harassment	-7088
▁comprehensive	-7089
ison	-7090
post	-7091
rama	-7092
remo	-7093
tise	-7094
west	-7095
▁amid	-7096
▁Armed	-7097
ebruary	-7098
▁upgrad	-7099
▁womens	-7100
▁failure	-7101
▁quarant	-7102
▁relating	-7103
▁inclusive	-7104
▁colleagues	-7105
uz	-7106
va	-7107
hin	-7108
▁Ko	-7109
oked	-7110
▁Bip	-7111
▁Jin	-7112
▁ven	-7113
iable	-7114
▁Baba	-7115
asingha	-7116
venience	-7117
▁Pradeep	-7118
▁Session	-7119
▁Support	-7120
▁Working	-7121
▁deliber	-7122
▁appointment	-7123
CG	-7124
que	-7125
▁CB	-7126
▁Jio	-7127
ially	-7128
▁Look	-7129
▁west	-7130
▁adver	-7131
▁marry	-7132
▁paper	-7133
▁Shetty	-7134
▁batsman	-7135
struction	-7136
▁announce	-7137
▁formation	-7138
▁Industrial	-7139
gic	-7140
▁Check	-7141
▁Mehta	-7142
▁exped	-7143
related	-7144
▁duties	-7145
▁endeav	-7146
▁portal	-7147
▁thanks	-7148
▁quarter	-7149
▁eligible	-7150
▁partners	-7151
▁permanent	-7152
▁intervention	-7153
FC	-7154
nu	-7155
hir	-7156
udge	-7157
uing	-7158
▁Key	-7159
▁arm	-7160
▁sun	-7161
inance	-7162
▁Gopal	-7163
▁shame	-7164
▁Rashtriya	-7165
▁achieving	-7166
kha	-7167
iland	-7168
▁occup	-7169
▁Pranab	-7170
▁animals	-7171
▁blessed	-7172
▁helping	-7173
▁suspects	-7174
▁transportation	-7175
Os	-7176
▁Fa	-7177
aren	-7178
▁hub	-7179
▁Park	-7180
▁wise	-7181
▁Thank	-7182
▁plants	-7183
▁advance	-7184
▁Rajendra	-7185
▁academic	-7186
▁activity	-7187
▁MK	-7188
▁Azad	-7189
▁Girl	-7190
▁Indo	-7191
▁Whos	-7192
▁River	-7193
▁caste	-7194
▁title	-7195
▁server	-7196
▁promises	-7197
▁presently	-7198
▁efficiency	-7199
▁congregation	-7200
▁vs	-7201
▁unf	-7202
▁Kish	-7203
▁color	-7204
▁Rajesh	-7205
▁consec	-7206
▁remark	-7207
▁select	-7208
▁Abdullah	-7209
▁obtained	-7210
▁September	-7211
▁Federation	-7212
▁celebration	-7213
▁Gul	-7214
▁Rup	-7215
▁bott	-7216
▁scam	-7217
▁Avoid	-7218
▁Sahoo	-7219
▁Sidhu	-7220
▁medals	-7221
▁shoulder	-7222
▁initially	-7223
▁requirement	-7224
▁interrogating	-7225
sy	-7226
▁29	-7227
▁Lo	-7228
▁ST	-7229
▁Dist	-7230
▁Text	-7231
▁drow	-7232
adekar	-7233
▁Chaud	-7234
▁French	-7235
▁judges	-7236
▁surely	-7237
▁departed	-7238
▁everybody	-7239
uded	-7240
wari	-7241
▁Kes	-7242
ograp	-7243
▁Dash	-7244
▁Year	-7245
▁Solar	-7246
ication	-7247
▁Nagpur	-7248
▁festiv	-7249
▁illegal	-7250
2,	-7251
OS	-7252
xy	-7253
▁Free	-7254
▁Integ	-7255
▁ruled	-7256
▁Bhawan	-7257
▁Sheikh	-7258
▁Vitamin	-7259
▁mothers	-7260
▁stomach	-7261
▁Memorial	-7262
▁Everybody	-7263
▁gradually	-7264
MR	-7265
wali	-7266
▁Sil	-7267
▁Video	-7268
prising	-7269
▁Rakesh	-7270
▁walked	-7271
▁anywhere	-7272
▁coverage	-7273
▁sanction	-7274
▁surround	-7275
▁whatever	-7276
▁activists	-7277
▁standards	-7278
meg	-7279
▁90	-7280
▁AP	-7281
▁id	-7282
ront	-7283
▁2013	-7284
▁Laks	-7285
▁Shas	-7286
hipped	-7287
uction	-7288
▁Territ	-7289
▁borders	-7290
▁cameras	-7291
▁praised	-7292
▁starting	-7293
▁achievements	-7294
auty	-7295
gred	-7296
▁Kir	-7297
▁Exec	-7298
▁None	-7299
▁sear	-7300
▁tank	-7301
▁chain	-7302
osystem	-7303
▁Honble	-7304
▁remote	-7305
▁Districts	-7306
▁advantage	-7307
▁consumers	-7308
▁protested	-7309
▁suggested	-7310
▁organizations	-7311
▁administrative	-7312
-0	-7313
eta	-7314
hop	-7315
▁PS	-7316
aves	-7317
▁Rad	-7318
▁lad	-7319
▁upl	-7320
ength	-7321
▁Chin	-7322
▁cars	-7323
vement	-7324
▁Drink	-7325
▁Shrad	-7326
▁catch	-7327
▁retri	-7328
▁desire	-7329
fficient	-7330
▁Finally	-7331
▁delayed	-7332
▁legislators	-7333
▁certificates	-7334
▁Ed	-7335
▁Ked	-7336
▁Saj	-7337
ahabad	-7338
▁Nawaz	-7339
▁joins	-7340
▁Mahesh	-7341
▁combat	-7342
▁proved	-7343
▁tabern	-7344
▁Medicine	-7345
▁Panchayat	-7346
▁apprehend	-7347
▁traditions	-7348
key	-7349
aria	-7350
ksha	-7351
essed	-7352
oshan	-7353
▁Conf	-7354
▁Rout	-7355
▁dear	-7356
▁beast	-7357
▁guard	-7358
▁brings	-7359
▁Centres	-7360
▁Regional	-7361
▁attending	-7362
▁countrymen	-7363
▁Rashtrapati	-7364
▁challenging	-7365
arm	-7366
oil	-7367
ppa	-7368
aked	-7369
uhan	-7370
▁Ret	-7371
▁Top	-7372
▁nam	-7373
utely	-7374
▁Nand	-7375
▁moon	-7376
▁semi	-7377
empted	-7378
halaya	-7379
▁Sride	-7380
assador	-7381
▁Account	-7382
▁opinion	-7383
▁supremo	-7384
▁Residents	-7385
▁ascertain	-7386
▁concerning	-7387
▁motorcycle	-7388
▁pronounced	-7389
4.	-7390
Sh	-7391
ocon	-7392
want	-7393
▁Cust	-7394
▁Kumb	-7395
▁Pres	-7396
▁Shre	-7397
▁bere	-7398
▁couldn	-7399
▁Germany	-7400
▁arrival	-7401
▁December	-7402
▁WhatsApp	-7403
▁mechanism	-7404
orge	-7405
▁RSS	-7406
▁Bomb	-7407
▁brand	-7408
▁hotel	-7409
▁campus	-7410
▁Otherwise	-7411
▁Political	-7412
▁reduction	-7413
▁sensitive	-7414
▁interested	-7415
▁outstanding	-7416
▁coordination	-7417
▁professional	-7418
▁Eat	-7419
erate	-7420
iring	-7421
rants	-7422
▁NITI	-7423
▁Priv	-7424
ansion	-7425
though	-7426
▁Crime	-7427
▁drugs	-7428
▁proof	-7429
▁Canada	-7430
▁Prabhu	-7431
▁jawans	-7432
▁cyclone	-7433
▁properly	-7434
▁requires	-7435
▁nomination	-7436
▁remembered	-7437
VP	-7438
umin	-7439
ademy	-7440
▁pled	-7441
arathi	-7442
rators	-7443
▁armed	-7444
▁vigil	-7445
▁burden	-7446
▁cinema	-7447
▁picked	-7448
▁Alliance	-7449
▁renewable	-7450
▁determined	-7451
▁ast	-7452
▁row	-7453
thern	-7454
▁2020.	-7455
▁lashed	-7456
▁vacant	-7457
▁compass	-7458
▁protein	-7459
▁Shraddha	-7460
▁pacified	-7461
-18	-7462
oist	-7463
▁Fest	-7464
▁Move	-7465
▁Phot	-7466
▁roll	-7467
▁wake	-7468
arency	-7469
▁Bipin	-7470
▁Sonam	-7471
▁Trust	-7472
▁agenda	-7473
▁fallen	-7474
▁integr	-7475
▁emerging	-7476
▁powerful	-7477
▁Narasingha	-7478
▁applicable	-7479
NU	-7480
apse	-7481
▁Jais	-7482
▁News	-7483
▁rose	-7484
▁Doing	-7485
▁cloud	-7486
▁consp	-7487
▁frequ	-7488
▁metro	-7489
▁spect	-7490
▁Malays	-7491
▁affair	-7492
▁voting	-7493
▁falling	-7494
▁cordoned	-7495
▁spreading	-7496
ares	-7497
▁Ber	-7498
▁era	-7499
adhav	-7500
▁Kaus	-7501
▁Nort	-7502
▁Upon	-7503
▁draw	-7504
Congress	-7505
gredients	-7506
▁nominated	-7507
▁thunderstorm	-7508
AL	-7509
jj	-7510
RDO	-7511
raham	-7512
▁Heat	-7513
▁cool	-7514
▁virt	-7515
▁preca	-7516
▁master	-7517
▁Electric	-7518
▁Resource	-7519
▁Municipal	-7520
▁Chandrayaan	-7521
▁experiences	-7522
▁individuals	-7523
reg	-7524
ider	-7525
▁agg	-7526
▁dil	-7527
▁mix	-7528
inner	-7529
▁Naik	-7530
▁evac	-7531
▁Democ	-7532
▁Soura	-7533
▁cyber	-7534
▁decre	-7535
▁globe	-7536
▁slain	-7537
▁corner	-7538
▁theres	-7539
▁volunt	-7540
▁Acharya	-7541
▁propose	-7542
▁reserved	-7543
▁Harichand	-7544
▁dedication	-7545
▁suggestions	-7546
rap	-7547
▁Um	-7548
▁Big	-7549
▁mask	-7550
▁2017.	-7551
▁Dilip	-7552
▁beauty	-7553
▁clause	-7554
▁digest	-7555
▁wealth	-7556
▁Revenue	-7557
▁comfort	-7558
forcement	-7559
▁February	-7560
▁greatest	-7561
▁Investment	-7562
hee	-7563
▁Dri	-7564
▁Imp	-7565
▁Leo	-7566
▁que	-7567
▁Agra	-7568
▁auto	-7569
▁hour	-7570
▁Green	-7571
▁falls	-7572
▁games	-7573
▁mercy	-7574
▁paste	-7575
▁sanct	-7576
▁Applic	-7577
▁Jadhav	-7578
▁eastern	-7579
▁samples	-7580
▁underst	-7581
▁Jitendra	-7582
▁recalled	-7583
▁Indonesia	-7584
▁authority	-7585
▁maintaining	-7586
iya	-7587
▁Jew	-7588
▁fee	-7589
▁lic	-7590
anese	-7591
pline	-7592
▁Stat	-7593
▁hect	-7594
▁wide	-7595
▁empty	-7596
▁taught	-7597
▁clashes	-7598
▁bereaved	-7599
▁Allahabad	-7600
▁Meghalaya	-7601
▁alongside	-7602
▁households	-7603
▁preliminary	-7604
▁strengthened	-7605
.,	-7606
rog	-7607
uja	-7608
▁Ty	-7609
ache	-7610
▁Bid	-7611
▁jew	-7612
inals	-7613
▁Miss	-7614
▁airl	-7615
▁conc	-7616
▁Italy	-7617
▁Johar	-7618
▁Risha	-7619
▁meant	-7620
mentation	-7621
▁impossible	-7622
▁revolution	-7623
▁continuously	-7624
wary	-7625
▁Deo	-7626
▁MlA	-7627
▁SBI	-7628
ilder	-7629
▁inher	-7630
▁kings	-7631
▁links	-7632
▁Market	-7633
▁Pramod	-7634
▁liquor	-7635
▁tremend	-7636
▁ecosystem	-7637
▁Australian	-7638
▁Candidates	-7639
▁supporters	-7640
▁conversation	-7641
▁interrogated	-7642
jo	-7643
itam	-7644
ixel	-7645
▁Money	-7646
▁brave	-7647
▁overse	-7648
▁stayed	-7649
▁reduces	-7650
▁condoled	-7651
▁watching	-7652
▁conductor	-7653
▁definitely	-7654
▁connections	-7655
owed	-7656
▁Dan	-7657
▁Tri	-7658
▁ble	-7659
There	-7660
▁Balak	-7661
▁Devgn	-7662
▁Jacob	-7663
▁concl	-7664
▁owner	-7665
casting	-7666
▁divided	-7667
▁emphasis	-7668
▁targeted	-7669
▁judgement	-7670
▁workplace	-7671
',	-7672
oda	-7673
ario	-7674
chase	-7675
ching	-7676
▁doll	-7677
cellor	-7678
▁Akhil	-7679
▁Khanna	-7680
▁losses	-7681
▁todays	-7682
▁featured	-7683
▁Community	-7684
▁addresses	-7685
▁coalition	-7686
▁tabernacle	-7687
rd	-7688
hew	-7689
lal	-7690
▁Vo	-7691
hane	-7692
▁Gan	-7693
▁Tir	-7694
▁nurs	-7695
▁Libra	-7696
▁theft	-7697
▁corona	-7698
▁casualty	-7699
▁railways	-7700
▁swearing	-7701
▁comprises	-7702
▁dangerous	-7703
enth	-7704
irty	-7705
▁Camp	-7706
▁Viet	-7707
▁Tomar	-7708
▁types	-7709
ections	-7710
rations	-7711
utation	-7712
▁asserted	-7713
▁reaction	-7714
▁diversity	-7715
▁SA	-7716
▁Mer	-7717
▁der	-7718
▁Smith	-7719
▁Train	-7720
stances	-7721
▁Sindhu	-7722
▁legend	-7723
Pakistan	-7724
▁Agarwal	-7725
▁herself	-7726
▁leaving	-7727
▁version	-7728
▁Thailand	-7729
▁immunity	-7730
▁maintenance	-7731
▁satisfaction	-7732
gam	-7733
ixt	-7734
▁Da	-7735
▁NH	-7736
▁dw	-7737
▁Dip	-7738
▁Sen	-7739
▁cat	-7740
▁clin	-7741
▁keen	-7742
apixel	-7743
▁flour	-7744
▁formal	-7745
▁please	-7746
▁dropped	-7747
▁surgery	-7748
▁Javadekar	-7749
▁procurement	-7750
▁productivity	-7751
Is	-7752
bha	-7753
▁ram	-7754
▁vul	-7755
▁Supp	-7756
▁aimed	-7757
▁Chahal	-7758
▁Scient	-7759
▁Kannada	-7760
▁Rishabh	-7761
▁erupted	-7762
▁tickets	-7763
▁attempts	-7764
▁stronger	-7765
▁forwarded	-7766
▁32	-7767
iagn	-7768
igen	-7769
rack	-7770
▁Maur	-7771
icient	-7772
▁Death	-7773
▁Jyoti	-7774
▁Still	-7775
▁upset	-7776
▁advice	-7777
▁powers	-7778
▁timely	-7779
▁Teachers	-7780
▁minerals	-7781
▁scholars	-7782
▁announces	-7783
▁certainly	-7784
▁construct	-7785
▁rendering	-7786
▁historical	-7787
▁Harichandan	-7788
odh	-7789
inse	-7790
yers	-7791
▁Haz	-7792
▁Jai	-7793
▁Lax	-7794
▁flee	-7795
orough	-7796
▁sixth	-7797
itamins	-7798
▁fellow	-7799
esterday	-7800
▁missile	-7801
▁tourist	-7802
▁entering	-7803
▁football	-7804
▁succeeded	-7805
▁celebrities	-7806
▁contributed	-7807
nan	-7808
phy	-7809
▁Dub	-7810
arant	-7811
▁Buddh	-7812
▁meets	-7813
▁Cannot	-7814
▁Diwali	-7815
▁easier	-7816
ferences	-7817
▁batting	-7818
▁founder	-7819
▁substant	-7820
▁businesses	-7821
▁engineering	-7822
▁chairmanship	-7823
AB	-7824
DS	-7825
▁AS	-7826
cium	-7827
dess	-7828
▁Gem	-7829
▁PTI	-7830
▁Squ	-7831
harma	-7832
▁Town	-7833
▁inhab	-7834
▁Select	-7835
▁onions	-7836
▁paying	-7837
▁tragic	-7838
▁Scheduled	-7839
▁extension	-7840
▁Kendrapada	-7841
▁democratic	-7842
▁literature	-7843
umn	-7844
▁Bag	-7845
▁CPI	-7846
etime	-7847
oward	-7848
uries	-7849
urved	-7850
▁sort	-7851
ducted	-7852
orious	-7853
▁postp	-7854
▁winds	-7855
▁acknow	-7856
▁height	-7857
▁honest	-7858
▁privile	-7859
▁transactions	-7860
▁Det	-7861
▁phas	-7862
▁Solom	-7863
▁Vikas	-7864
▁exams	-7865
▁Agency	-7866
▁havent	-7867
▁tackle	-7868
▁anymore	-7869
▁drivers	-7870
▁youngsters	-7871
▁consumption	-7872
▁administered	-7873
PS	-7874
cel	-7875
▁IAS	-7876
▁Jeh	-7877
▁Was	-7878
Amend	-7879
▁Varun	-7880
▁discl	-7881
▁taxes	-7882
▁Around	-7883
▁locked	-7884
▁uproar	-7885
▁caution	-7886
▁dispers	-7887
▁tractor	-7888
▁advocate	-7889
▁scenario	-7890
▁standard	-7891
▁quarantine	-7892
ua	-7893
kes	-7894
▁NRC	-7895
▁Sav	-7896
▁Hist	-7897
▁Jawa	-7898
▁Rajk	-7899
pector	-7900
▁norms	-7901
▁	-7902
e	-7903
a	-7904
t	-7905
i	-7906
n	-7907
o	-7908
r	-7909
s	-7910
h	-7911
d	-7912
l	-7913
c	-7914
u	-7915
m	-7916
f	-7917
p	-7918
.	-7919
g	-7920
w	-7921
y	-7922
b	-7923
v	-7924
,	-7925
T	-7926
k	-7927
S	-7928
I	-7929
P	-7930
M	-7931
A	-7932
C	-7933
B	-7934
H	-7935
D	-7936
j	-7937
R	-7938
N	-7939
J	-7940
G	-7941
K	-7942
-	-7943
"	-7944
x	-7945
W	-7946
O	-7947
F	-7948
L	-7949
E	-7950
0	-7951
1	-7952
'	-7953
U	-7954
:	-7955
2	-7956
q	-7957
z	-7958
V	-7959
)	-7960
(	-7961
Y	-7962
?	-7963
5	-7964
3	-7965
4	-7966
9	-7967
7	-7968
8	-7969
6	-7970
%	-7971
!	-7972
Z	-7973
]	-7974
[	-7975
&	-7976
/	-7977
_	-7978
X	-7979
Q	-7980
$	-7981
\	-7982
|	-7983
{	-7984
}	-7985
#	-7986
`	-7987
+	-7988
@	-7989
*	-7990
=	-7991
>	-7992
~	-7993
<	-7994
^	-7995
