<pad>	0
<unk>	0
<s>	0
</s>	0
▁କ	-0
▁ସ	-1
▁ପ	-2
୍ର	-3
ାର	-4
୍ତ	-5
▁ବ	-6
ରେ	-7
୍ୟ	-8
▁ମ	-9
▁ଏ	-10
୍କ	-11
ାନ	-12
ରି	-13
ଙ୍କ	-14
▁ନ	-15
ହି	-16
ଥି	-17
▁।	-18
▁ଅ	-19
ନ୍ତ	-20
▁ଆ	-21
▁ଦ	-22
ାଇ	-23
ବା	-24
▁ହ	-25
ର୍	-26
ଛି	-27
▁କରି	-28
▁ପ୍ର	-29
▁ର	-30
କୁ	-31
▁ତ	-32
▁ବି	-33
ଲା	-34
▁ଭ	-35
▁ଜ	-36
ିକ	-37
ଲେ	-38
▁ଯ	-39
ନ୍	-40
▁ଗ	-41
ମ୍	-42
▁ଉ	-43
▁ସେ	-44
ହା	-45
ମାନ	-46
ବେ	-47
ନ୍ତି	-48
ିତ	-49
୍ଷ	-50
ଲି	-51
ସ୍	-52
ରୁ	-53
ରା	-54
▁ଶ	-55
ଛନ୍ତି	-56
ତି	-57
ଟି	-58
ଷ୍	-59
ନା	-60
▁ନି	-61
▁ଓ	-62
ୋଇ	-63
ଙ୍କୁ	-64
▁ଚ	-65
▁ଦେ	-66
୍ରୀ	-67
▁ହୋଇ	-68
ଥିଲେ	-69
ଧ୍ୟ	-70
▁ଏହି	-71
ାରେ	-72
▁ହେ	-73
କ୍ଷ	-74
୍ୱ	-75
ଡ଼	-76
▁ରା	-77
▁ତା	-78
▁ପାଇ	-79
ଣ୍	-80
ସି	-81
୍ୟା	-82
ଣା	-83
ଥିଲା	-84
▁ଘ	-85
ସ୍ତ	-86
ନ୍ଦ	-87
▁ସମ	-88
ାମ	-89
ଯାଇ	-90
▁ଲ	-91
▁ମଧ୍ୟ	-92
▁କି	-93
ାତ	-94
ଲ୍	-95
ୋଗ	-96
ବଂ	-97
▁ଏବଂ	-98
▁ଏହା	-99
▁ପାଇଁ	-100
ଦ୍	-101
ଥିବା	-102
▁ମୁ	-103
ାର୍	-104
ଡି	-105
ଥା	-106
▁କରା	-107
ିବ	-108
▁ଅନ	-109
କ୍ତ	-110
▁ଖ	-111
ଷ୍ଟ	-112
ତା	-113
ହିଁ	-114
▁ଫ	-115
୍ଚ	-116
ିନ	-117
କାର	-118
ନ୍ତ୍ରୀ	-119
ୋଲି	-120
▁ସ୍	-121
▁ନେ	-122
▁ପୁ	-123
ଳି	-124
▁ନା	-125
▁ରହି	-126
▁କେ	-127
ୋକ	-128
▁ଭାର	-129
▁ସୁ	-130
▁ଏକ	-131
ୀୟ	-132
▁ଭାରତ	-133
▁ଉପ	-134
▁ପରି	-135
ଯ୍ୟ	-136
ମ୍ଭ	-137
ାବ	-138
▁ସହ	-139
▁ସଂ	-140
▁କରିବା	-141
▁ରାଜ	-142
ମାନେ	-143
ନ୍ତୁ	-144
ାରି	-145
ୃତ	-146
▁ପା	-147
▁ମି	-148
▁ବା	-149
ଭି	-150
▁ଟ	-151
▁କହି	-152
େଶ	-153
ମନ୍ତ୍ରୀ	-154
ପି	-155
▁କରାଯାଇ	-156
▁ଯେ	-157
ଦ୍ଧ	-158
କା	-159
ବାର	-160
ଧାନ	-161
ସ୍ଥ	-162
▁ଘଟ	-163
ଙ୍	-164
▁ଲୋକ	-165
ିଲ୍	-166
ମା	-167
ମାନଙ୍କ	-168
ଣି	-169
୍ତି	-170
ଙ୍ଗ	-171
▁ରେ	-172
▁ଦୁ	-173
ବର	-174
▁ସମ୍	-175
▁ଇ	-176
▁ବ୍ୟ	-177
ହୁ	-178
ଣ୍ଡ	-179
ଡ଼ି	-180
▁ସର	-181
▁କାର୍	-182
ୂର୍	-183
ହାର	-184
ଞ୍ଚ	-185
▁ଲା	-186
▁ପରେ	-187
ନ୍ଦ୍ର	-188
▁ମୋ	-189
ଜେ	-190
▁ଆମ	-191
ାୟ	-192
ାସ	-193
ଳରେ	-194
ଖି	-195
ବି	-196
▁ଅଧ	-197
▁ତାଙ୍କ	-198
▁ନାହିଁ	-199
▁ସା	-200
▁ନେଇ	-201
ତ୍	-202
▁ଦେଇ	-203
▁ତେ	-204
ଯୋଗ	-205
▁ନିର୍	-206
▁ଜଣ	-207
▁ସରକାର	-208
ୁର	-209
▁ଧ	-210
▁ଗୁ	-211
ାଗ	-212
▁କରିଛନ୍ତି	-213
▁କାର୍ଯ୍ୟ	-214
ଥାନ	-215
▁ଯା	-216
▁ପ୍ରତି	-217
▁କରୁ	-218
▁ଚା	-219
କ୍ର	-220
ନି	-221
▁ଡ	-222
ଳା	-223
ପ୍ର	-224
ଜି	-225
▁ସ୍ୱ	-226
▁ଘଟଣା	-227
ଗ୍ର	-228
ଖ୍ୟ	-229
▁କରିଥିଲେ	-230
କ୍	-231
▁ସି	-232
ବାକୁ	-233
▁ପ୍ରଧାନ	-234
କି	-235
▁ମୃତ	-236
▁ଏଥି	-237
▁ରହିଛି	-238
ଉଛି	-239
େତ	-240
▁ରାଜ୍ୟ	-241
ାଲ	-242
ଦେଶ	-243
ଟ୍	-244
▁ଅନୁ	-245
▁ପୋଲି	-246
ଷ୍ଠ	-247
ବୁ	-248
▁ବୋଲି	-249
▁କୋ	-250
▁କର	-251
ଦି	-252
ଳେ	-253
▁ଲାଗ	-254
▁ଅଧିକ	-255
ମି	-256
ାତ୍ର	-257
▁ଛ	-258
▁ବିଶ	-259
▁ଅଭି	-260
▁ବିଜେ	-261
ପା	-262
▁ଭା	-263
▁ପୁଲି	-264
▁ଦେଶ	-265
▁ପ୍ରଧାନମନ୍ତ୍ରୀ	-266
▁ଯୋଗ	-267
ସା	-268
▁ମୁଖ୍ୟ	-269
ହିତ	-270
ାରଣ	-271
ନ୍ନ	-272
▁ଅବ	-273
ମାନଙ୍କୁ	-274
▁କରାଯାଇଛି	-275
▁କ୍ଷ	-276
ଚନା	-277
▁ଦି	-278
ୀର	-279
▁କିନ୍ତୁ	-280
▁କୁ	-281
ାରୁ	-282
▁କୌ	-283
କାଶ	-284
୍ୟୁ	-285
▁ପୋଲିସ	-286
ପର	-287
ଣସି	-288
▁ଆର	-289
ାରା	-290
..	-291
କ୍ତି	-292
ୋଧ	-293
ଷ୍ଟ୍ର	-294
େକ	-295
େସ	-296
୍ତ୍ତ	-297
▁ଆପ	-298
ର୍ଷ	-299
▁ତେବେ	-300
▁ଲାଗି	-301
▁ସମସ୍ତ	-302
▁ହେବ	-303
ଯା	-304
▁କୌଣସି	-305
ତ୍ତ	-306
▁ପୂର୍	-307
▁କରିଛି	-308
ାରୀ	-309
ୋଜ	-310
▁ସ୍ଥାନ	-311
▁ବ୍ୟବ	-312
▁ମା	-313
ରଣ	-314
କ୍ଷା	-315
ପରି	-316
ାନ୍	-317
▁କିଛି	-318
େଇ	-319
▁ହୋଇଛି	-320
ୟରେ	-321
ନୀ	-322
ପତି	-323
▁କା	-324
▁ଗୋ	-325
ଗୁ	-326
▁କହିଛନ୍ତି	-327
ଦୀ	-328
▁ମଧ୍ୟରେ	-329
▁ନିଜ	-330
▁ଆସି	-331
ମୁ	-332
▁ଭାବେ	-333
▁ପୁଲିସ	-334
▁ମୁଁ	-335
ୀନ	-336
▁ପୂର୍ବ	-337
▁ପର	-338
▁ଦୁଇ	-339
ୁବ	-340
▁ଉପରେ	-341
ର୍ମ	-342
▁ତୁ	-343
ର୍ଟ	-344
ହେ	-345
▁ସୂ	-346
▁ବେ	-347
କ୍ରମ	-348
▁ବିଜେପି	-349
ଥାଏ	-350
▁ମିଳି	-351
""	-352
ିର	-353
▁ସହିତ	-354
▁ଆରମ୍ଭ	-355
ାନ୍ତ	-356
▁ଆପଣ	-357
▁ତଦ	-358
▁ଆମେ	-359
▁ଗ୍ର	-360
ନ୍ତ୍ର	-361
ସ୍ଥା	-362
▁ପହ	-363
▁ତାଙ୍କୁ	-364
ଢ଼	-365
ିଲ୍ଲ	-366
ଣ୍ଣ	-367
ଜ୍	-368
ଯାଇଛି	-369
▁ହେଲେ	-370
▁ଅନ୍ୟ	-371
▁ତଦନ୍ତ	-372
▁(	-373
▁ପି	-374
ଉଁ	-375
▁ନୂ	-376
ଦା	-377
ନ୍ଧ	-378
ହତ	-379
▁ଜା	-380
ର୍ଥ	-381
▁ବର୍ଷ	-382
ୀବ	-383
ଞ୍	-384
ତେ	-385
ରରେ	-386
ଙ୍କର	-387
ଯିବ	-388
▁ସବୁ	-389
▁କେନ୍ଦ୍ର	-390
ଦାନ	-391
ଚ୍	-392
ୋଷ	-393
ଷ୍ଟି	-394
ଯୁ	-395
ପରେ	-396
ିକା	-397
▁ଦିନ	-398
▁ଯାହା	-399
▁ସୂଚନା	-400
▁ସାମ	-401
ଭା	-402
ଚ୍ଚ	-403
ଳୟ	-404
▁ରଖି	-405
▁ଗୁରୁ	-406
ପୁର	-407
▁କଂ	-408
ଥମ	-409
▁ଆଉ	-410
▁ବ୍ୟା	-411
ଟେ	-412
ମିତ	-413
ସ୍ଥି	-414
ପର୍କ	-415
▁ଦ୍ୱ	-416
ଗ୍ରେସ	-417
ଠାରେ	-418
▁ତାହା	-419
▁ବହୁ	-420
ର୍ଶ	-421
▁ଅଭ	-422
▁ଡା	-423
ର୍ଯ୍ୟ	-424
▁କଂଗ୍ରେସ	-425
▁ମେ	-426
▁ମାନ	-427
ଞ୍ଜ	-428
▁ଭାରତୀୟ	-429
▁ଜଣେ	-430
▁କରିବାକୁ	-431
ଞ୍ଚି	-432
▁ଥିଲେ	-433
ନାହିଁ	-434
▁ଶ୍ରୀ	-435
▁ଏହାକୁ	-436
େତ୍ର	-437
▁ମୁଖ୍ୟମନ୍ତ୍ରୀ	-438
ଣ୍ଟ	-439
ଠାରୁ	-440
▁ବୈ	-441
ିୟ	-442
ିତ୍	-443
▁ହୋଇଥିଲା	-444
▁ଭି	-445
▁ଥିବା	-446
▁ମାମ	-447
ନରେ	-448
ବାଦ	-449
▁ପ୍ରଶ	-450
ପାଇ	-451
ଶା	-452
▁ଜଣା	-453
ପୂର୍	-454
▁ତୁମ୍ଭ	-455
ଖା	-456
ତ୍ର	-457
▁ଶୁ	-458
▁ପକ୍ଷ	-459
▁ଉତ୍ତ	-460
▁ବିଶ୍ୱ	-461
▁2	-462
ରୋଧ	-463
▁ମୃତ୍ୟୁ	-464
▁ଏଥିରେ	-465
▁ପରିବାର	-466
ଭାଗ	-467
▁ଅନେକ	-468
▁ଦଳ	-469
▁ରାଷ୍ଟ୍ର	-470
▁କାରଣ	-471
ଭଳି	-472
▁ହେଉଛି	-473
▁ଏହାର	-474
▁ପ୍ରଥମ	-475
▁ଏବେ	-476
▁ଗୁରୁତ	-477
▁ପହଞ୍ଚି	-478
ବଳ	-479
▁ଦିଆ	-480
େଷ	-481
▁କ୍ଷେତ୍ର	-482
▁ସେହି	-483
ପାରି	-484
▁ସ୍ୱା	-485
ଙ୍କା	-486
ରୀ	-487
▁ଆଜି	-488
▁ଯାଇ	-489
ଟିଏ	-490
ପାଇଁ	-491
▁ଆସ	-492
▁ନୂଆ	-493
ତନ	-494
୍ଯ	-495
▁ବିରୋଧ	-496
ଦେ	-497
▁ଘଟଣାସ୍ଥ	-498
େଟ	-499
▁ତାଙ୍କର	-500
▁ଯେଉଁ	-501
▁ୟ	-502
ୀଙ୍କ	-503
ପାର	-504
▁ଆଇ	-505
▁ରି	-506
▁ଅଭିଯୋଗ	-507
ଦ୍ୟ	-508
ୃଦ୍ଧ	-509
▁ଘଟି	-510
ଶ୍ୟ	-511
ଡିଆ	-512
ାନ୍ତି	-513
ିଲ୍ଲୀ	-514
ୟକ	-515
ଳ୍	-516
ଭିନ୍ନ	-517
ୋର୍ଟ	-518
ଲୋ	-519
ୀତ	-520
▁ମହି	-521
▁ପଦ	-522
ଭୟ	-523
▁ମନ୍ତ୍ରୀ	-524
▁ହେଉ	-525
▁ବିଭିନ୍ନ	-526
୍ନ	-527
ୃଷ୍ଟି	-528
ହଣ	-529
▁ଏନ	-530
ପୂର୍ଣ୍ଣ	-531
▁କଲେ	-532
▁ଦେଖି	-533
ିକ୍ଷ	-534
▁ଫିଲ୍	-535
▁କରିବ	-536
▁ଉଭୟ	-537
▁ଟ୍ର	-538
ଣୁ	-539
ସ୍କ	-540
ଆଇ	-541
▁ସେମାନଙ୍କ	-542
ଚ୍ଛ	-543
▁ସମୟରେ	-544
ତିକ	-545
▁ମହିଳା	-546
▁ମିଳ	-547
▁କଥା	-548
▁ସିଂ	-549
▁ପକ୍ଷରୁ	-550
▁ଭର	-551
ିବା	-552
ମାଣ	-553
▁ଫିଲ୍ମ	-554
▁ଜୀବ	-555
▁ବୁ	-556
▁ଗା	-557
▁ବେଳେ	-558
କ୍ତର	-559
ଳନ	-560
...	-561
▁ପ୍ରସ୍ତ	-562
▁ଜାରି	-563
ଡ଼ା	-564
ସ୍ତାନ	-565
ୃଦ୍ଧି	-566
▁ଘଟଣାସ୍ଥଳରେ	-567
▁1	-568
▁ଲକ୍ଷ	-569
ବାଚ	-570
ଗତ	-571
▁ଶି	-572
▁ଖବର	-573
▁କରିବେ	-574
▁ଘଟଣ	-575
▁ଅଭିନ	-576
ଦ୍ଦେଶ	-577
▁ନୁ	-578
୍ତ୍ତି	-579
▁ଦୁର୍	-580
ଫଳ	-581
ରେନ୍ଦ୍ର	-582
▁ଉତ୍	-583
▁ରୁ	-584
ଳ୍ପ	-585
ରକ୍ଷା	-586
▁ଚି	-587
ାବି	-588
ଡ଼ିକ	-589
▁ନିଆ	-590
▁ଥିଲା	-591
▁ଆବ	-592
▁ଗୋଟିଏ	-593
▁ଗିର	-594
▁ସର୍	-595
ଠି	-596
ଯୁକ୍ତ	-597
▁ଚିକ	-598
ଜୁ	-599
▁‘	-600
▁ନିକ	-601
▁ଗିରଫ	-602
ବାସ	-603
▁ଆୟ	-604
▁ଦେଇଛନ୍ତି	-605
▁କରାଯାଇଥିଲା	-606
▁ଅର୍ଥ	-607
▁କରୁଛି	-608
ତ୍ୟ	-609
▁ବର	-610
ମ୍ପ	-611
▁ବିଭାଗ	-612
▁ତଥା	-613
ଟର	-614
ହେଁ	-615
ସ୍ଥ୍ୟ	-616
▁ଡାକ୍ତର	-617
▁ଝ	-618
▁ଫଳରେ	-619
ମ୍ବ	-620
ଧି	-621
ବେଶ	-622
ଦନ	-623
ଟା	-624
▁ନରେନ୍ଦ୍ର	-625
ାତ୍ରୀ	-626
ଟକ	-627
ଶୁ	-628
▁ଚିକିତ୍	-629
▁ନିର୍ବାଚ	-630
ଶ୍ୟକ	-631
▁କାମ	-632
ଜ୍ଞ	-633
ମୁଖ	-634
▁ସୋ	-635
▁ଅଧ୍ୟ	-636
▁କର୍ମ	-637
▁ସମ୍ପର୍କ	-638
▁ହେବା	-639
ତ୍ୟା	-640
ଶ୍ଚ	-641
ବେଳେ	-642
ଚାର	-643
▁ଆଗ	-644
ିଲ୍ଲା	-645
▁ମାତ୍ର	-646
ମାର	-647
କିସ୍ତାନ	-648
ଦ୍ଧାର	-649
▁ଗ୍ରହଣ	-650
▁ହୋଇଥିବା	-651
▁ମୋଦି	-652
▁ଟି	-653
▁ଦେଇଥିଲେ	-654
▁ଜଣାପ	-655
▁ଯୋଜ	-656
ୁତ	-657
▁ନିକଟ	-658
ିନି	-659
ଭାବ	-660
▁କରାଯିବ	-661
▁ପ୍ରଦାନ	-662
▁ଡି	-663
ନର	-664
▁କାର୍ଯ୍ୟକ୍ରମ	-665
▁ଜିଲ୍ଲା	-666
ଯାଉଛି	-667
▁ଆହତ	-668
▁ଆବଶ୍ୟକ	-669
୍ମ	-670
▁କହିଥିଲେ	-671
ଦ୍ର	-672
ବତ	-673
▁ବିକାଶ	-674
କାରୀ	-675
▁ପାକିସ୍ତାନ	-676
ଶ୍ର	-677
▁ଭୂ	-678
ାର୍ଥ	-679
▁ପ୍ରା	-680
ବର୍ତ୍ତ	-681
ମେ	-682
▁ଚାଲି	-683
▁ଭାରତର	-684
ଣୀ	-685
▁ଦ୍ୱାରା	-686
▁ସେମାନେ	-687
▁?	-688
▁ଭିତ	-689
▁ଭଲ	-690
▁ଘର	-691
ାଜ	-692
▁ବୃଦ୍ଧି	-693
▁ପର୍ଯ୍ୟ	-694
▁ମନ	-695
ସ୍ୟ	-696
▁ଅପ	-697
▁ବିଷ	-698
ଟାଲ	-699
▁20	-700
▁କ୍ଷେତ୍ରରେ	-701
▁ଏଭଳି	-702
▁ଭର୍ତ୍ତି	-703
▁ଚିକିତ୍ସା	-704
ପ୍ତ	-705
▁ନେତା	-706
▁ପ୍ରକାଶ	-707
▁ଶିକ୍ଷ	-708
▁ଦେଶର	-709
ସ୍ଥିତ	-710
କ୍ସ୍	-711
▁ସମୟ	-712
ସେ	-713
▁୧	-714
▁ଜନ	-715
▁କରନ୍ତୁ	-716
ଠକ	-717
▁ନୁହେଁ	-718
▁ଯୁବ	-719
ଡିକ	-720
▁ମହା	-721
ଚା	-722
▁କ୍ର	-723
▁ଶ୍ର	-724
▁ହି	-725
▁କୋଟି	-726
▁ପୂର୍ବରୁ	-727
ିମ	-728
▁ଭାଇ	-729
▁ହାଇ	-730
▁ମାମଲା	-731
ମାନେେ	-732
▁ଘୋଷ	-733
କ୍ସ୍ଟ	-734
ତ୍ତି	-735
▁କୃ	-736
େପ	-737
ିକ୍	-738
▁ଥ	-739
ଭୁ	-740
▁ଉଦ୍ଧାର	-741
ଘଟ	-742
▁ଅବସ	-743
▁ଟଙ୍କା	-744
▁ନିୟ	-745
▁ଅଧିକାରୀ	-746
▁ସ୍ୱାସ୍ଥ୍ୟ	-747
▁ଏପରି	-748
ଠା	-749
▁ଚଳ	-750
▁ବନ୍ଦ	-751
୍ଵ	-752
▁ହୋଇଛନ୍ତି	-753
▁ଅସ	-754
ଂଶ	-755
▁ବୈଠକ	-756
▁କରିଥିଲା	-757
▁ମହ	-758
▁ରାଷ୍ଟ୍ରପତି	-759
▁ଏଥିପାଇଁ	-760
ଡା	-761
▁ସ୍ଥାନୀୟ	-762
▁ପାର	-763
▁ପ୍ରକ	-764
ିଲ	-765
ଷ୍ଠାନ	-766
ଛୁ	-767
▁ସ୍ଥି	-768
ବାରୁ	-769
▁ଏନେଇ	-770
ଜାର	-771
▁ଉତ୍ତର	-772
▁ଛାତ୍ର	-773
ଧାରଣ	-774
▁ମୋଦୀ	-775
▁ଅଧ୍ୟକ୍ଷ	-776
େଲ	-777
ାନୁ	-778
ଧିକ	-779
▁ନବ	-780
ପତ୍ତି	-781
ୂର	-782
ଡ୍	-783
ଗୁଡ଼ିକ	-784
▁ଅଛନ୍ତି	-785
▁ସଚ	-786
ୁଛି	-787
ନାୟକ	-788
▁ଲୋକେ	-789
▁ବ୍ୟବସ୍ଥା	-790
ାଇବା	-791
▁ସହା	-792
ୋର	-793
▁ସୁରକ୍ଷା	-794
▁ତେଣୁ	-795
▁ନିର୍ଦ୍ଦେଶ	-796
▁ଲେ	-797
▁କ୍ୟା	-798
▁ଘୋଷଣା	-799
ପ୍	-800
ଧାର	-801
ଯାଇଥିଲା	-802
▁ସିଂହ	-803
▁ଯୋଜନା	-804
ବ୍	-805
▁ନିଷ୍	-806
▁ଅଞ୍ଚ	-807
▁ସୃଷ୍ଟି	-808
▁ଗୁରୁତର	-809
▁.	-810
▁ଖା	-811
▁ଫେ	-812
ୁଲ	-813
▁କହିଲେ	-814
▁ଅଭିଯୁକ୍ତ	-815
▁ଅଛି	-816
▁""	-817
▁ସରକାରଙ୍କ	-818
▁ଏହାପରେ	-819
▁କମି	-820
କ୍ଷେପ	-821
ତିରେ	-822
▁କରୁଛନ୍ତି	-823
ିତା	-824
ଜନ	-825
େଶ୍	-826
▁ବହୁତ	-827
ାସନ	-828
▁ହେଲା	-829
▁ଜୀବନ	-830
▁ଆଲୋ	-831
▁ବ୍ୟକ୍ତି	-832
ପିଟାଲ	-833
▁ଜଳ	-834
▁:	-835
▁ଦିଲ୍ଲୀ	-836
ଜା	-837
ଧା	-838
ଜୟ	-839
▁ଦୁର୍ଘଟ	-840
▁ଆର୍	-841
▁ସେମାନଙ୍କୁ	-842
▁ହିଁ	-843
▁କୃଷ	-844
ଏସ	-845
▁ହସ୍	-846
▁ସେଠାରେ	-847
▁ସଫଳ	-848
▁ଖେ	-849
▁ସହଯୋଗ	-850
ମିତି	-851
ଫ୍	-852
▁ମିଳିଛି	-853
▁ନିର୍ବାଚନ	-854
ାତୀୟ	-855
▁ମନ୍ତ୍ର	-856
ସିଆ	-857
ଦ୍ଧା	-858
▁ଅତି	-859
▁ଅବସରରେ	-860
▁ଶା	-861
▁ପାଣି	-862
ୟନ	-863
ହାନ୍ତି	-864
ହନ	-865
▁ନିଜର	-866
ତଙ୍କ	-867
ଶୀ	-868
ାମୀ	-869
▁ରହିବ	-870
ାନା	-871
ଟ୍ଟ	-872
▁ଉପସ୍ଥିତ	-873
▁ଗାନ୍	-874
▁,	-875
▁ପ୍ରସ	-876
କର	-877
▁ପୂର୍ବତନ	-878
ଶି	-879
▁ଭାବ	-880
▁ବର୍ଷା	-881
ଡିଓ	-882
▁ଷ୍ଟ	-883
ଂଚ	-884
▁ଘଟଣାର	-885
▁ନାମ	-886
▁ରାସ୍ତ	-887
ିତ୍ର	-888
▁ବଢ଼	-889
▁ବିରୋଧରେ	-890
ଦର୍ଶ	-891
ମିକ	-892
ୃହ	-893
▁ନିଷ୍ପତ୍ତି	-894
▁ଥାନ	-895
▁ହତ୍ୟା	-896
▁ସେଥି	-897
ଠାଇ	-898
▁କରାଯାଉଛି	-899
ମରେ	-900
▁ସମ୍ଭ	-901
େଷ୍ଟ	-902
▁“	-903
▁ବଡ଼	-904
▁ଶକ୍ତି	-905
▁ଜବତ	-906
▁ପୁଲିସ୍	-907
ସର	-908
▁ପର୍ଯ୍ୟନ୍ତ	-909
▁ପୂ	-910
ୀଙ୍କୁ	-911
▁ଓଡ଼ି	-912
ଲୁ	-913
▁ଆଲୋଚନା	-914
▁ଆତଙ୍କ	-915
▁ପଦକ୍ଷେପ	-916
▁ଖୁବ	-917
▁କୁମାର	-918
ପାରିବ	-919
ୟା	-920
▁କାର	-921
▁ନିର୍ମାଣ	-922
ଠନ	-923
▁ଦାବି	-924
▁ସ୍ଥାନରେ	-925
ଗ୍	-926
ଦେଇ	-927
ଟୋ	-928
▁ମୂ	-929
ପାଳ	-930
▁ସଦ	-931
▁ସ୍ତ	-932
▁ବର୍ତ୍ତ	-933
▁ହୋଇଥିଲେ	-934
କ୍ରମଣ	-935
ରିକ	-936
୍ୱର	-937
▁ଜେ	-938
କୋର୍ଟ	-939
ଖ୍ୟା	-940
▁କେବଳ	-941
ସଭା	-942
▁ବର୍ତ୍ତମାନ	-943
▁ଜାଣି	-944
▁ଯଦି	-945
▁"	-946
ୂପ	-947
▁ଆମର	-948
▁ପୁଣି	-949
▁ସ୍କ	-950
▁ପ୍ରଭାବ	-951
▁ଅନ୍ତ	-952
ଯ୍ୟା	-953
ତ୍ମ	-954
▁ୱ	-955
▁ଭିଡିଓ	-956
▁ଉଦ୍ୟ	-957
▁ଯୋଗୁ	-958
ଜର	-959
▁ଜଣାଇ	-960
▁ଗଣ	-961
ଦିନ	-962
ଗର	-963
▁ଜି	-964
▁ନିମ	-965
▁201	-966
ବାହ	-967
▁ପ୍ରମୁଖ	-968
ାୟୀ	-969
▁କରିଥିବା	-970
▁ଦର	-971
ର୍ଚ୍ଚ	-972
▁ଗୁରୁତ୍ୱ	-973
▁ପଡ଼ି	-974
ବ୍ୟ	-975
ପ୍ରଭୁ	-976
ଳୀ	-977
ଥିକ	-978
େଦ	-979
ପୁ	-980
▁ଶେଷ	-981
ସଦ	-982
▁ଏସ	-983
▁ସ୍ପ	-984
ଚିତ	-985
▁ସାମିଲ	-986
ଦ୍ୟା	-987
▁ଶୁଭ	-988
ରାମ	-989
▁ପାଖ	-990
▁ହସ୍ପିଟାଲ	-991
▁ଲାଭ	-992
କଙ୍କ	-993
ୋଟ	-994
ନ୍ତା	-995
▁ମାମଲ	-996
▁ଛା	-997
▁ବିଜେଡି	-998
ବାଦୀ	-999
▁ଦିଗ	-1000
ିୟା	-1001
▁ଆର୍ଥିକ	-1002
ସ୍ଥାରେ	-1003
▁ଲି	-1004
▁ଇଣ୍	-1005
▁ପ୍ରାର୍ଥ	-1006
▁ଘଟିଛି	-1007
▁ହୁ	-1008
ିବି	-1009
ନ୍ତେ	-1010
ରିଆ	-1011
ଦାପ୍ରଭୁ	-1012
▁ପୋ	-1013
▁ନିକଟରେ	-1014
▁ସମ୍ବ	-1015
କେ	-1016
▁ଆମ୍ଭ	-1017
ପକ୍ଷ	-1018
▁ସମ୍ପର୍କରେ	-1019
▁ଅନୁସ	-1020
▁ଧରି	-1021
ମାନଙ୍କର	-1022
▁ବିଶେଷ	-1023
ଗା	-1024
▁ଚାଷ	-1025
▁ବିଚାର	-1026
▁ଦେଖିବାକୁ	-1027
ଚାରୀ	-1028
▁ପଟ୍ଟ	-1029
▁ପଡି	-1030
▁ଡାକ୍ତରଖ	-1031
୍ରି	-1032
▁ନୂଆଦ	-1033
▁ଠ	-1034
▁ରୋଗ	-1035
▁ବିମାନ	-1036
▁ସର୍ବ	-1037
ାନୁଷ୍ଠାନ	-1038
▁ମିଳିବ	-1039
▁ଆହୁ	-1040
ାନି	-1041
▁ପର୍	-1042
ଗଣ	-1043
▁ଭଳି	-1044
▁ବୁଝ	-1045
▁ଲୋକଙ୍କ	-1046
ଳକ	-1047
▁ମନ୍ତ୍ରଣା	-1048
▁ପରିବର୍ତ୍ତ	-1049
▁ଦେଶରେ	-1050
▁କୋର୍ଟ	-1051
▁ସାଧାରଣ	-1052
▁ଗୃହ	-1053
▁ଇଣ୍ଡିଆ	-1054
ାନୀ	-1055
ୋନା	-1056
େି	-1057
▁ବନ୍ଧ	-1058
▁ପଟ୍ଟନାୟକ	-1059
ଆର	-1060
ତୁ	-1061
ମୋ	-1062
୍ରୀୟ	-1063
▁କେହି	-1064
ପୋର୍ଟ	-1065
▁ପ୍ରସ୍ତୁତ	-1066
▁ସହାୟ	-1067
▁ନିମନ୍ତେ	-1068
ପନ	-1069
ପାରିବେ	-1070
▁କର୍ମଚାରୀ	-1071
ସହ	-1072
ରିଷ୍ଠ	-1073
▁ଆହୁରି	-1074
▁ଦିଆଯାଇଛି	-1075
▁ମନ୍ତ୍ରଣାଳୟ	-1076
ୟୁ	-1077
▁ସହେି	-1078
ଭୂ	-1079
▁ସମା	-1080
▁ମ୍ୟା	-1081
କରଣ	-1082
ଭର	-1083
▁ନୂଆଦିଲ୍ଲୀ	-1084
▁ବୈଠକରେ	-1085
େଶ୍ବର	-1086
▁ଦୀ	-1087
▁ମୁମ୍ବ	-1088
▁ଦୃ	-1089
ମ୍ବା	-1090
▁ସେବା	-1091
ୋଲ	-1092
▁ସଦାପ୍ରଭୁ	-1093
▁ଦେଖା	-1094
▁ଦେବା	-1095
ମାନଙ୍କେ	-1096
େଟ୍	-1097
୍ମୀର	-1098
▁ବ୍ୟାଙ୍କ	-1099
ନାଥ	-1100
▁ଦୁଇଟି	-1101
ସ୍କାର	-1102
▁ପାରି	-1103
ାତା	-1104
ପାରେ	-1105
ଥିବାରୁ	-1106
ଛାତ୍ରୀ	-1107
▁ମୋର	-1108
▁ସଚିବ	-1109
▁ସାଂ	-1110
୍ବ	-1111
▁୨	-1112
▁ସମାନେେ	-1113
▁ସମାନଙ୍କେ	-1114
୍ରା	-1115
▁କରୁଥିବା	-1116
▁ଜାତୀୟ	-1117
▁ଗତ	-1118
▁ସଭା	-1119
▁ଦକ୍ଷ	-1120
ତେବେଳେ	-1121
▁ଛାତ୍ରଛାତ୍ରୀ	-1122
▁ବରିଷ୍ଠ	-1123
▁ରୁଜୁ	-1124
ର୍ଗ	-1125
▁ଆଣି	-1126
▁କରିବାର	-1127
ଦାର	-1128
ଷ୍କ	-1129
ସନ	-1130
ସ୍ଥାନ	-1131
ଟନ	-1132
▁ୟୁ	-1133
▁ପରିସ୍ଥି	-1134
▁ହାତ	-1135
▁ନୂତନ	-1136
ସ୍ୟା	-1137
▁ପ୍ରୟ	-1138
ଦେହ	-1139
▁ବିଧ	-1140
▁ମୁମ୍ବାଇ	-1141
▁ଗ୍ରାମ	-1142
▁ଆତ୍ମ	-1143
ଗଲା	-1144
▁ସୁପ୍ର	-1145
▁ମୃତଦେହ	-1146
▁କୁହା	-1147
▁ହୋଇଥାଏ	-1148
▁ପଠାଇ	-1149
େତା	-1150
ବୀ	-1151
ୟାର	-1152
▁ଭାରତରେ	-1153
▁ଆକ୍ରମଣ	-1154
▁ପରମ	-1155
▁ଜଣାପଡ଼ି	-1156
▁ପ୍ରତ୍ୟ	-1157
▁ନବୀନ	-1158
▁ସଂପର୍କ	-1159
▁ଭାଗ	-1160
ଡ଼ିକୁ	-1161
▁ବିଜୟ	-1162
▁ମିଡିଆ	-1163
ାୟକ	-1164
▁ପରୀ	-1165
▁ସମସ୍ୟା	-1166
ଘ୍ର	-1167
▁ଦେଖ	-1168
▁ଦା	-1169
ଅନ୍ତୁ	-1170
▁ପୁର	-1171
▁ସଦସ୍ୟ	-1172
▁ଉନ୍ନ	-1173
ର୍ଣ୍ଣ	-1174
ଦ୍ୱ	-1175
▁ହଜାର	-1176
▁ଅଫ	-1177
ତର	-1178
▁ତିନି	-1179
▁ସାରା	-1180
▁ଆପଣଙ୍କ	-1181
ଚଳ	-1182
ବାସୀ	-1183
▁ପ୍ରକାର	-1184
▁ଆୟୋଜ	-1185
▁ନିଆଁ	-1186
▁ଯୁ	-1187
ଯୁକ୍ତି	-1188
▁ଆଧାର	-1189
ଯାଏ	-1190
▁ଲୋକମାନେ	-1191
▁ସଂଖ୍ୟା	-1192
▁ଅବସ୍ଥାରେ	-1193
ୋର୍	-1194
▁ଲାଗିଛି	-1195
▁ଖୁ	-1196
▁ବ୍ୟବହାର	-1197
ତନ୍ତ୍ର	-1198
ରକ୍ଷ	-1199
▁ଉତ୍ସ	-1200
▁ଜିଲ୍ଲ	-1201
▁ବାର	-1202
ବାନ	-1203
▁ବ୍ୟବସ	-1204
ପଥ	-1205
▁ସ୍ଥ	-1206
▁ଯି	-1207
▁ଗାଁ	-1208
ନୀତି	-1209
▁ଦର୍ଶ	-1210
▁ସାମ୍	-1211
▁ପ୍ରସଙ୍ଗ	-1212
▁ମଧ	-1213
▁ରିପୋର୍ଟ	-1214
ିଆ	-1215
ଧୀନ	-1216
ଯିବା	-1217
▁କାର୍ଯ୍ୟାନୁଷ୍ଠାନ	-1218
▁ଉଚ୍ଚ	-1219
ଲ୍ୟ	-1220
▁ଲୋକଙ୍କୁ	-1221
ିଅ	-1222
ର୍ମା	-1223
▁କେଉଁ	-1224
ୋହ	-1225
ଷଣ	-1226
▁ଅଞ୍ଚଳରେ	-1227
▁ତୁର	-1228
ର୍ଜ	-1229
▁ସହାୟତା	-1230
ଣ୍ଡା	-1231
ବେଦନ	-1232
▁ପରିବର୍ତ୍ତନ	-1233
▁ଶିକ୍ଷା	-1234
ତାର	-1235
▁ରେଳ	-1236
▁ଜଣାପଡି	-1237
ୈତିକ	-1238
▁ତାକୁ	-1239
▁ସେହିପରି	-1240
▁ବିଷୟରେ	-1241
▁ଶୀ	-1242
ବେେ	-1243
▁ନୀ	-1244
▁ପିଲା	-1245
ବିଧା	-1246
▁ଘଟଣାରେ	-1247
▁ଫାଇ	-1248
▁ଉତ୍ପା	-1249
▁ପରମେଶ୍ବର	-1250
▁ଏକା	-1251
▁ଗାନ୍ଧ	-1252
▁ରାହୁ	-1253
ୃତି	-1254
▁ହେଉଛନ୍ତି	-1255
▁ପ୍ରଶାସନ	-1256
▁ଆମେରି	-1257
ରାଜ	-1258
ପକ	-1259
▁ମାସ	-1260
▁ଦୁର୍ଘଟଣା	-1261
▁ସ୍ପଷ୍ଟ	-1262
▁ରାସ୍ତା	-1263
ଲାଇ	-1264
ଦ୍ୟାଳୟ	-1265
▁ଶିଶୁ	-1266
▁ସମ୍ମାନ	-1267
▁ଲୁ	-1268
▁ବଢ	-1269
▁ଖୁବ୍	-1270
ସରେ	-1271
▁ଉଲ୍	-1272
▁ତୁରନ୍ତ	-1273
▁ହେବେ	-1274
ଲିଉ	-1275
▁କରିବାରେ	-1276
▁ସୋସିଆ	-1277
▁ସଭାପତି	-1278
▁ପ୍ରେ	-1279
ମର	-1280
▁ଗସ୍ତ	-1281
00	-1282
ଚ୍ଛେଦ	-1283
ପ୍ରଦେଶ	-1284
▁ତୁମ୍ଭେ	-1285
▁3	-1286
▁ଆଇନ	-1287
▁ପ୍ରାର୍ଥୀ	-1288
ଡିକାଲ	-1289
▁ବନ୍ଧୁ	-1290
▁କିମ୍ବା	-1291
ଧ୍ୟମରେ	-1292
▁ପ୍ରଦର୍ଶ	-1293
ଯାଉ	-1294
▁ଦାୟ	-1295
▁ସମେତ	-1296
▁ପରିସ୍ଥିତି	-1297
▁ଯୋଗୁଁ	-1298
ିତୀୟ	-1299
ଜଣ	-1300
▁ସୁପ୍ରିମ	-1301
ଶ୍ମୀର	-1302
▁ଦିଗରେ	-1303
▁ମେଡିକାଲ	-1304
▁ସ୍ଥିତି	-1305
ଷ୍ଠିତ	-1306
▁ପକ	-1307
▁ଅଧି	-1308
▁ଝିଅ	-1309
▁କାହିଁ	-1310
▁ରାଜ୍ୟରେ	-1311
ନାର	-1312
ପଟେ	-1313
▁ବିଧାନ	-1314
▁ମହାର	-1315
ସୁ	-1316
▁ଜିତ	-1317
ହୁଁ	-1318
▁ପ୍ରଶ୍ନ	-1319
▁ଧନ	-1320
▁ଆତଙ୍କବାଦୀ	-1321
▁ଦୃଷ୍ଟି	-1322
▁ରାଜ୍ୟର	-1323
▁ସୁଯୋଗ	-1324
▁ସଙ୍ଗ	-1325
ଚି	-1326
▁ରାହୁଲ	-1327
▁ଦୂର	-1328
▁ଅମିତ	-1329
▁ରୋ	-1330
▁ପଡ଼	-1331
▁ନାଗ	-1332
ମତା	-1333
ଏମ	-1334
ିବାର	-1335
▁କେବେ	-1336
▁ପ୍ରତ୍ୟେକ	-1337
▁ଖାଦ୍ୟ	-1338
▁ସୀ	-1339
▁ବଲିଉ	-1340
▁ଗୁଳି	-1341
ରକୁ	-1342
▁ସମସ୍ତେ	-1343
▁ଅଂଶ	-1344
ିତ୍ୱ	-1345
▁ଟିମ୍	-1346
ଫା	-1347
ୋନ	-1348
ଚରା	-1349
ନୈତିକ	-1350
ବାଇ	-1351
ାତ୍ରା	-1352
▁ଚାଲିଛି	-1353
▁ସରକାରୀ	-1354
▁ସମ୍ଭାବ	-1355
▁କମ୍ପ	-1356
୍ୟାସ	-1357
▁କୃଷି	-1358
▁ହାସ	-1359
▁ଆଦି	-1360
ଳନା	-1361
ୁବନ	-1362
ତାରେ	-1363
ରାପ	-1364
▁ବ୍ୟବସାୟ	-1365
▁କାହିଁକି	-1366
ଶତ	-1367
ଠୁ	-1368
ଜ୍ଞାନ	-1369
ଥର	-1370
▁ରଖିଛି	-1371
▁ପୋଲିସ୍	-1372
▁ଟଙ୍କ	-1373
ସ୍ତ୍ର	-1374
ନ୍ତ୍ରଣ	-1375
▁ରାମ	-1376
▁5	-1377
▁ଠାରୁ	-1378
ନ୍ଦର	-1379
▁ଦିବ	-1380
▁ପ୍ରସ୍ତାବ	-1381
▁ଋ	-1382
ଳକୁ	-1383
▁ଫଟୋ	-1384
▁କାହା	-1385
।""	-1386
ରାଇ	-1387
▁ଦଳର	-1388
▁ଲଗ	-1389
▁କେତ	-1390
ଳର	-1391
▁ପଛ	-1392
▁ମିଡିଆରେ	-1393
ାନାରେ	-1394
▁ଅନୁଷ୍ଠିତ	-1395
ସଂ	-1396
ଚ୍ଛା	-1397
▁ଆନ	-1398
▁ଶର	-1399
▁ମନ୍ଦ	-1400
▁ଆବଶ୍ୟକତା	-1401
▁ଭିତରେ	-1402
▁କିଏ	-1403
▁ଭାବରେ	-1404
ଗୁଡ଼ିକୁ	-1405
▁ପୁଅ	-1406
▁ଭୁବନ	-1407
▁ହେବାକୁ	-1408
▁–	-1409
▁ଶବ	-1410
▁ପାର୍	-1411
▁ଦ୍	-1412
▁ନଜର	-1413
ତୀତ	-1414
ରାଲ	-1415
ୁତି	-1416
▁କରୋନା	-1417
ଶ୍ଚିତ	-1418
▁ଏଠାରେ	-1419
ପର୍ଯ୍ୟ	-1420
ୀରେ	-1421
▁ନଥିଲା	-1422
▁ଥର	-1423
▁ପରିଚା	-1424
ବାରା	-1425
▁ଆଗକୁ	-1426
▁ସେନା	-1427
▁ସଫଳତା	-1428
▁ପୁରସ୍କାର	-1429
▁ଗଠନ	-1430
▁ବିବାହ	-1431
ନ୍ଦୁ	-1432
▁ହାସଲ	-1433
ହଁ	-1434
ଗ୍ରୀ	-1435
▁ମତ	-1436
▁ସମର୍ଥ	-1437
▁ପ୍ରବଳ	-1438
▁ଯୋ	-1439
▁ଡ୍ର	-1440
ୋଟି	-1441
▁ବିଷୟ	-1442
▁ପାଳନ	-1443
▁ବାହାର	-1444
▁ଯୋଗାଇ	-1445
ଉଛନ୍ତି	-1446
▁କଣ	-1447
▁ମାଧ୍ୟମରେ	-1448
ଶ୍ୱ	-1449
▁କଲ	-1450
▁ରାୟ	-1451
▁ସ୍ଥା	-1452
▁ଏମିତି	-1453
▁ହସ୍ପିଟାଲରେ	-1454
ଂସା	-1455
▁ଅନୁସାରେ	-1456
▁ପ୍ରକଳ୍ପ	-1457
ାହ	-1458
▁!	-1459
▁ଉଚିତ	-1460
▁ପ୍ରକ୍ର	-1461
ପୃ	-1462
▁ଅଟ	-1463
▁ଶର୍ମା	-1464
▁ଟେ	-1465
ନାହାନ୍ତି	-1466
▁ପ୍ରଥମେ	-1467
▁ସିବି	-1468
▁ସମାଧାନ	-1469
▁ଲକ୍ଷ୍ୟ	-1470
ଲୋକ	-1471
▁ଅଟକ	-1472
େଶ୍ୱର	-1473
▁ଦେଇଛି	-1474
ହାରି	-1475
ତୀ	-1476
▁ଖୁସି	-1477
ବାରେ	-1478
▁ମୂଲ୍ୟ	-1479
ପତ୍ର	-1480
▁କରେ	-1481
▁ପାଖରେ	-1482
▁ଯାତ୍ରୀ	-1483
▁ସମ୍ପୂର୍ଣ୍ଣ	-1484
ଡେ	-1485
ମ୍ବର	-1486
▁ଯୁବକ	-1487
ତମ	-1488
▁ସଂଗ	-1489
▁ମହାରା	-1490
▁ଆଦ	-1491
▁ପ୍	-1492
▁ଟିକ	-1493
▁କାରଣରୁ	-1494
▁ଅବସ୍ଥା	-1495
▁ଆଶା	-1496
ବରେ	-1497
▁ଦେବାକୁ	-1498
କ୍ରାନ୍ତ	-1499
ନ୍ମ	-1500
▁ମଧ୍ଯ	-1501
▁ସାହା	-1502
▁କ୍ରିକ	-1503
ରାମର୍ଶ	-1504
▁ବନ	-1505
ଲେଖ	-1506
ଟିଂ	-1507
▁ଭୟ	-1508
ାନ୍ତର	-1509
▁ଉପଲ	-1510
▁କଟକ	-1511
▁ହସ୍ତ	-1512
▁ସମ୍ଭାବନା	-1513
▁ପରାମର୍ଶ	-1514
▁ମାମଲାରେ	-1515
▁ମହାରାଷ୍ଟ୍ର	-1516
।"	-1517
ରାଟ	-1518
▁ନାଗରିକ	-1519
େହ	-1520
▁ଗୁରୁତ୍ୱପୂର୍ଣ୍ଣ	-1521
ଣ୍ଡି	-1522
ଗଡ଼	-1523
ଶ୍ଚିମ	-1524
ମ୍ମୁ	-1525
▁ଅଗ୍	-1526
▁ଶ୍ରେ	-1527
▁ସୋସିଆଲ	-1528
▁ଟ୍ରେ	-1529
▁ସ୍କୁଲ	-1530
ୁଦ୍ର	-1531
▁ସ୍ବା	-1532
▁ସନ୍ଦ	-1533
▁ବିଧାୟକ	-1534
▁ବଦ	-1535
▁ରଖ	-1536
▁ଯୋଗା	-1537
▁ଘରେ	-1538
▁ସମ୍ମି	-1539
▁କଲା	-1540
▁ଅଗ୍ନି	-1541
ନ୍ସ	-1542
ସଭ	-1543
▁କ୍ଷତି	-1544
ମତି	-1545
▁ଅସୁ	-1546
ଯାୟୀ	-1547
▁ସମାଜ	-1548
ଘା	-1549
ଷ୍ଟ୍ରୀୟ	-1550
▁ନେତ	-1551
▁ଥାନାରେ	-1552
▁ସୁପ୍ରିମକୋର୍ଟ	-1553
ଏସ୍	-1554
▁ଓଡ଼ିଶା	-1555
ିଣ	-1556
▁କରାଯାଇଥିବା	-1557
▁୫	-1558
▁ଉଦ୍	-1559
▁ପ୍ରଦେଶ	-1560
▁କମ	-1561
ନିକ	-1562
-1	-1563
▁ସୁବିଧା	-1564
ାଜିକ	-1565
▁ହେବାର	-1566
ବିନ	-1567
▁ଫିଲ୍ମରେ	-1568
ଣ୍ଡର	-1569
▁ଉଦ	-1570
▁ଉଦ୍ୟମ	-1571
ଗି	-1572
▁ପୀ	-1573
▁ଚାହୁଁ	-1574
ଶମ	-1575
▁କଳା	-1576
▁ଜଣାପଡ଼ିଛି	-1577
▁ପ୍ରୟାସ	-1578
ନାଲ	-1579
ଣାରେ	-1580
▁ହ୍ର	-1581
ୋଳନ	-1582
▁ସାମାଜିକ	-1583
▁୩	-1584
ଥିଲି	-1585
▁ପୁନ	-1586
▁ଧର୍ମ	-1587
▁ନାହାନ୍ତି	-1588
▁ଚନ୍ଦ୍ର	-1589
▁ଭେ	-1590
▁ମୁକ	-1591
କାଳ	-1592
▁ମିଶ	-1593
ଡର	-1594
▁କରନ୍ତି	-1595
▁ଫେରି	-1596
▁କମିଟି	-1597
▁ଆମେରିକା	-1598
▁ଆବେଦନ	-1599
▁ଡାକ୍ତରଖାନାରେ	-1600
▁କାର୍ଯ୍ୟକ୍ରମରେ	-1601
ସ୍ୱ	-1602
▁ନୀତି	-1603
▁ମନ୍ଦିର	-1604
ଲିକ	-1605
▁ରୂପ	-1606
▁ହୋଇଯାଇଛି	-1607
▁ସମ୍ମୁଖ	-1608
▁ଦକ୍ଷିଣ	-1609
▁ଚଳା	-1610
ୋଧନ	-1611
▁ପରୀକ୍ଷା	-1612
ଦୁ	-1613
▁ଶରୀର	-1614
ଏଲ	-1615
▁ବ୍ୟବଚ୍ଛେଦ	-1616
▁ଅର୍	-1617
ାନ୍ତୁ	-1618
କୃତ	-1619
ଗୁଡିକ	-1620
▁ବିରୋଧୀ	-1621
▁ସୁଦ୍ଧା	-1622
▁ଟଙ୍କାର	-1623
▁ପ୍ରତିଶତ	-1624
▁ବ୍ର	-1625
ଦ୍ୱାରା	-1626
▁ବିବାଦ	-1627
▁ଖୋ	-1628
▁ଆନ୍ଦ	-1629
▁ଚଳାଇ	-1630
▁କେତେକ	-1631
▁ପଶ୍ଚିମ	-1632
▁ରହିଛନ୍ତି	-1633
▁ତଥ	-1634
▁ଶାନ୍ତି	-1635
ସାରି	-1636
▁କରିଥାଏ	-1637
▁ସୌ	-1638
▁ଦ୍ୱିତୀୟ	-1639
ଳୟରେ	-1640
▁ଚର୍ଚ୍ଚ	-1641
।"""	-1642
ସିକ	-1643
ଡୁ	-1644
▁ଶୀଘ୍ର	-1645
▁ସିବିଆଇ	-1646
ସିଂ	-1647
ଗ୍ରହ	-1648
ଭୂମି	-1649
▁ଆତ୍ମହତ	-1650
ପଦ	-1651
▁ଅଶ	-1652
▁ଉଲ୍ଲେଖ	-1653
ନିଆ	-1654
▁[	-1655
▁ପ୍ରତିରକ୍ଷା	-1656
▁ସମଗ୍ର	-1657
▁ଥାନା	-1658
▁ଯାହାକୁ	-1659
▁ରହିଥିବା	-1660
▁ଦେଲେ	-1661
▁ଏହାସହ	-1662
୍ତ୍ତା	-1663
▁ମିଶ୍ର	-1664
▁ପର୍ଯ୍ୟା	-1665
▁ଉପଲବ୍	-1666
ହିନୀ	-1667
▁ହାଇକୋର୍ଟ	-1668
▁ଜାଣ	-1669
▁ଭିନ୍ନ	-1670
▁ବଡ	-1671
ପଣ	-1672
▁କର୍	-1673
▁ମଧ୍ୟରୁ	-1674
▁ଆଶ	-1675
▁ମୋତେ	-1676
▁ଗାନ୍ଧୀ	-1677
▁ଭବି	-1678
▁ଅଭିନୟ	-1679
ଗ୍ନ	-1680
▁ଅନୁଯାୟୀ	-1681
▁ଦ୍ବାରା	-1682
କରି	-1683
▁ଅଭିନେତା	-1684
▁ପ୍ରଦର୍ଶନ	-1685
ମୀ	-1686
▁4	-1687
ଧ୍ୟାନ	-1688
▁ସନ୍ତ	-1689
▁ଲେଖି	-1690
▁ପ୍ରାୟ	-1691
▁ସାଂସଦ	-1692
▁ପୃ	-1693
▁ଦ୍ର	-1694
▁ପେଟ	-1695
ତିକ୍ର	-1696
▁ସାଇ	-1697
ରିଆରେ	-1698
ଲିଆ	-1699
▁କ୍ୟାବିନ	-1700
▁ବାପା	-1701
ହ୍ନ	-1702
ହାଁ	-1703
ିବାରେ	-1704
▁ଚିନ୍ତା	-1705
▁ଭିତ୍ତି	-1706
▁ସ୍ମ	-1707
ପ୍ରା	-1708
▁କପୁର	-1709
▁ତଥ୍ୟ	-1710
ଙ୍ଗା	-1711
ଷ୍ଠା	-1712
...]	-1713
▁[...]	-1714
▁ଖଣ୍ଡ	-1715
▁ପୁରୁ	-1716
▁ଉଦ୍ଦେଶ	-1717
▁ମ୍ୟାଚ୍	-1718
▁ବୋ	-1719
▁ଦାୟିତ୍ୱ	-1720
▁ଜ୍	-1721
▁ସମ୍ମିଳ	-1722
ଘାତ	-1723
▁ଆହ	-1724
▁ପ୍ରୋ	-1725
▁ଆସୁ	-1726
େଜ	-1727
ଥାନ୍ତି	-1728
▁ଅପରା	-1729
▁ରଣ	-1730
ଜ୍ୟ	-1731
▁ପ୍ରକ୍ରିୟା	-1732
▁ଜନ୍ମ	-1733
ଲକ	-1734
▁ଆମକୁ	-1735
▁କେତେ	-1736
ଚନ	-1737
ଯାନ	-1738
▁ହୁଏ	-1739
▁ଜରିଆରେ	-1740
ପାତ	-1741
ପୃକ୍ତ	-1742
▁ହ୍ରାସ	-1743
ଲୀ	-1744
▁କରିପାରିବେ	-1745
▁ଅଟେ	-1746
ବର୍ତ୍ତୀ	-1747
▁ସଂପର୍କରେ	-1748
ାନ୍ସ	-1749
▁ସବୁଠାରୁ	-1750
▁ବିଚାରପତି	-1751
▁ଜିତି	-1752
ଟରେ	-1753
େତ୍ରୀ	-1754
▁ଚାଷୀ	-1755
▁ଶୁଣି	-1756
ାରମ୍ଭ	-1757
▁ଜୟ	-1758
▁ନଥିଲେ	-1759
ମ୍ମ	-1760
ମିକା	-1761
▁ସମ୍ବନ୍ଧ	-1762
▁ଶିବ	-1763
ୁଟି	-1764
▁ଦେବ	-1765
▁ନ୍ୟା	-1766
▁ରଖା	-1767
▁ପାଇଛି	-1768
▁କମ୍	-1769
▁ସଂସଦ	-1770
▁କହୁ	-1771
▁ଜଣାଇଛନ୍ତି	-1772
▁ପକାଇ	-1773
▁ବଜାର	-1774
▁କରାଇ	-1775
ାର୍ଜ	-1776
ସେନା	-1777
ନ୍ଦନ	-1778
▁ଆତ୍ମହତ୍ୟା	-1779
▁ରାଷ୍ଟ୍ରୀୟ	-1780
▁ଖେଳା	-1781
▁ଦରକାର	-1782
▁ବ୍ୟାପକ	-1783
▁ପରିଚାଳନା	-1784
▁ଅଗ୍ନିଶମ	-1785
▁ସମ୍ମିଳନୀ	-1786
▁ଜ୍ଞ	-1787
ଣ୍ଣା	-1788
▁ଆଗାମୀ	-1789
▁ଜଣାପଡିଛି	-1790
▁କନ	-1791
▁ନିର	-1792
▁ସାମଗ୍ରୀ	-1793
ଣ୍ଟି	-1794
▁ଭୁ	-1795
ସ୍କୃତ	-1796
▁ପେ	-1797
ତିହା	-1798
▁ଲାଗୁ	-1799
ଚୟ	-1800
କ୍ଟର	-1801
▁ଦୁଃ	-1802
ୋପ	-1803
ଜୀବ	-1804
▁ଏସ୍	-1805
▁ଭୁବନେଶ୍ୱର	-1806
▁ହୋଇନାହିଁ	-1807
▁ଘରୋଇ	-1808
୍ୱି	-1809
ତ୍ନୀ	-1810
▁ଆସିଛି	-1811
▁ବିହାର	-1812
▁ଓଡ଼ିଶ	-1813
▁ଉପଲବ୍ଧ	-1814
ଭବ	-1815
▁ସେମାନଙ୍କର	-1816
▁ଭୂମିକ	-1817
▁ସଂକ	-1818
▁ରାଜା	-1819
▁ଯାଇଥିଲା	-1820
▁ସମର୍ଥନ	-1821
▁ଆନ୍ଦୋଳନ	-1822
▁ବିଜେପିର	-1823
ସବୁ	-1824
ଷ୍ୟ	-1825
▁ଅଗ୍ର	-1826
▁ସ୍ଥଳରେ	-1827
▁କାର୍ଯ୍ୟକାରୀ	-1828
ଇେ	-1829
ରାଷ୍ଟ୍ର	-1830
ନ୍ଦା	-1831
▁ସ୍ୱତନ୍ତ୍ର	-1832
୍ୟ୍ଯ	-1833
▁ବସି	-1834
ିନେ	-1835
▁ସନ୍	-1836
▁ଅଫି	-1837
▁ଚଳାଚଳ	-1838
ମକ	-1839
▁୧୦	-1840
▁ରହୁ	-1841
▁ନିୟନ୍ତ୍ରଣ	-1842
me	-1843
▁ହାଇେ	-1844
▁ଅଭିନେତ୍ରୀ	-1845
▁ଓଡି	-1846
▁ବ୍ୟୟ	-1847
ହ୍	-1848
▁ସଂଘ	-1849
▁ବିଶ୍ୱାସ	-1850
ଙ୍ଗି	-1851
▁ପବ	-1852
ର୍ଘ	-1853
▁ତାର	-1854
▁ପ୍ରତିଯୋଗ	-1855
▁ରକ୍ଷା	-1856
▁ଅନ୍ତର୍	-1857
▁ସ୍ଵ	-1858
▁ଡ୍ରାଇ	-1859
▁ଶହ	-1860
ଣ୍ଡରେ	-1861
▁କମିଶ	-1862
ବୋ	-1863
▁ଗଭ	-1864
▁ଉଦ୍ଦେଶ୍ୟ	-1865
▁କହିଛି	-1866
▁ବିକ	-1867
▁କୃଷକ	-1868
▁ପ୍ରବେଶ	-1869
▁ସେଥିପାଇଁ	-1870
▁ସହର	-1871
▁ପତ୍ର	-1872
▁ମିଳିତ	-1873
କ୍ସ	-1874
▁ମୁକାବି	-1875
▁ସମସ୍ତଙ୍କୁ	-1876
▁ଇଂ	-1877
▁ଲାଇ	-1878
▁ଇସ୍ତ	-1879
ପକ୍ଷରେ	-1880
▁ପତ୍ନୀ	-1881
▁ପୋଷ୍ଟ	-1882
ଥୀ	-1883
▁ବିଦ	-1884
ଉଥିବା	-1885
ଂସ	-1886
▁ବୟ	-1887
▁ପୁତ୍ର	-1888
ଦର	-1889
ଅଛି	-1890
ଦ୍ରା	-1891
▁ଭାଇରାଲ	-1892
ୃତୀୟ	-1893
▁ରାଜନୈତିକ	-1894
▁ସହାୟକ	-1895
▁ନେତୃତ	-1896
▁ବ୍ୟତୀତ	-1897
ନେ	-1898
ାର୍ଗ	-1899
▁ଦୋଷ	-1900
▁ଗାନ୍ଧି	-1901
ୂଳ	-1902
କ୍କ	-1903
ଣ୍ଟର	-1904
େଷ୍ଟା	-1905
ପେ	-1906
ର୍ଦ୍ଧ	-1907
▁ଔ	-1908
▁ଚେ	-1909
▁ନିଯୁକ୍ତି	-1910
▁ଯେତେବେଳେ	-1911
▁ଆକ	-1912
ମୟ	-1913
▁ଶାହ	-1914
▁ତୃତୀୟ	-1915
▁ନାଁ	-1916
▁ଦୀର୍ଘ	-1917
▁ହରାଇ	-1918
ପୀ	-1919
▁ଦୁଃଖ	-1920
ତର୍କ	-1921
▁ଯାଇଛି	-1922
▁ଅଧିକାର	-1923
ଉଣୀ	-1924
▁ଦେବେ	-1925
▁ଖାନ୍	-1926
▁ଭୂମିକା	-1927
▁ପୂରଣ	-1928
▁ସେଥିରେ	-1929
▁ତାହାର	-1930
ଯାଇଥିବା	-1931
▁ଉତ୍ପାଦନ	-1932
ପର୍ଯ୍ୟନ୍ତ	-1933
▁ଆଫ	-1934
▁ଅତ୍ୟ	-1935
ବିନ୍ଦ	-1936
ୋନ୍	-1937
▁ତୁମ୍ଭମାନେେ	-1938
▁%	-1939
▁ଠିକ୍	-1940
▁ଲୋକମାନଙ୍କୁ	-1941
▁ହା	-1942
ାର୍ଟ	-1943
▁ଫା	-1944
▁ଆସନ	-1945
ରିବ	-1946
▁ଯାହାକି	-1947
▁ଜିଲ୍ଲାରେ	-1948
▁ବିଦେଶ	-1949
▁୪	-1950
▁ଟ୍ୱି	-1951
▁ରହିଥିଲା	-1952
▁ଅନୁର	-1953
▁ବୁଝାମ	-1954
▁ବିଭାଗର	-1955
▁ପଞ୍ଜ	-1956
▁ସ୍ତ୍ରୀ	-1957
▁ସାହାଯ୍ୟ	-1958
▁ମାରି	-1959
▁ପରିଚୟ	-1960
▁ପ୍ରମାଣ	-1961
▁ବ୍	-1962
▁ଜମି	-1963
ବସ୍ଥା	-1964
ମନ	-1965
ପାରୁ	-1966
ତ୍ସା	-1967
▁ବାଣି	-1968
▁ଉକ୍ତ	-1969
▁ମାନେ	-1970
▁ଜରୁ	-1971
▁ଡେ	-1972
▁ପାଠ	-1973
▁ପରିମାଣ	-1974
ସିସି	-1975
ାୟେଲ	-1976
▁ଚାରି	-1977
▁ରାଜସ୍ଥାନ	-1978
ସନ୍	-1979
▁ପରିବେଶ	-1980
▁କ୍ୟାବିନେଟ	-1981
▁ଫି	-1982
ସ୍ତର	-1983
▁ବିଧାନସଭା	-1984
▁ଆମ୍ଭେ	-1985
▁ଅଭିଯାନ	-1986
▁ମାମଲାର	-1987
▁କ୍ଷମତା	-1988
▁ଉଦ୍ୟୋଗ	-1989
▁ଢ	-1990
ଶ୍ରାୟେଲ	-1991
▁ଅଧ୍ୟକ୍ଷତାରେ	-1992
▁ମହିଳାଙ୍କ	-1993
ସାଧାରଣ	-1994
▁ଆନନ୍ଦ	-1995
▁ଜଷ୍ଟି	-1996
▁ଦିବସ	-1997
▁ପେଟ୍ର	-1998
▁ମାରେ	-1999
▁ଘଟଣାକୁ	-2000
▁ବାଣିଜ୍ୟ	-2001
▁ପଡ଼ିବ	-2002
▁ଆପଣଙ୍କୁ	-2003
▁ମୁକାବିଲା	-2004
ଧୁ	-2005
▁ଯେଉଁଥି	-2006
ସୀ	-2007
ଗୋ	-2008
▁ଶାସନ	-2009
▁ଏତେ	-2010
▁ଜବା	-2011
▁ସାକ୍ଷ	-2012
▁ସନ୍ଦେହ	-2013
▁ଗାଡି	-2014
▁ନିବେଶ	-2015
▁ଆୟୋଜନ	-2016
▁ଙ୍କ	-2017
▁ସରକାରଙ୍କୁ	-2018
▁ସିନେ	-2019
▁ଟ୍ରମ୍ପ	-2020
▁ଘଟିଥିଲା	-2021
▁ବେଶ	-2022
▁ହୃ	-2023
ଳିକା	-2024
▁କରୁଥିଲେ	-2025
▁ସୁସ୍ଥ	-2026
▁ଗୋଷ୍ଠ	-2027
ଢ଼ି	-2028
▁ଚିହ୍ନ	-2029
▁ଇସ୍ତଫା	-2030
▁ନିୟମ	-2031
▁ବାହିନୀ	-2032
▁ପ୍ରତିନି	-2033
in	-2034
▁ନାବା	-2035
▁ଗର୍	-2036
▁କ୍ରୀ	-2037
▁ପ୍ରଶଂସା	-2038
▁ଶୋକ	-2039
▁ଦୂ	-2040
▁ବିନି	-2041
▁କରାଯିବା	-2042
ବିଦ୍ୟାଳୟ	-2043
ଳିକ	-2044
୍ୟାନ	-2045
ବୀର	-2046
ହନ୍ତି	-2047
▁ଦିଅନ୍ତୁ	-2048
▁ଅଲ	-2049
▁ସଂସ୍ଥା	-2050
▁ଦାସ	-2051
▁ବାଇ	-2052
▁ସାବ	-2053
▁ରକ୍ତ	-2054
20	-2055
▁କରିଦେଇ	-2056
▁ହେଉଥିବା	-2057
ରକ୍ଷିତ	-2058
ାଗତ	-2059
ତ୍ତା	-2060
▁ବ୍ଯ	-2061
▁ପ୍ରତିକ୍ର	-2062
▁ଏପର୍ଯ୍ୟନ୍ତ	-2063
▁ବ୍ୟାପାର	-2064
▁ଗାଡ଼ି	-2065
▁"""	-2066
▁ଇଶ୍ରାୟେଲ	-2067
▁ଭବିଷ୍ୟ	-2068
ୀଶୁ	-2069
▁କିପରି	-2070
▁ଲେଖା	-2071
▁ମାଲ	-2072
▁ସୈ	-2073
▁ପ୍ରକୃତ	-2074
▁ପରିବ	-2075
ତିକି	-2076
▁ଯାତ୍ରା	-2077
▁ଫଳ	-2078
▁ଫିଲ୍ମର	-2079
▁ସେତେବେଳେ	-2080
▁ଦୁର୍ଘଟଣାରେ	-2081
▁ବଢ଼ି	-2082
▁ବୁଝାମଣା	-2083
▁ନିଜକୁ	-2084
▁ବିଶ୍ୱର	-2085
ର୍ସ	-2086
▁ଘରକୁ	-2087
▁ତୁମ୍ଭର	-2088
ଟ୍ର	-2089
▁ତର	-2090
▁ଜଣଙ୍କ	-2091
▁ଋଣ	-2092
ାଇବାକୁ	-2093
▁ଲୋକସଭା	-2094
▁ଚୁ	-2095
ନାରେ	-2096
▁ପ୍ରୋତ୍ସା	-2097
▁ଚୀନ	-2098
▁ଭାରତକୁ	-2099
▁ବାବ	-2100
▁ମାଗ	-2101
▁ହବେ	-2102
▁ଅନୁମତି	-2103
▁ସମାନ	-2104
ଏଫ	-2105
ୟର	-2106
▁7	-2107
▁ତାରି	-2108
ପାତ୍ର	-2109
▁ଶ୍ରଦ୍ଧା	-2110
ଟିକୁ	-2111
▁ଭୂମିକାରେ	-2112
▁କୋଭି	-2113
▁ଗବେ	-2114
▁ପ୍ରସ୍ତୁତି	-2115
▁ବସ	-2116
▁ପ୍ରଭାବିତ	-2117
▁ଯେଉଁମାନେ	-2118
ଳିତ	-2119
▁'	-2120
▁ଏମ	-2121
▁ଅପେ	-2122
ପ୍ରତି	-2123
▁ସଂସ୍କ	-2124
ଖର	-2125
ଷ୍କର୍ମ	-2126
▁ଡ୍ରାଇଭର	-2127
▁ପଚରା	-2128
▁କର୍ତ୍ତ	-2129
▁ଡାକ୍ତରଖାନା	-2130
▁ବିଜ୍ଞାନ	-2131
▁6	-2132
▁ଯାଞ୍ଚ	-2133
▁ପ୍ରତିକ୍ରିୟା	-2134
▁ଅକ୍ଷ	-2135
ଚ୍ଚିତ୍ର	-2136
▁କ୍ରିକେଟ	-2137
▁ଅନ୍ୟାନ	-2138
ଷ୍ଟ୍ରେ	-2139
▁ସତ	-2140
▁ବିଦ୍ୟୁ	-2141
▁ସୁନ୍ଦର	-2142
▁କେମିତି	-2143
ନାକୁ	-2144
ସଭାରେ	-2145
▁ଚେଷ୍ଟା	-2146
▁କଲେଜ	-2147
ଦରେ	-2148
ଦୀପ	-2149
▁ପ୍ରିୟ	-2150
୍ୟାଣ	-2151
▁ଚଳଚ୍ଚିତ୍ର	-2152
▁ଗଭୀର	-2153
▁କଂଗ୍ରେସର	-2154
▁ଖର୍ଚ୍ଚ	-2155
▁ଉତ୍ତେଜ	-2156
▁ଧନ୍ୟ	-2157
▁ଛାଡ଼ି	-2158
▁ଶିଳ୍ପ	-2159
▁ଭାଷ	-2160
▁ସତର୍କ	-2161
ବନ୍ଧ	-2162
▁ହୋଇପାରେ	-2163
ଦ୍ଦ	-2164
▁ବାୟୁ	-2165
▁ଛୋଟ	-2166
▁ସ୍ୱଚ୍ଛ	-2167
ଏନ	-2168
▁ଉଚ	-2169
▁ଅଫ୍	-2170
▁ଅନ୍ୟାନ୍ୟ	-2171
▁କାର୍ଯ୍ୟା	-2172
ଦବ	-2173
▁କମ୍ପାନୀ	-2174
▁ପହଂଚ	-2175
ଶୀଳ	-2176
▁ଚଳିତ	-2177
▁ଅଗ୍ନ	-2178
▁ଜାତି	-2179
▁ବେଶ୍	-2180
▁ମାନବ	-2181
ଦୃ	-2182
▁ଫୁ	-2183
ରିତ	-2184
▁ହାର	-2185
▁ତାରିଖ	-2186
▁ଏସବୁ	-2187
▁ଗରିବ	-2188
▁ସାରି	-2189
▁ଆୟୋଜିତ	-2190
▁ରହିବା	-2191
ପ୍ତି	-2192
କାଲି	-2193
▁ଭୋ	-2194
▁ମୋଦୀଙ୍କ	-2195
),	-2196
▁ମୋବାଇ	-2197
ନଥିଲେ	-2198
▁ସଂଯୋଗ	-2199
େନ୍ଦ୍ର	-2200
▁ରାଜ୍ୟପାଳ	-2201
▁ଗୁଜ	-2202
▁ସହଜ	-2203
▁ପାଇବା	-2204
▁କାଶ୍ମୀର	-2205
ପିତ	-2206
▁ଅନୁଭବ	-2207
▁ଟୁ	-2208
▁ବାତ	-2209
ଏମ୍	-2210
▁ପାରିବ	-2211
▁-	-2212
▁କୁହାଯାଇଛି	-2213
ପାରନ୍ତି	-2214
▁ଯେପରି	-2215
▁ଅଗ୍ନିକା	-2216
▁ନିଶ୍ଚିତ	-2217
▁ରଖିବା	-2218
▁ଧନ୍ୟବାଦ	-2219
▁ଗଣମା	-2220
▁ପ୍ରସଙ୍ଗରେ	-2221
▁ଅତିଥି	-2222
▁ପରିଷ	-2223
▁ଜିଲ୍ଲାର	-2224
▁ପ୍ରଯୁକ୍ତି	-2225
▁ସ୍ଥିର	-2226
▁ତେଲ	-2227
▁ସକାଶ	-2228
▁ଧ୍ୟାନ	-2229
▁କଲ୍ୟାଣ	-2230
▁ଲୋକମାନଙ୍କ	-2231
▁ନିର୍ଦ୍ଦେଶକ	-2232
ବଙ୍ଗ	-2233
▁ସପ୍ତ	-2234
▁ଦିଆଯିବ	-2235
▁ଭଉଣୀ	-2236
▁ସମାନଙ୍କେୁ	-2237
ନଥିଲା	-2238
▁ଶୁଭେ	-2239
▁ଉତ୍ତେଜନା	-2240
▁ଅତ୍ୟନ୍ତ	-2241
▁ସମସ୍ତଙ୍କ	-2242
▁ଯାଇଥିଲେ	-2243
▁ଇନ	-2244
ଳରୁ	-2245
▁ରିଲି	-2246
▁ମୁଖ	-2247
▁ପୁରୀ	-2248
▁ହୋଇପାରି	-2249
▁ଅଷ୍ଟ୍ରେ	-2250
ସନ୍ଦ	-2251
ଳାଇ	-2252
▁ସମସ୍ୟ	-2253
▁ମିଳିଥିଲା	-2254
▁ନିଜେ	-2255
▁ଅଧୀନ	-2256
▁ଜାଣିବା	-2257
▁ପାର୍ଟି	-2258
▁ପୂରା	-2259
▁ଆସିବା	-2260
▁ନେବା	-2261
▁ଅପରାଧ	-2262
▁ଗତି	-2263
▁ନେତୃତ୍ୱ	-2264
▁ସକାଶେ	-2265
ୋଭ	-2266
ୱା	-2267
▁ବୃ	-2268
▁ଶୁଣା	-2269
ୟମ	-2270
▁ସ୍ୱାମୀ	-2271
▁ଡିଜି	-2272
▁ସଙ୍କ	-2273
▁ଶ୍ରମିକ	-2274
▁ହୋଇଯାଇଥିଲା	-2275
▁ଭେଟି	-2276
▁ରଖିଛନ୍ତି	-2277
▁ନଗର	-2278
▁ପଛରେ	-2279
▁ଭାଙ୍ଗି	-2280
କାଉ	-2281
▁ନେଇଥିଲେ	-2282
▁ଯାଜ	-2283
ଦକ	-2284
▁ଉଚିତ୍	-2285
▁ଫେର	-2286
▁ପରିବହନ	-2287
ପୋ	-2288
▁ଜମ୍ମୁ	-2289
▁ବିଦ୍ୟାଳୟ	-2290
ନିର୍	-2291
ଏଁ	-2292
▁ଦୃଢ଼	-2293
▁ଅନୁରୋଧ	-2294
▁ପ୍ରତିଷ୍ଠା	-2295
▁କଡ଼ା	-2296
ମ୍ମଦ	-2297
▁ସୀମା	-2298
▁ମେଡିକାଲରେ	-2299
▁ପାଲ	-2300
▁ଗବେଷ	-2301
▁ସମ୍ଭବ	-2302
▁ମଣି	-2303
▁ଆନ୍ତ	-2304
▁ଶିକ୍ଷକ	-2305
▁ବଜେ	-2306
▁ବସ୍	-2307
▁ମୃତକଙ୍କ	-2308
▁ଏନ୍	-2309
▁ସ୍ଥାପନ	-2310
▁ଜୋର	-2311
▁ହରି	-2312
ସାଦ	-2313
ଥିବ	-2314
୍ୱାନ	-2315
ାର୍ଯ୍ୟ	-2316
▁ଐ	-2317
▁ରଙ୍ଗ	-2318
▁ଟେଷ୍ଟ	-2319
▁ଯାଉଛି	-2320
▁ବଜ	-2321
▁ଯବାନ	-2322
▁ଅପେକ୍ଷା	-2323
ତାକୁ	-2324
ଓ୍ଵ	-2325
▁ସଂଗଠନ	-2326
▁ସଂଶ	-2327
ରିକ୍ତ	-2328
▁ତଥାପି	-2329
▁ସ୍ୱାଧୀନ	-2330
ାଂଶ	-2331
ଥମିକ	-2332
▁ସମୁଦ୍ର	-2333
▁ମୋଦିଙ୍କ	-2334
ବର୍ଗ	-2335
▁ଭବିଷ୍ୟତ	-2336
▁ସତ୍ୟ	-2337
ସିଟି	-2338
▁ବାହାରି	-2339
▁ପାଇବେ	-2340
▁ଉନ୍ନତି	-2341
ଞ୍ଜନ	-2342
▁ଏହାଦ୍ୱାରା	-2343
▁ପ୍ରାଥମିକ	-2344
ମଣ	-2345
ଭେ	-2346
▁ୟି	-2347
ମେଣ୍ଟ	-2348
▁କରାଯାଉ	-2349
▁ମଞ୍ଜ	-2350
ଳୁ	-2351
େତନ	-2352
▁ବିନା	-2353
▁ଉତ୍ତମ	-2354
▁ସନ୍ତାନ	-2355
▁ହୋଇପାରିବ	-2356
ବାଧିକ	-2357
▁ଜରୁରୀ	-2358
▁ପଞ୍ଚ	-2359
▁ପ୍ରତିନିଧି	-2360
▁ସାଥୀ	-2361
▁ପରା	-2362
▁ରହିବେ	-2363
▁ଅତିରିକ୍ତ	-2364
ଷଧ	-2365
ଙ୍ଖ	-2366
▁ଯୀଶୁ	-2367
ଯୋଗ୍ୟ	-2368
କର୍	-2369
ନ୍ଯ	-2370
▁ଏମ୍	-2371
▁ସୁଖ	-2372
▁ଶପଥ	-2373
୍ୟ୍ୟ	-2374
ବଦ୍ଧ	-2375
▁ହିନ୍ଦୁ	-2376
▁ହୋ	-2377
▁ନିର୍ବାଚନରେ	-2378
ୁଆ	-2379
ପନ୍ନ	-2380
▁ଗୌ	-2381
▁କର୍ମୀ	-2382
ଡରେ	-2383
▁ଏପରିକି	-2384
ିଷ୍ଟ	-2385
▁ଜନସାଧାରଣ	-2386
ଛା	-2387
ଲର	-2388
▁ଯାଦବ	-2389
▁ଅଂଚ	-2390
▁ଖାନ	-2391
▁ନିର୍ମ	-2392
▁ଅହ	-2393
କକ୍ସ୍ଟ	-2394
ରମ	-2395
▁ଅଭିନନ୍ଦନ	-2396
▁ନ୍ୟୁ	-2397
ୂଳକ	-2398
▁ଅପରେ	-2399
▁ଜଗତ	-2400
ଶାନ୍ତ	-2401
▁ଯାହାର	-2402
କ୍ଷଣ	-2403
▁ପ୍ରାଣ	-2404
▁ସଂଖ୍ୟ	-2405
▁ଶୁଭେଚ୍ଛା	-2406
ର୍ଜାତୀୟ	-2407
େର	-2408
▁ବଳ	-2409
▁ଔଷଧ	-2410
ଲରେ	-2411
▁ଜନତା	-2412
▁ଦିନକୁ	-2413
▁ସେପଟେ	-2414
▁ଉଠାଇ	-2415
ଗୁଡ଼ିକର	-2416
▁ସଂପୂର୍ଣ୍ଣ	-2417
▁ଆହ୍ୱାନ	-2418
▁ପ୍ରଚାର	-2419
▁ପଶ୍ଚିମବଙ୍ଗ	-2420
▁ନଦୀ	-2421
▁ସମ୍ମୁଖୀନ	-2422
▁ଜ୍ଞାନ	-2423
▁ଯଥା	-2424
▁ଖେଳି	-2425
▁ନେଇଛନ୍ତି	-2426
▁ଅମ	-2427
▁ଅଧିନାୟକ	-2428
▁ଜଣକ	-2429
▁ହୃଦ	-2430
▁ଆଧାରରେ	-2431
ିକାର	-2432
▁ଦୁଷ୍କର୍ମ	-2433
▁ଥାଏ	-2434
▁ଉପଯୋଗ	-2435
▁ଟା	-2436
▁ହୋଇପ	-2437
ପାନ	-2438
▁କୋହ	-2439
ଖଣ୍ଡ	-2440
▁ଚର୍ଚ୍ଚା	-2441
ଗତି	-2442
କର୍ମ	-2443
▁ଆଶଙ୍କା	-2444
▁ଦ୍ରୁତ	-2445
▁ଅନ୍ତର୍ଗତ	-2446
▁ପରବର୍ତ୍ତୀ	-2447
▁ସୁଦୃ	-2448
▁ଗୋଷ୍ଠୀ	-2449
େତେ	-2450
ଧିକାରୀ	-2451
▁ସଭ	-2452
▁ଜାମ	-2453
er	-2454
▁ସ୍ୱାଗତ	-2455
▁ଶ୍ରେଷ୍ଠ	-2456
ଡ଼ିତ	-2457
ସ୍କୃତିକ	-2458
▁ପୁରୁଷ	-2459
▁ଯୁଦ୍ଧ	-2460
ାତ୍ମ	-2461
▁ଅରୁ	-2462
▁ତିଆ	-2463
ାର୍କ	-2464
▁ପସନ୍ଦ	-2465
କରେ	-2466
▁ଜବାବ	-2467
▁ତାମି	-2468
▁ସବୁଠୁ	-2469
▁ଭିତ୍ତିଭୂମି	-2470
କ୍ଷମ	-2471
ଜ୍ଞା	-2472
▁ତ୍ର	-2473
ରୁଦ୍ଧ	-2474
▁ସାକ୍ଷାତ	-2475
ଥରେ	-2476
▁ଏୟାର	-2477
ବର୍ଷ	-2478
▁ପଣ୍ଡା	-2479
▁ଆଶ୍ଚ	-2480
▁ମ୍ୟାଚ	-2481
▁ବିସ୍	-2482
ରାଦ	-2483
ସ୍ପର	-2484
ିବାକୁ	-2485
ଗ୍ରହଣ	-2486
ଖଲ	-2487
ହରଣ	-2488
▁ତିଆରି	-2489
▁ଖେଳାଳି	-2490
▁ଖୋଲି	-2491
▁କେନ୍ଦ	-2492
▁ଗବେଷଣା	-2493
▁ପାକିସ୍ତାନର	-2494
▁ଜୀବନରେ	-2495
▁ସୁରକ୍ଷିତ	-2496
▁ମଧ୍ୟପ୍ରଦେଶ	-2497
▁ଅଧୀନରେ	-2498
▁ଅଷ୍ଟ୍ରେଲିଆ	-2499
ିତ୍ୟ	-2500
▁ପରସ୍ପର	-2501
▁ସ୍ଥାନାନ୍ତର	-2502
ଉନ	-2503
▁ଥରେ	-2504
ମକୁ	-2505
ଦିଷ୍ଟ	-2506
▁ସାଂସ୍କୃତିକ	-2507
୍ୟତା	-2508
▁ଟ୍ରା	-2509
▁କରୁଛୁ	-2510
▁ଘଟିଥିବା	-2511
▁କ୍	-2512
▁ଜଣଙ୍କୁ	-2513
▁P	-2514
▁କୃତ	-2515
▁ତାମିଲ	-2516
▁ଦିନରେ	-2517
▁ଚଳାଇଛି	-2518
ଦାୟ	-2519
୍ସ	-2520
ଯାଇଥିଲେ	-2521
▁ଶୁଣାଣି	-2522
▁ଜଣାଇଥିଲେ	-2523
ଷ୍ଯ	-2524
▁ରାଜନୀତି	-2525
▁ପଠା	-2526
▁ମୋଟ	-2527
▁ଇତିହା	-2528
▁ପବିତ୍ର	-2529
ମାରେ	-2530
ମତ	-2531
▁ଉତ୍ସବରେ	-2532
▁ଯେଉଁଥିରେ	-2533
▁ସଂରକ୍ଷ	-2534
▁ସାମ୍ବାଦ	-2535
ାମା	-2536
ଥିବାର	-2537
▁ଆଘାତ	-2538
▁କର୍ଣ୍ଣା	-2539
▁ତାହାକୁ	-2540
ସହିତ	-2541
▁ଶେଷରେ	-2542
▁ଏଥିସହ	-2543
ଘାଟନ	-2544
▁କେର	-2545
ତ୍ମା	-2546
▁ପଟେ	-2547
▁ଦୁଇଜଣ	-2548
▁ରେକର୍	-2549
▁ଆସନ୍ତା	-2550
▁ଅଧିକାଂଶ	-2551
▁ସଂସ୍କୃତି	-2552
ଜନକ	-2553
ଠାକୁ	-2554
▁ଦ୍ୱି	-2555
▁ନିରାପ	-2556
ଭ୍	-2557
▁ଅନୁମୋ	-2558
କ୍ରିୟ	-2559
▁ଗୁଡ଼ିକ	-2560
ପାଗ	-2561
▁ନଷ୍ଟ	-2562
▁ପଚରାଉ	-2563
▁ଆସିବେ	-2564
▁ଉଭୟଙ୍କ	-2565
କ୍ଷିକ	-2566
ପୂର୍ବ	-2567
▁ପୋଲିସକୁ	-2568
▁ରୋକ	-2569
▁ମାେତେ	-2570
▁ଅଭାବ	-2571
▁ବିଶ୍	-2572
▁ଦେଇଥିବା	-2573
ଗାର	-2574
▁ସବୁବେଳେ	-2575
ନୀୟ	-2576
ଲିକା	-2577
▁ଦେହ	-2578
▁ମାନଙ୍କୁ	-2579
ସାଇ	-2580
▁ସମୀ	-2581
▁କାର୍ଯ୍ୟରେ	-2582
▁ସହି	-2583
▁ସଙ୍ଗେ	-2584
▁ଛାତ୍ରୀ	-2585
▁ପଞ୍ଜାବ	-2586
▁କଠ	-2587
▁ଯିବା	-2588
▁ବାସ୍ତ	-2589
▁ଦ୍ଵ	-2590
ଗଲେ	-2591
ୀନ୍	-2592
▁ଦୀପ	-2593
▁ନିଆଁକୁ	-2594
▁କାର୍ଯ୍ୟାଳୟ	-2595
▁ସାମ୍ବାଦିକ	-2596
▁ପାରିବେ	-2597
ନୁ	-2598
ପ୍ରାପ୍ତ	-2599
▁ପାଣିପାଗ	-2600
▁ଗାଁରେ	-2601
▁ସର୍ବାଧିକ	-2602
▁ସେୟାର	-2603
▁(_	-2604
▁ବିଶ୍ୱବିଦ୍ୟାଳୟ	-2605
▁ଆପଣଙ୍କର	-2606
▁ସମସ୍ୟାର	-2607
▁ଶୁଭାରମ୍ଭ	-2608
▁ଫ୍ର	-2609
ସ୍ତରୀୟ	-2610
▁ଅଞ୍ଚଳ	-2611
▁ପିତା	-2612
▁ପରିବାରକୁ	-2613
▁କର୍ଣ୍ଣାଟକ	-2614
▁କେନ୍ଦ୍ରୀୟ	-2615
▁ଷ୍ଟା	-2616
ଫୋ	-2617
ସିଂହ	-2618
ୃପକ୍ଷ	-2619
▁ଦିଆଯାଇଥିଲା	-2620
▁ନାବାଳିକା	-2621
ସଲ	-2622
▁ରୂପେ	-2623
▁ଅଧିକାରୀମାନେ	-2624
ାତ୍	-2625
ଲାଦେଶ	-2626
▁ବ୍ୟକ୍ତ	-2627
▁ମାନଙ୍କ	-2628
▁ଦେଇଥିଲା	-2629
▁ସମାନଙ୍କେର	-2630
▁10	-2631
▁ବାଂ	-2632
ବିଧାନ	-2633
▁ଆକ୍ରାନ୍ତ	-2634
▁ଚାକି	-2635
▁ମିଳିପାରି	-2636
▁ଫାଇଲ	-2637
▁କୋଭିଡ	-2638
▁ଆପଣମାନେ	-2639
▁ଆଖି	-2640
▁କରିପାରି	-2641
▁ଖୋଜ	-2642
ୈଳ	-2643
ମ୍ନ	-2644
▁ପ୍ରଚ	-2645
▁ବିପଦ	-2646
▁ସାହୁ	-2647
▁ଅଧିବେଶ	-2648
▁ବିରୁଦ୍ଧ	-2649
▁ବିଶିଷ୍ଟ	-2650
▁ସଂରକ୍ଷଣ	-2651
ଦୂ	-2652
▁କଶ୍ମୀର	-2653
▁ଚୋ	-2654
▁ଶାହା	-2655
▁ଯୋଗାଣ	-2656
▁ଗୀତ	-2657
▁ପ୍ଲା	-2658
▁ବିସ୍ତ	-2659
▁ଏଯାଏ	-2660
ବନ	-2661
ୟୀ	-2662
▁ଦୋକ	-2663
▁କଷ୍ଟ	-2664
▁ହେବାରେ	-2665
▁ରାଜନାଥ	-2666
ବେଦ	-2667
▁ସଂକ୍ରାନ୍ତ	-2668
ାପ	-2669
▁8	-2670
-19	-2671
▁ତି	-2672
▁ଗ୍ରାମବାସୀ	-2673
▁ଖରାପ	-2674
▁ପ୍ରେମ	-2675
▁ତୁମ୍ଭକୁ	-2676
▁ମୌ	-2677
▁ଦେଖାଦେଇ	-2678
▁୬	-2679
ନ୍ଧ୍ର	-2680
▁ଧକ୍କ	-2681
▁ଚିତ୍ର	-2682
▁ପର୍ଯ୍ୟଟନ	-2683
ିକ୍ସ	-2684
▁ସୁନି	-2685
▁ଅନ୍ତର୍ଜାତୀୟ	-2686
କୂଳ	-2687
ବେେଳେ	-2688
▁ମନା	-2689
େସନ	-2690
▁ଅଜ	-2691
▁ସ୍ତରରେ	-2692
ୁଥିବା	-2693
▁ସପ୍ତାହ	-2694
ସ୍ତି	-2695
▁ସାଙ୍ଗ	-2696
▁ଓଡିଶା	-2697
ଫରୁ	-2698
▁ଜୈ	-2699
▁ଅର୍ଥମନ୍ତ୍ରୀ	-2700
▁ପ୍ରସାଦ	-2701
ଡ଼କ	-2702
▁ଆସିବ	-2703
▁ଏକାଠି	-2704
ଶ୍ୱର	-2705
▁ସକ୍ରିୟ	-2706
▁ସଶ	-2707
▁ମହାମ	-2708
ଷ୍ଣ	-2709
ୃଙ୍ଖ	-2710
▁ତରଫରୁ	-2711
ନେଇ	-2712
ଭାର	-2713
▁ଆନ୍ଧ୍ର	-2714
▁ଚତୁ	-2715
▁ପହଂଚି	-2716
ତଃ	-2717
ାୟତ	-2718
▁ଗୁଣ	-2719
▁ଭାଇର	-2720
ପାକ୍ଷିକ	-2721
▁ପରମେଶ୍ବରଙ୍କ	-2722
▁ଷ	-2723
ାର୍ଡ	-2724
▁ବିଲ୍	-2725
▁ନଥିବା	-2726
▁ଚୟନ	-2727
▁ବର୍ଷରେ	-2728
▁ତାଲିକା	-2729
କ୍ଟ	-2730
▁ବିଳ	-2731
▁ଚିହ୍ନଟ	-2732
▁ବିଫଳ	-2733
ଥିବେ	-2734
▁ପଡିବ	-2735
▁ପହଁ	-2736
ନଥିବା	-2737
ହାଁନ୍ତି	-2738
▁ଅନୁମୋଦନ	-2739
▁2018	-2740
▁ଆସିଥିଲେ	-2741
ରୂପ	-2742
ିନିୟ	-2743
ଟାଲ୍	-2744
▁ସୁଶାନ୍ତ	-2745
ପ୍ନ	-2746
ପାଦକ	-2747
▁ମୃତଦେହକୁ	-2748
ନ୍ଦୀ	-2749
୍ୟାନ୍	-2750
ୀକରଣ	-2751
▁ଲଗାଇ	-2752
ସ୍ତୁ	-2753
▁ପାଇବ	-2754
▁ଦାଖଲ	-2755
▁ରଖାଯାଇଛି	-2756
ିଲ୍ଲୀର	-2757
▁ଚୌ	-2758
▁ବିଜୁ	-2759
▁ତୀବ	-2760
ଧନ	-2761
ଦେବ	-2762
▁ଚାଳକ	-2763
ଦେଶିକ	-2764
▁ତୀବ୍ର	-2765
ରୋ	-2766
▁ମୁହଁ	-2767
▁ଅଭିଯୁକ୍ତଙ୍କୁ	-2768
▁ସଲ	-2769
ic	-2770
▁ମନେ	-2771
▁ଦୋକାନ	-2772
▁କେନ୍ଦ୍ରମନ୍ତ୍ରୀ	-2773
େସର	-2774
ଖିତ	-2775
▁କାହାକୁ	-2776
ୁରୀ	-2777
▁ପରିଣ	-2778
ଘୁ	-2779
▁ଯୋଗଦେଇ	-2780
▁ପ୍ରୋତ୍ସାହନ	-2781
▁ବୋର୍	-2782
ିକି	-2783
▁ଉଠି	-2784
▁ବରଂ	-2785
ାଳ	-2786
ନ୍ତୋଷ	-2787
▁ଯାନ	-2788
st	-2789
▁ଖାର	-2790
▁ବଢି	-2791
▁ଚୀନ୍	-2792
▁ଛାଡି	-2793
▁|	-2794
ୁଛନ୍ତି	-2795
ରାଲ୍	-2796
▁ରୂ	-2797
▁ସାଥୀଗଣ	-2798
▁ଜୁ	-2799
▁ପାନ	-2800
▁ରାଜି	-2801
▁ଅଭିବ	-2802
▁ବିରାଟ	-2803
▁ବ୍ୟାଟିଂ	-2804
▁ସମ୍ପୃକ୍ତ	-2805
ଷେ	-2806
ଆନ୍ତି	-2807
▁ଅଲଗା	-2808
▁ସଚେତନ	-2809
ସମ	-2810
▁ଗତକାଲି	-2811
ହେଲେ	-2812
▁ହେବାରୁ	-2813
▁ବାଂଲାଦେଶ	-2814
▁ଶୋ	-2815
▁ଖସି	-2816
▁ଆକାଉ	-2817
ଲଙ୍କ	-2818
▁ଆଦିତ୍ୟ	-2819
▁ଦକ୍ଷତା	-2820
▁ଗଣମାଧ୍ୟ	-2821
▁ମାେ	-2822
▁ବଲିଉଡ୍	-2823
▁ଆଶ୍ଚର୍ଯ୍ୟ	-2824
୦୦	-2825
ୁରି	-2826
▁ପ୍ରତିଦିନ	-2827
▁ମତ୍	-2828
▁ନୁହଁ	-2829
▁ଆସନ୍ତୁ	-2830
▁ଦେଶକୁ	-2831
▁ଅଦ	-2832
▁ରାସ୍ତାରେ	-2833
▁ଜିଲ୍ଲାପାଳ	-2834
▁ସମ୍ମିଳନୀରେ	-2835
▁ବାସ	-2836
▁ପ୍ରତିଶ୍ର	-2837
ଟିର	-2838
▁ଶେ	-2839
ଲାଣ୍ଡ	-2840
▁ଉତ୍ତରପ୍ରଦେଶ	-2841
▁ସଂକ୍ରମଣ	-2842
ଫି	-2843
▁ଜଙ୍ଗ	-2844
▁କରିବି	-2845
▁ଅକ୍ଷୟ	-2846
▁ଆଫ୍ର	-2847
▁ସ୍ବାସ୍ଥ୍ୟ	-2848
ଶେଷ	-2849
ବ୍ୟା	-2850
▁ମାଆ	-2851
କୋ	-2852
▁ସମୀକ୍ଷା	-2853
▁ବାହ	-2854
▁ଅଟକି	-2855
▁ଉତ୍ସା	-2856
▁ଯାଉ	-2857
ାଲୋ	-2858
▁ପଚ	-2859
୍ରାମ	-2860
▁ବୈଦେଶିକ	-2861
▁ପାଞ୍ଚ	-2862
▁ଦିଲ୍ଲୀରେ	-2863
ୋଧିତ	-2864
ଧୁନିକ	-2865
▁ନିର୍ଦ୍ଦେଶନା	-2866
▁ଶତା	-2867
▁ମହାନ	-2868
▁ଉପା	-2869
▁ପ୍ରୟୋଗ	-2870
▁ସୁଦୃଢ଼	-2871
▁ମଜ	-2872
ଗ୍ରସ୍ତ	-2873
▁ପ୍ରକାରର	-2874
▁ତଳେ	-2875
▁ଅସନ୍ତୋଷ	-2876
▁ସାମ୍ନାକୁ	-2877
▁ମନରେ	-2878
ଡିକୁ	-2879
ସାରିଛି	-2880
▁କରିପାରିବ	-2881
ତବେେଳେ	-2882
▁ଏଥର	-2883
▁ଘା	-2884
ଶୀଘ୍ର	-2885
▁କହିବା	-2886
▁ଲେଖିଛନ୍ତି	-2887
▁ମୁକ୍ତ	-2888
▁ଅଣ	-2889
▁ପରିଶ୍ର	-2890
ଗେ	-2891
ଠିତ	-2892
▁ବିଦ୍ୟୁତ	-2893
▁ସିରି	-2894
▁ଦୃଷ୍ଟିରେ	-2895
▁ଦମକ	-2896
▁କୋହଲି	-2897
▁ଯୋଗାଯୋଗ	-2898
ଲମ୍ବ	-2899
ଶ୍	-2900
▁ବାଧା	-2901
ଯୋଜ	-2902
▁ପ୍ରତିଶ୍ରୁତି	-2903
▁ୟୁନି	-2904
▁ଅଭିଯୁକ୍ତକୁ	-2905
▁ପରିଷଦ	-2906
▁ସେହିଭଳି	-2907
ାଳୟ	-2908
ୟିକ	-2909
▁ନାଇ	-2910
▁ସରି	-2911
▁ଦଣ୍ଡ	-2912
▁ଏଇ	-2913
▁ପରିଣତ	-2914
▁ଲଢ	-2915
▁ଲଢ଼	-2916
ତିଶ	-2917
ୀକାର	-2918
▁କାନ୍	-2919
▁କର୍ତ୍ତୃପକ୍ଷ	-2920
▁ବିଶ୍ୱରେ	-2921
▁ସଂପୃକ୍ତ	-2922
ଞ୍ଜାମ	-2923
▁ଉନ୍ନୟନ	-2924
▁ମାନସିକ	-2925
▁ଏମାନଙ୍କ	-2926
ବୃତ	-2927
ିନଥିଲା	-2928
▁ଦୃଶ୍ୟ	-2929
▁ସଂଶୋଧନ	-2930
▁ଟ୍ରେନ୍	-2931
▁ଆମ୍	-2932
▁ପିଟି	-2933
▁ପଚରାଉଚରା	-2934
ମ୍ର	-2935
▁ଦାୟୀ	-2936
▁ଦମକଳ	-2937
▁ମିଶି	-2938
▁ବିଜ୍ଞ	-2939
ମୁଖ୍ୟ	-2940
▁ଉପସ୍ଥା	-2941
▁ଦଇେ	-2942
▁ମୃ	-2943
କ୍ତା	-2944
▁ପୁଲିସକୁ	-2945
▁ସୁନିଶ୍ଚିତ	-2946
▁ଚିକିତ୍ସ	-2947
▁ହତ୍ୟାକା	-2948
▁ତ୍ରୁଟି	-2949
ପ୍ରିୟ	-2950
▁ପିନ୍ଧ	-2951
▁ରହିଥାଏ	-2952
▁ଭୋଟ	-2953
▁C	-2954
ବିଧ	-2955
▁ଚିଠି	-2956
▁ପାରୁ	-2957
▁ମଣିଷ	-2958
▁ପାତ୍ର	-2959
▁ଫେରାର	-2960
▁ସଦାପ୍ରଭୁଙ୍କ	-2961
ଦିଆ	-2962
▁ଜୋ	-2963
▁ବର୍ଗ	-2964
ଫେ	-2965
▁ଦେଉ	-2966
▁ଆପ୍	-2967
▁କୋବିନ୍ଦ	-2968
ଲ୍ଡ	-2969
▁ପ୍ରଭୁ	-2970
ଜୀ	-2971
▁ମାର୍ଗ	-2972
▁ନିଆଯାଇଛି	-2973
ଲାଣ	-2974
ହନ୍ତୁ	-2975
ରର	-2976
ଶିତ	-2977
ଖାପା	-2978
▁ଯୋଗଦାନ	-2979
▁ଖାରଜ	-2980
▁ଝା	-2981
ାରୋହ	-2982
ଗଡ	-2983
ଞ୍ଜି	-2984
▁ପରିବାରର	-2985
ତ୍ନ	-2986
▁ଆୟତ୍ତ	-2987
▁ଛି	-2988
▁ଶତ	-2989
ାତ୍ମକ	-2990
▁ଆଦେଶ	-2991
▁ସିଦ୍ଧ	-2992
▁ନିର୍ଦେଶ	-2993
▁ଇର	-2994
▁ପୁରା	-2995
▁ସଞ୍ଜ	-2996
▁ଲୋ	-2997
୍ଷିକ	-2998
▁ମନୋ	-2999
କ୍ଷେତ୍ର	-3000
▁ମିଳିନାହିଁ	-3001
ନଙ୍କ	-3002
▁ସମାଲୋ	-3003
▁ଅଶୋକ	-3004
▁ଏତ	-3005
▁ଆୟୁ	-3006
▁ଅସ୍ତ୍ର	-3007
▁ତୈଳ	-3008
▁ପୋଷ	-3009
▁ବିକ୍ର	-3010
▁ରଣବୀର	-3011
▁ନିଆଯିବ	-3012
ରଣର	-3013
▁ଭଦ୍ର	-3014
▁ପଠାଇଛି	-3015
ଲପୁର	-3016
▁ପାଉ	-3017
▁ତ୍ରି	-3018
▁ଉତ୍ପାଦ	-3019
ଢ଼ା	-3020
▁ବାଲେ	-3021
▁ବିଳମ୍ବ	-3022
▁ବନ୍ୟା	-3023
▁ପେଟ୍ରୋଲ	-3024
▁ଗସ୍ତରେ	-3025
ମୁଁ	-3026
▁ଅଳ୍ପ	-3027
▁ମଣ୍ଡ	-3028
▁ଜାମ୍ମୁ	-3029
▁ଧାରା	-3030
▁ମୁଣ୍ଡ	-3031
▁କଡା	-3032
▁ଭୂମି	-3033
▁ନିକଟକୁ	-3034
▁ମହିଳାଙ୍କୁ	-3035
▁ହୋଇଗଲା	-3036
ିନ୍	-3037
▁ବାଧ୍ୟ	-3038
▁ସମାରୋହ	-3039
▁ଇଂଲ	-3040
▁ବାବଦରେ	-3041
▁’	-3042
▁ଦଶ	-3043
▁ଖାଲି	-3044
▁ଏକଥା	-3045
ଶାଳୀ	-3046
ତ୍ତ୍ୱ	-3047
ବାସୀଙ୍କୁ	-3048
▁ଛତିଶ	-3049
▁ମୋବାଇଲ	-3050
▁ରେକର୍ଡ	-3051
▁ଇସ	-3052
▁ବୀ	-3053
▁ମିଳୁ	-3054
ଶାଲ	-3055
▁ପ୍ରାପ୍ତ	-3056
▁ସଠ	-3057
▁ରୋହିତ	-3058
▁ପାଣ୍	-3059
ଞ୍ଜଳି	-3060
▁ପାରିବାର	-3061
▁ପ୍ରଶିକ୍ଷ	-3062
▁ରାଉ	-3063
▁ଏଥିରୁ	-3064
▁କୁହାଯାଉଛି	-3065
ାତିକ	-3066
▁ଚିନ୍ତ	-3067
▁ଦିନଟି	-3068
▁ଗୁଜରାଟ	-3069
▁ମହମ୍ମଦ	-3070
▁ସ୍ୱାକ୍ଷ	-3071
▁ଚାହିଁ	-3072
▁ତାଲିକ	-3073
▁ବାରମ୍	-3074
କୌ	-3075
ଣ୍ଟା	-3076
ପରିକ	-3077
▁ଅଙ୍ଗ	-3078
▁ଯୋଡ଼ି	-3079
▁କାରବାର	-3080
▁ଖେଳ	-3081
▁ଟସ୍	-3082
ତୁମ୍ଭ	-3083
▁ଆକାଶ	-3084
▁ବିସ୍ଫୋ	-3085
ଜ୍ଞାନିକ	-3086
▁ସେଠାରୁ	-3087
▁୮	-3088
▁ଦିଅ	-3089
▁ଉପକରଣ	-3090
▁ଆପଣା	-3091
▁ବ୍ରି	-3092
▁କରିଛୁ	-3093
▁ରାତିରେ	-3094
▁ଅଭିବୃଦ୍ଧି	-3095
▁ମମତା	-3096
▁ପାରିବାରିକ	-3097
▁ଦ୍ୱିପାକ୍ଷିକ	-3098
▁ଗୃହମନ୍ତ୍ରୀ	-3099
ଲାର	-3100
▁ଯଥ	-3101
କୃତିକ	-3102
▁ଦିଲ୍ଲୀର	-3103
▁ଦିଆଯାଇ	-3104
▁ଚିକିତ୍ସାଳୟରେ	-3105
▁ମୁତ	-3106
▁ହୋଇଯିବ	-3107
▁ବର୍	-3108
▁କ୍ଷୟ	-3109
▁ଆଣିବା	-3110
▁ଧୀରେ	-3111
ଭାଗ୍ୟ	-3112
ସ୍ପ	-3113
ଞ୍ଚଳ	-3114
▁ସୂଚ	-3115
▁ଉତ୍ସବ	-3116
ଥିଲୁ	-3117
▁ମାଡ଼	-3118
▁ମୂଳ	-3119
▁ଗୁଡିକ	-3120
▁ମତ୍ସ୍ୟ	-3121
ୀତାର	-3122
ସ୍ଥାର	-3123
▁ହସ୍ତାନ୍ତର	-3124
ତ୍କ	-3125
▁ସଡ଼କ	-3126
▁ଆଧାରିତ	-3127
▁ମହାନ୍ତି	-3128
▁ଖାଇ	-3129
▁ବିନିମୟ	-3130
▁କମିଶନର	-3131
▁ବ୍ୟକ୍ତିଗତ	-3132
▁ଗଛ	-3133
▁ପ୍ରଫ	-3134
▁ଆହତଙ୍କୁ	-3135
▁ୱେ	-3136
▁ନେବାକୁ	-3137
▁9	-3138
▁19	-3139
▁ଇଚ୍ଛା	-3140
▁ଆତଙ୍କବାଦ	-3141
ନ୍ୟ	-3142
▁ପ୍ରାକୃତିକ	-3143
▁ଜଣଙ୍କର	-3144
ଲକ୍ଷ	-3145
▁ପିଇ	-3146
▁ରେଳବାଇ	-3147
▁ତାମିଲନା	-3148
▁କାହାଣୀ	-3149
▁କ୍ରିକେଟ୍	-3150
▁ବୈଜ୍ଞାନିକ	-3151
▁ଡିଜେ	-3152
▁ବିକ୍ଷ	-3153
▁ମୃତ୍ୟ	-3154
▁ରାଜପଥ	-3155
▁ବିଶ୍ବ	-3156
ିରେ	-3157
▁ଅଂଶଗ୍ରହଣ	-3158
ପ୍ରେ	-3159
▁କୌଶ	-3160
▁ବିନ	-3161
▁ଚାଲୁ	-3162
▁ନିକଟସ୍ଥ	-3163
ଫଳରେ	-3164
▁ରହିଥିଲେ	-3165
▁ଯୁଗ	-3166
▁ଅବସର	-3167
▁ଚୁକ୍ତି	-3168
▁ଜଷ୍ଟିସ	-3169
▁ବିଜେପିରେ	-3170
ଆଁ	-3171
▁ପଶୁ	-3172
ri	-3173
▁ଇଣ୍ଟର	-3174
ବକ	-3175
▁ଆସିଛନ୍ତି	-3176
▁ବାରମ୍ବାର	-3177
▁ବଦଳି	-3178
▁ବ୍ରା	-3179
▁ଠିକ	-3180
▁ଲଗା	-3181
▁ଜିନି	-3182
▁O	-3183
ଡ଼େ	-3184
▁ପ୍ରତ୍ୟା	-3185
ସ୍ତା	-3186
▁ଜେଲ	-3187
▁15	-3188
▁ଉଦା	-3189
▁ସ୍ବ	-3190
▁ଏମାନେ	-3191
▁ନ୍ୟାୟା	-3192
▁ଠାରେ	-3193
▁ସୁପର	-3194
▁ତିନ	-3195
▁ମେଣ୍ଟ	-3196
ାଇଛନ୍ତି	-3197
▁ଆଣ	-3198
▁ଜିନିଷ	-3199
▁ଫୋନ୍	-3200
▁ଲୋକପ୍ରିୟ	-3201
ଜ୍ଜ	-3202
▁ଉପାୟ	-3203
▁ହାଇଦ୍ରା	-3204
▁ସଂଖ୍ୟାରେ	-3205
▁ଆଡ	-3206
ଉଦ	-3207
ହ୍ମ	-3208
▁ରାଷ୍ଟ୍ରପତିଙ୍କ	-3209
▁ତବେେ	-3210
ର୍ଜାତିକ	-3211
▁ଗରମ	-3212
▁ସାର୍	-3213
ବୁଲ	-3214
▁ଦର୍ଶକ	-3215
ଭାବେ	-3216
▁ପ୍ରଣ	-3217
▁ଅର୍ଥନୀତି	-3218
▁କିଭଳି	-3219
▁ମୁତୟନ	-3220
▁କ୍ୟାମେ	-3221
ଲିମ	-3222
ହେରା	-3223
▁ଆସୁଛି	-3224
▁ଡ଼ା	-3225
ାର୍ଜୀ	-3226
ଗମ	-3227
ମାନ୍ୟ	-3228
▁ଟୁଇ	-3229
▁ରାତି	-3230
▁ଓଡ଼ିଶାର	-3231
▁ଭୁଲ	-3232
▁ଉଦାହରଣ	-3233
▁ଭଗ	-3234
▁ସର୍ବୋ	-3235
▁ଚାକିରି	-3236
▁ସିସିଟି	-3237
▁ମାତ୍ରାରେ	-3238
▁ରୋଜ	-3239
▁ସଶକ୍ତ	-3240
ଘର	-3241
▁ଉଦଘାଟନ	-3242
▁ବିକଶିତ	-3243
▁ସଂଗ୍ରହ	-3244
▁ଯୋଜନାରେ	-3245
▁ସୁଧାର	-3246
ସିପି	-3247
▁ଖୋଲା	-3248
▁ସଂକଳ୍ପ	-3249
କାଳୀନ	-3250
▁ସିନେମା	-3251
▁ଆମେରିକାର	-3252
ଟାଇ	-3253
୍କି	-3254
▁ବିବେ	-3255
ନକୁ	-3256
▁ହସ	-3257
▁ଉପରକୁ	-3258
▁ରଖନ୍ତୁ	-3259
▁ଅରୁଣ	-3260
▁ସଲମାନ	-3261
▁ସ୍ୱାଧୀନତା	-3262
▁ଶାସ	-3263
▁ମହାକାଶ	-3264
▁ଜାଣନ୍ତୁ	-3265
▁ସମର୍	-3266
▁ୱି	-3267
କ୍ଷତି	-3268
▁2017	-3269
▁ନେଇଛି	-3270
▁ଜଣାଉଛି	-3271
▁ସ୍ୱପ୍ନ	-3272
ଡିତ	-3273
▁ପୁନଃ	-3274
▁ସମାଲୋଚନା	-3275
▁ପର୍ଯ୍ୟାୟରେ	-3276
▁ନୋ	-3277
ଙ୍ଗ୍	-3278
▁ନମ୍ବର	-3279
▁ବିକ୍ଷୋଭ	-3280
▁ସିସିଟିଭି	-3281
ଶିକ୍ଷ	-3282
▁କୋର୍ଟରେ	-3283
▁ମୁହାଁ	-3284
▁ବାହାରକୁ	-3285
ଟୁ	-3286
▁ଥା	-3287
▁ବଲିଉଡ	-3288
▁ଶୃଙ୍ଖ	-3289
▁ପଦକ	-3290
▁ଧକ୍କା	-3291
ଳନାରେ	-3292
▁ଧାରଣ	-3293
▁ବଜାୟ	-3294
▁ଦୁହେଁ	-3295
▁ଯୋଗଦେ	-3296
▁ସମ୍ବଳ	-3297
▁ସଂସ୍କାର	-3298
▁ବିଲ	-3299
▁ବନ୍ଧୁଗଣ	-3300
▁ଜେନେ	-3301
▁ବିଜ୍ଞପ୍ତି	-3302
ସାର	-3303
▁ଦୋଷୀ	-3304
▁କ୍ରୀଡ଼ା	-3305
▁ପହଞ୍ଚ	-3306
▁ଏଣୁ	-3307
ିକରଣ	-3308
▁ଚାଲାଣ	-3309
▁ବିପର୍ଯ୍ୟ	-3310
ଭାଇ	-3311
▁ଅର	-3312
▁ଅଲ୍	-3313
▁ଅବଗତ	-3314
▁ରୋଗୀ	-3315
▁କ୍ଷୟକ୍ଷତି	-3316
ହେବ	-3317
▁ଅଥ	-3318
ତ୍ମକ	-3319
▁ବାତାବ	-3320
▁ଅଭିଯୋଗକୁ	-3321
ତ୍ବ	-3322
▁ଉଦ୍ଦେଶ୍ୟରେ	-3323
▁ନିଆଯାଇଥିଲା	-3324
▁ଆନ୍ତର୍ଜାତିକ	-3325
ୱାଲ	-3326
▁ବାନ	-3327
▁ପଚାରି	-3328
▁ଭଦ୍ରକ	-3329
▁ଗଞ୍ଜାମ	-3330
▁ଘଟଣାସ୍ଥଳରୁ	-3331
▁ରାଜଧାନ	-3332
▁ମୟ	-3333
▁ପୂର୍ଣ୍ଣ	-3334
▁ଯାଜପୁର	-3335
▁ପାଣ୍ଠି	-3336
ବ୍ର	-3337
▁ଏକ୍ସ	-3338
▁କାହାର	-3339
ଦ୍ଧାରିତ	-3340
ଜୀବୀ	-3341
୍କାର	-3342
▁ଧାର	-3343
▁ମିଳିବା	-3344
▁ଜଗ	-3345
ଡ଼ିଆ	-3346
ଦାତା	-3347
▁ଇନ୍	-3348
▁ପାଣ୍ଡ	-3349
▁ମିଳିଲା	-3350
▁ଉନ୍	-3351
ଦାରୀ	-3352
▁ନ୍ୟାୟ	-3353
▁ପ୍ରସ୍ତାବକୁ	-3354
▁ଶ୍ରଦ୍ଧାଞ୍ଜଳି	-3355
▁ଶୁଣ	-3356
▁ଟିକସ	-3357
▁ବ୍ୟକ୍ତିଙ୍କ	-3358
▁ଗଲେ	-3359
▁ବଳି	-3360
ଣାର	-3361
▁ଆପଣମାନଙ୍କ	-3362
ଟୱ	-3363
▁ଦୃଢ	-3364
▁ଯାତ	-3365
▁ଟ୍ୱିଟ୍	-3366
▁ଯିବାକୁ	-3367
▁ବାତାବରଣ	-3368
▁ପ୍ରଭ	-3369
▁ଅତ୍ୟା	-3370
▁ଜଙ୍ଗଲ	-3371
▁ନେଇଥିଲା	-3372
ନ୍ତର	-3373
▁୭	-3374
▁ଆଜିର	-3375
▁ନାୟକ	-3376
▁ଆୟୋଗ	-3377
ଖାପାଖି	-3378
▁କେନ୍ଦ୍ରାପ	-3379
▁ମାଇ	-3380
▁ଜଷ୍ଟିସ୍	-3381
▁ବିସ୍ଫୋରଣ	-3382
▁ପ୍ରିୟଙ୍କା	-3383
▁ଗଣତନ୍ତ୍ର	-3384
ପିଏ	-3385
ନ୍ଧାନ	-3386
▁ଆଲୋକ	-3387
▁ପ୍ୟା	-3388
▁ବିଭାଗୀୟ	-3389
ଶ୍ୱାସ	-3390
▁ସୀତାର	-3391
ଥ୍	-3392
▁in	-3393
▁କୋଲକ	-3394
▁ସର୍ବଦା	-3395
▁ଖାଇବା	-3396
▁ଅସୁବିଧା	-3397
▁ଅନ୍ୟପକ୍ଷରେ	-3398
▁ମହାପାତ୍ର	-3399
▁ସୋନିଆ	-3400
▁ନିରାପତ୍ତା	-3401
▁ସଂଗ୍ର	-3402
▁ଅର୍ଥନୈତିକ	-3403
▁ଯିଏ	-3404
▁ସକ୍ଷମ	-3405
▁ପାଖାପାଖି	-3406
▁ପାଲଟି	-3407
୍ୟ୍ଯନ୍ତ	-3408
▁ପ୍ରଗତି	-3409
▁ବଞ୍ଚ	-3410
▁ମୃତ୍ୟୁର	-3411
ୟୋଗ	-3412
▁ବଂଶ	-3413
ଡ଼ିତା	-3414
ମାତ୍ର	-3415
▁ଟ୍ରକ୍	-3416
▁ଟ୍ୟା	-3417
▁ସନ୍ଧ୍ୟ	-3418
▁ମୋଦିଙ୍କୁ	-3419
ଗିରି	-3420
▁ଆକାଉଣ୍ଟ	-3421
▁ପ୍ରତିବାଦ	-3422
ବ୍ଦ	-3423
▁ଆସିଥିବା	-3424
▁ମଞ୍ଜୁରି	-3425
▁ସୌର	-3426
▁ପାଖକୁ	-3427
▁କ୍ଷେତ୍ରର	-3428
▁ଝାର	-3429
▁ତିନୋଟି	-3430
▁ସହଭାଗ	-3431
▁ପଡ଼ିଛି	-3432
▁ବିଗତ	-3433
▁ବୁଝି	-3434
▁ମୃତା	-3435
ୋଦ	-3436
▁ପ୍ରାରମ୍ଭ	-3437
ice	-3438
▁ପୀଡ଼ିତା	-3439
▁ଅନୁସନ୍ଧାନ	-3440
▁କବ	-3441
▁2019	-3442
▁ବିଜୟୀ	-3443
କାଶ୍ମୀର	-3444
▁ନୌ	-3445
▁ମାର୍	-3446
▁ସମନ୍	-3447
ଆସି	-3448
ଳ୍ପର	-3449
▁ହାଇଦ୍ରାବାଦ	-3450
▁ଉନ୍ନତ	-3451
▁ବର୍ଷର	-3452
▁ଖୋର୍	-3453
▁ଆଗରେ	-3454
ରାଷ୍ଟ୍ରପତି	-3455
ହର	-3456
▁ପ୍ରଣା	-3457
▁ସମ୍ବନ୍ଧରେ	-3458
ଠାେ	-3459
ପୀଠ	-3460
▁ଜଡ଼ିତ	-3461
▁ଚତୁର୍ଥ	-3462
ଝର	-3463
ଅରେ	-3464
ଶକ୍ତି	-3465
▁ଜାମିନ	-3466
▁ନାମରେ	-3467
▁ହିଂସା	-3468
ଲାଙ୍ଗ	-3469
ଇଁ	-3470
ସେବା	-3471
▁ସକାଳ	-3472
ିତି	-3473
▁ମରି	-3474
▁ଆଣ୍ଡ	-3475
ବାସୀଙ୍କ	-3476
▁ଇଂଲଣ୍ଡ	-3477
▁ଜାଗ	-3478
▁ସେଇ	-3479
▁ଗ୍ୟାସ	-3480
▁ଭିତରକୁ	-3481
କମାନେ	-3482
▁ପୁରୁଣା	-3483
▁ଚିକିତ୍ସାଧୀନ	-3484
▁ଓ୍ଵ	-3485
▁ଗତିରେ	-3486
▁ରୋଜଗାର	-3487
ିନୀ	-3488
ମ୍ପରା	-3489
▁ବ୍ୟୟବ	-3490
▁ରଖିବାକୁ	-3491
▁ସ୍ମାର୍ଟ	-3492
▁ମହାମାରୀ	-3493
ଧର	-3494
ାଲୁ	-3495
▁ଟ୍ରକ	-3496
▁କେଶ	-3497
▁କଳାକାର	-3498
▁ଦେଖିବା	-3499
▁ଆଗ୍ରହ	-3500
▁ଡିଜିଟାଲ	-3501
▁ଆସିଲେ	-3502
▁ପରିଶ୍ରମ	-3503
▁12	-3504
▁ଭ୍ର	-3505
▁ଚେନ୍ନ	-3506
▁ବାଇକ୍	-3507
▁ଘଟଣାଟି	-3508
▁ସମ୍ବଲପୁର	-3509
ଲାଣି	-3510
ଷ୍ଟର	-3511
▁ପୂଜା	-3512
▁ଯୋଜନାର	-3513
▁ଉଠ	-3514
▁୨୦	-3515
▁ଭାଷା	-3516
▁ସୁନା	-3517
▁ମୁଖ୍ୟମନ୍ତ୍ରୀଙ୍କ	-3518
ଳାପ	-3519
ବିଧାର	-3520
▁ବୋର୍ଡ	-3521
▁ମିଳୁଛି	-3522
▁ଏଥିସହିତ	-3523
▁ପରମ୍ପରା	-3524
ଦ୍ଦିଷ୍ଟ	-3525
▁ବାତି	-3526
▁ଶୀର୍ଷ	-3527
▁ବାର୍ଷିକ	-3528
▁ଓଡ଼ିଶାରେ	-3529
ନଗର	-3530
▁ନକ	-3531
▁ନର	-3532
▁ରାଜୀବ	-3533
▁ଗୌର	-3534
▁ହେଲ	-3535
▁ଏସିଆ	-3536
▁ବିଦେଶୀ	-3537
ବିକ	-3538
▁ପାଟ	-3539
▁ଙ୍କୁ	-3540
ଷ୍ଟିକ	-3541
▁କେନ୍ଦୁ	-3542
ମାଳ	-3543
▁ପୃଥି	-3544
ନୀତିରେ	-3545
▁ଆସିଥିଲା	-3546
▁ଅଗ୍ନିକାଣ୍ଡ	-3547
▁ପ୍ରତିଷ୍ଠାନ	-3548
▁ପାନୀୟ	-3549
▁ସହରରେ	-3550
▁ବ୍ୟବସ୍ଥାକୁ	-3551
▁ଦେଉଛନ୍ତି	-3552
ଧାରା	-3553
▁ସାହ	-3554
▁ଓଡିଶ	-3555
▁ଗଠିତ	-3556
▁ପର୍ବ	-3557
▁ବାର୍ତ୍ତା	-3558
ist	-3559
ଟାମ	-3560
ତ୍ଯ	-3561
▁ଦେଖନ୍ତୁ	-3562
▁ବିଜେପିକୁ	-3563
▁ପର୍ୟ୍ଯନ୍ତ	-3564
▁ମନ୍ତ୍ରାଳୟ	-3565
▁ଅନ୍ୟମାନଙ୍କ	-3566
▁ବହି	-3567
▁ଭାଇରାଲ୍	-3568
ାନ୍ୱ	-3569
▁ଅନୁଷ୍ଠାନ	-3570
▁ଧର୍ମେନ୍ଦ୍ର	-3571
ଘନ	-3572
▁ଲେଖ	-3573
ୋଜନ	-3574
▁ଦୁନିଆ	-3575
▁ଶିଖର	-3576
▁ସ୍ଥିତିରେ	-3577
ବୃ	-3578
ତିହାସିକ	-3579
ଣେ	-3580
୍ରୋ	-3581
▁ଏଲ	-3582
▁ରାସ୍ତାର	-3583
ହାତି	-3584
▁କେଉଁଠି	-3585
▁ରହିବାକୁ	-3586
▁ସମ୍ପତ୍ତି	-3587
▁ବୈଷ	-3588
▁ରାଶି	-3589
▁କାଳ	-3590
▁ପାପ	-3591
ଭାରତ	-3592
▁କାର୍ଡ	-3593
▁ବାଲେଶ୍ୱର	-3594
ହୀନ	-3595
ୁରା	-3596
୍ୟାରି	-3597
▁ବଚ୍ଚ	-3598
▁ଯୁବତ	-3599
▁ନ୍ୟୁଜି	-3600
▁କରିଥାନ୍ତି	-3601
▁ପଥ	-3602
▁ଆନୁ	-3603
▁ଫଳା	-3604
▁ଭଗବାନ	-3605
▁ଥିବାରୁ	-3606
▁ରାମନାଥ	-3607
▁ପ୍ରାର୍ଥନା	-3608
▁ଆହତମାନଙ୍କୁ	-3609
ରେଶ	-3610
▁ବିଶ୍ଵ	-3611
ୀତା	-3612
ଆନ୍ତୁ	-3613
▁ସ୍ମରଣ	-3614
▁ଉଭୟଙ୍କୁ	-3615
▁ଅଣା	-3616
▁ନେବେ	-3617
▁ଐତିହାସିକ	-3618
ame	-3619
▁ଯୋଗୀ	-3620
▁ଦୁହିଁ	-3621
▁ଅଦାଲ	-3622
▁ଅନୁମାନ	-3623
▁ଅନ୍ୟପଟେ	-3624
ଝା	-3625
ଏନ୍	-3626
▁ଗଜ	-3627
▁ଯଥେଷ୍ଟ	-3628
▁ନିର୍ମଳା	-3629
▁ଅଧିକାରୀଙ୍କ	-3630
ତ୍ୱ	-3631
▁ଜାପାନ	-3632
▁ଆଗେଇ	-3633
▁ଇଣ୍ଡ	-3634
▁ପର୍ଯ୍ୟାୟ	-3635
▁ଉପରାଷ୍ଟ୍ରପତି	-3636
▁ବାଦ	-3637
ମଧ୍ୟ	-3638
୍ୟସ୍ତ	-3639
▁ଦ୍ଵାରା	-3640
ବରଣ	-3641
▁ବାନ୍	-3642
▁ଅଂଚଳରେ	-3643
▁ବ୍ରହ୍ମ	-3644
ff	-3645
▁ଗ୍	-3646
▁ତାପ	-3647
▁ଅସୁସ୍ଥ	-3648
▁ଚାଲିଥିବା	-3649
ୁରୋ	-3650
▁ଅଟଳ	-3651
▁ଟେକ୍	-3652
▁ଦାଉଦ	-3653
▁ସଂକ୍ରମ	-3654
▁ସୀତାରମଣ	-3655
▁ସୁରକ୍ଷାକର୍ମ	-3656
▁ଆସାମ	-3657
ଚେ	-3658
▁ଧୋ	-3659
▁ପଢ	-3660
▁ମିଶନ	-3661
▁ବନ୍ଦର	-3662
▁ବିଶ୍ବାସ	-3663
▁ଇଶ୍ରାୟେଲର	-3664
▁ଡାକ୍ତରଖାନାକୁ	-3665
ୂର୍ତ୍ତି	-3666
▁କହନ୍ତି	-3667
ଳିଆ	-3668
▁କୈ	-3669
ାୟଣ	-3670
▁ଗ୍ରାହ	-3671
▁ଲିଖିତ	-3672
▁ଚେନ୍ନାଇ	-3673
ଲୱ	-3674
▁ଡୋନା	-3675
▁ସଂକ୍ରମିତ	-3676
▁ଟାଇ	-3677
▁ଅମିତା	-3678
▁ଅର୍ଥବ୍ୟ	-3679
▁କିଲୋ	-3680
▁ଗାନ୍ଧୀଙ୍କ	-3681
ଫାଇ	-3682
୍କଟ	-3683
▁ଚେତା	-3684
▁ପୋଲିସର	-3685
ଂଟ	-3686
ଳଖ	-3687
ister	-3688
ୋଣ	-3689
ପୁଟ	-3690
ମିଟର	-3691
▁ନିୟମିତ	-3692
▁ଛାତ୍ରଛାତ୍ରୀଙ୍କ	-3693
ମଣ୍ଡ	-3694
▁ଭାଗି	-3695
ାମୂଳକ	-3696
▁ଯନ୍ତ୍ର	-3697
rime	-3698
ବହାର	-3699
▁ସ୍ଥିତ	-3700
▁ଘେ	-3701
▁ହିନ୍ଦୀ	-3702
▁Off	-3703
▁ଫରେ	-3704
▁Office	-3705
▁inister	-3706
▁ଘରୁ	-3707
▁ଜୀବନର	-3708
େଙ୍କ	-3709
▁ହିତା	-3710
▁ପାଇଥିଲା	-3711
ପୂ	-3712
କାନ	-3713
▁ପ୍ରଦୂ	-3714
▁ମୃତାହତ	-3715
ଭୂତ	-3716
ଠାକାର	-3717
▁ଉପୁ	-3718
▁ହୁଅ	-3719
ଦର୍ଶନ	-3720
▁ବିକଳ୍ପ	-3721
▁ଜୋରଦାର	-3722
▁ବଜାରରେ	-3723
▁ଦୃଷ୍ଟିରୁ	-3724
▁Prime	-3725
▁ଫଳାଫଳ	-3726
▁ଅଞ୍ଚଳର	-3727
▁ଚାଷୀଙ୍କ	-3728
▁ଆସନରେ	-3729
ରେଇ	-3730
ଙ୍ଗୁ	-3731
ଷ୍ଟା	-3732
▁ନିହତ	-3733
▁ରୂପରେ	-3734
▁କେନ୍ଦୁଝର	-3735
▁ସକା	-3736
▁ଉପଯୁକ୍ତ	-3737
▁50	-3738
▁ସୁଧ	-3739
▁ସାମାନ୍ୟ	-3740
ଡକ	-3741
ର୍ଭ	-3742
▁ଚିକିତ୍ସିତ	-3743
▁ସହିଦ	-3744
▁ଦେଖାଇ	-3745
▁ଇତିହାସ	-3746
ିବେ	-3747
ମୁହିଁ	-3748
▁ଦୀପିକା	-3749
▁S	-3750
▁ବୌ	-3751
▁ନାର	-3752
▁ମଧି	-3753
▁ସାର	-3754
▁ତହିଁ	-3755
▁କାର୍ୟ୍ଯ	-3756
▁ଆଧୁନିକ	-3757
▁ଡ଼	-3758
▁ସମ୍ପ୍ର	-3759
▁କରାଯାଇଥାଏ	-3760
ଚ୍ୟୁ	-3761
▁ଶିକାର	-3762
▁ଖଣ୍ଡପୀଠ	-3763
▁ଅଭିଯୋଗରେ	-3764
ହାଜ	-3765
▁ଆଖ	-3766
▁ଜିଲା	-3767
▁ଦେଉଛି	-3768
ଦାୟକ	-3769
ନାଲ୍	-3770
▁ବଲାଙ୍ଗ	-3771
▁ମଧିଅରେ	-3772
ୀପ	-3773
▁କରାଯାଇପାରିବ	-3774
ନୋ	-3775
▁ଆମେରିକ	-3776
▁ଜାତିସଂ	-3777
ଡିଏ	-3778
ତରଣ	-3779
▁ଫ୍	-3780
ନ୍ତୀ	-3781
▁ଭିଟାମ	-3782
▁ଆକ୍ରମଣରେ	-3783
କାରୀଙ୍କ	-3784
▁ତାଲିକାରେ	-3785
୍ତା	-3786
▁ଫୋ	-3787
ଲ୍ଲା	-3788
▁ଦୟା	-3789
▁କୋରା	-3790
▁ଇମ୍ର	-3791
▁କରାଯାଏ	-3792
ାତାର	-3793
▁ଇସ୍	-3794
▁ହେଇ	-3795
ପିଟାଲ୍	-3796
▁ପୁସ୍ତ	-3797
▁ମହାତ୍ମା	-3798
▁ଯୁବକଙ୍କ	-3799
ଡିଆର	-3800
ନ୍ଦି	-3801
▁ହାଜ	-3802
▁ଅନଲାଇ	-3803
▁ପ୍ରତିଯୋଗିତ	-3804
▁ମାନ୍ୟତା	-3805
ଭୁକ୍ତ	-3806
▁ଆଫ୍ରିକା	-3807
▁ବ୍ୟୟବରାଦ	-3808
ଦ୍ମ	-3809
▁ମହତ	-3810
ମ୍ଭୀର	-3811
ନ୍ତବ୍ୟ	-3812
▁ସମ୍ପାଦକ	-3813
▁ବୈଷୟିକ	-3814
ଙ୍ଗପୁର	-3815
▁ଗର୍ବ	-3816
▁ଏହିପରି	-3817
▁ଉପସ୍ଥାପନ	-3818
▁ବିଶେଷଜ୍ଞ	-3819
▁ପ୍ରତିବଦ୍ଧ	-3820
▁କାର୍ଯ୍ୟକ୍ରମର	-3821
ଠୀ	-3822
▁୧୨	-3823
ଟିରେ	-3824
▁ମତେ	-3825
▁ମୁହାଁମୁହିଁ	-3826
କୌଣସି	-3827
▁ମାସରେ	-3828
▁ପ୍ରଶିକ୍ଷଣ	-3829
କର୍ତ୍ତା	-3830
▁ପ୍ରଶଂସ	-3831
▁ଜମା	-3832
ରହି	-3833
୍ରେ	-3834
ାଙ୍କ	-3835
▁କାହାରି	-3836
▁ଆଦୌ	-3837
▁ଯାହାଫଳରେ	-3838
▁ସଠାେ	-3839
▁ସଂଘର୍ଷ	-3840
▁ସମ୍ମାନିତ	-3841
▁ତୁମ୍ଭମାନଙ୍କୁ	-3842
▁ସହଯୋଗୀ	-3843
▁ଯାଇଥିବା	-3844
▁ଯେତବେେଳେ	-3845
ଖ୍	-3846
▁ହଠ	-3847
ଡ଼ରେ	-3848
ାର୍ଥୀ	-3849
▁ବୌଦ୍ଧ	-3850
▁ଦ୍ବ	-3851
ଚର	-3852
ମୋହନ	-3853
▁ସମୁ	-3854
▁ମୁଖପାତ୍ର	-3855
▁ଫସଲ	-3856
ସିଂହପୁର	-3857
▁ଇଣ୍ଟରନ	-3858
▁ଉପସ୍ଥି	-3859
▁ବାଜି	-3860
▁ଏତିକି	-3861
▁କରିବୁ	-3862
▁ସୂତ୍ର	-3863
▁ଏହାଛ	-3864
▁କଥାବାର	-3865
▁”	-3866
▁ଅପରେସନ	-3867
▁ଅମିତାଭ	-3868
▁ତୁଳନାରେ	-3869
ର୍କ	-3870
▁ଏଜେ	-3871
▁ପାଦ	-3872
▁ଉଲ୍ଲ	-3873
▁ଧୋଇ	-3874
▁ଜଣାଯାଇଛି	-3875
ଗଡ଼ା	-3876
▁ଡକ୍ଟର	-3877
▁ପରଲୋକ	-3878
ଫିକ	-3879
▁ତୁମ୍ଭମାନଙ୍କ	-3880
▁ଆକଳନ	-3881
▁ଆସୁଥିବା	-3882
▁ଯାଇଛନ୍ତି	-3883
▁ମନ୍ତ୍ରଣାଳୟର	-3884
ଡ଼ୁ	-3885
ଡ଼ିଓ	-3886
▁ହାତରେ	-3887
▁ଖୋର୍ଦ୍ଧା	-3888
▁ଭୋଗ	-3889
▁ଶବକୁ	-3890
▁ସମ୍ବିଧାନ	-3891
▁ଦୌ	-3892
▁ନିମ୍ନ	-3893
▁କାର୍ୟ୍ୟ	-3894
▁ପୁଣିଥରେ	-3895
▁ଶିବସେନା	-3896
ୀଯ	-3897
▁ଗୁଣ୍ଡ	-3898
ଗ୍ଧ	-3899
ମେଶ	-3900
▁ଅସୁବିଧାର	-3901
▁ଯୁବକଙ୍କୁ	-3902
000	-3903
▁ଆଫଗ	-3904
ସ୍ପତି	-3905
▁ଗଜପତି	-3906
▁ନିଶ୍ଚ	-3907
▁ଏକାଧିକ	-3908
▁ମଲ୍	-3909
ବେଦନା	-3910
୍ୟାଣ୍ଡ	-3911
▁ଖଣ୍ଡନ	-3912
▁କରାଗଲା	-3913
▁ଯାଉଛନ୍ତି	-3914
ରଣା	-3915
ୁଲ୍	-3916
▁ବିକ୍ରି	-3917
▁ହିତାଧିକାରୀ	-3918
on	-3919
▁ପଠ	-3920
▁ପରୀକ୍ଷ	-3921
ତ୍ରୀ	-3922
▁ଗୁଜୁ	-3923
▁ନିରନ୍ତର	-3924
▁ଦେଖାଦେଇଛି	-3925
ହେି	-3926
▁ତୋ	-3927
▁ପିଆ	-3928
ଭଞ୍ଜ	-3929
▁ସଞ୍ଜୟ	-3930
ରୀଣ	-3931
▁କଟା	-3932
▁ଖଣି	-3933
▁ଜନିତ	-3934
▁ପାଣିରେ	-3935
▁ବେହେରା	-3936
▁ହତ୍ୟାକାଣ୍ଡ	-3937
ୋଜିତ	-3938
▁ମିଳିଥିବା	-3939
▁ଆପଣମାନଙ୍କୁ	-3940
▁ସୂଚନାଯୋଗ୍ୟ	-3941
▁ଅବର	-3942
▁ଗ୍ୟା	-3943
▁ବ୍ୟସ୍ତ	-3944
▁ସାଉ	-3945
▁ପଳାଇ	-3946
ସ୍ଥ୍ୟା	-3947
▁କ୍ଷମା	-3948
▁ବାତିଲ	-3949
▁ୱା	-3950
ଜ୍ଞତା	-3951
▁ଆସିଲା	-3952
▁କାମନା	-3953
▁ଏହିସବୁ	-3954
ଗୁଡ଼ିକରେ	-3955
▁ଧମକ	-3956
▁ସୋସିଆଲ୍	-3957
ଣ୍ଡୋ	-3958
▁ଟ୍ରେନ	-3959
▁ସୁଟିଂ	-3960
ଲଟ	-3961
▁କିଣି	-3962
କାରାତ୍ମକ	-3963
▁ସ୍ୱୀକାର	-3964
▁ବାଚ	-3965
ଭାବିକ	-3966
▁ଏତଲା	-3967
▁ଅନୁଧ୍ୟାନ	-3968
ଫର୍ମ	-3969
ଶ୍ରୀ	-3970
▁ଜେଲ୍	-3971
▁ସଙ୍ଗୀତ	-3972
▁ବିରୁଦ୍ଧରେ	-3973
▁ମହାରାଷ୍ଟ୍ରରେ	-3974
▁ପଢ଼	-3975
▁ବୀର	-3976
▁I	-3977
ଣ୍ଟ୍	-3978
▁ଭାବି	-3979
▁ଛତିଶଗଡ଼	-3980
▁ଦୁର୍ନୀତି	-3981
ମ୍ପି	-3982
▁ମିଳିପାରିନାହିଁ	-3983
▁ରାଷ୍ଟ୍ରମନ୍ତ୍ରୀ	-3984
ଧାସ	-3985
▁କେଜ	-3986
କିଛି	-3987
ହାଣ୍ଡି	-3988
ଷି	-3989
▁କଳ	-3990
ସୁଗୁ	-3991
▁ତୁମେ	-3992
▁ଅଫିସର	-3993
▁ସନ୍ତୋଷ	-3994
▁ପ୍ରଫେସର	-3995
▁ସ୍ଥାନକୁ	-3996
▁ଚୂ	-3997
ଏସଟି	-3998
ରଙ୍କ	-3999
▁ପ୍ରକଳ୍ପର	-4000
ତାପ	-4001
▁ଖୋଜି	-4002
▁ବଢ଼ାଇ	-4003
▁ଲେଖାଏଁ	-4004
▁କେନ୍ଦ୍ରରେ	-4005
ଫରେ	-4006
ବନୀ	-4007
କ୍ସି	-4008
▁ମନୁ	-4009
▁ବିଦ୍ୟା	-4010
▁େ	-4011
▁ଦଳରେ	-4012
▁ପହଁଚି	-4013
▁ବେଙ୍ଗ	-4014
▁ହରିୟା	-4015
କଡା	-4016
▁୧୫	-4017
▁ପିତ	-4018
ଗୁଡିକୁ	-4019
▁ମାସ୍କ	-4020
▁ପଡ଼ିଥିଲା	-4021
▁ବିର	-4022
▁ଯାଉଥିବା	-4023
▁ସାବ୍ୟସ୍ତ	-4024
▁ଅନ୍	-4025
▁ଖୁବଶୀଘ୍ର	-4026
ବିଶେଷ	-4027
▁ସ୍ଵା	-4028
▁ଚାହୁଁଛନ୍ତି	-4029
▁ମହତ୍ୱ	-4030
▁ସିଧାସ	-4031
▁ଜେନା	-4032
▁ସେତେ	-4033
▁ପରିସ୍ଥିତିରେ	-4034
▁ଧା	-4035
▁ଆକାର	-4036
▁ପ୍ରଦେଶର	-4037
▁ନିର୍ବାଚିତ	-4038
▁ମଙ୍ଗ	-4039
▁ବଚ୍ଚନ	-4040
▁ପ୍ରସାର	-4041
▁ସାମର୍ଥ	-4042
▁ଉତ୍ସର୍ଗ	-4043
ଦଶ	-4044
▁ଖ୍ରୀ	-4045
▁ଅବରୋଧ	-4046
▁ପଟେଲ	-4047
▁ରପ୍ତ	-4048
▁ଆକର୍ଷ	-4049
▁ହୋଇପଡ଼ି	-4050
ଆର୍	-4051
▁ଧରିବା	-4052
▁ବୁଦ୍ଧ	-4053
▁ବିପର୍ଯ୍ୟୟ	-4054
▁ଛାତ୍ରଛାତ୍ରୀମାନେ	-4055
ୟମ୍	-4056
▁ଅଦାଲତ	-4057
▁ସିଧାସଳଖ	-4058
▁ପ୍ରତିଯୋଗିତା	-4059
ଲେଞ୍ଜ	-4060
▁ସର୍ବୋଚ୍ଚ	-4061
▁ଜଗତସିଂହପୁର	-4062
ଘାଟ	-4063
ଜାତି	-4064
▁ଦବେ	-4065
▁ସେତିକି	-4066
▁ପଟ୍ଟନାୟକଙ୍କ	-4067
▁ଚରି	-4068
▁ନିର୍ଭର	-4069
▁ଏଯାଏଁ	-4070
▁ତାହାଙ୍କ	-4071
▁ହୋଇଯାଇଥିଲେ	-4072
ସାରଣ	-4073
▁ହୃଦୟ	-4074
▁ପରାସ୍ତ	-4075
▁ସର୍ଚ୍ଚ	-4076
▁ଭଉଣୀମାନେ	-4077
▁ସକାଳେ	-4078
ଷା	-4079
▁ଚେତାବନୀ	-4080
▁ବଢ଼ିବ	-4081
▁ୟା	-4082
▁ଏଥିପ୍ରତି	-4083
ିକାଲ୍	-4084
▁ନିଷ୍ପତି	-4085
▁ସବ	-4086
▁ଲାଗିଲା	-4087
▁ସେମିତି	-4088
▁ପ୍ରଦୂଷଣ	-4089
ୟଂ	-4090
ଣ୍ଟନ	-4091
▁ବାଜ	-4092
▁ରାଓ	-4093
▁ଝାରସୁଗୁ	-4094
▁ନିଯୁକ୍ତ	-4095
▁ଯେକୌଣସି	-4096
▁ବ୍ୟବସାୟିକ	-4097
ବାୟୁ	-4098
▁ସ୍ତର	-4099
▁ବିଶ୍ୱକ	-4100
▁ସୁପାରି	-4101
▁ବାୟୁସେନା	-4102
▁କିଲୋମିଟର	-4103
▁ଆନ୍ଧ୍ରପ୍ରଦେଶ	-4104
▁ଶ୍ରେଣୀ	-4105
▁ଧାନ	-4106
▁ନିଖ	-4107
▁ଯାଏ	-4108
▁ପଦରୁ	-4109
▁ଯୋଗେ	-4110
▁ଅନ୍ୟତମ	-4111
▁ବାହାରେ	-4112
▁ନ୍ୟାୟାଳୟ	-4113
▁ହାରି	-4114
ଡ଼ିକାଲ	-4115
▁ଟାର୍ଗ	-4116
▁ମତଦାନ	-4117
▁ଅଭିଭାବ	-4118
▁ପ୍ରଭାବରେ	-4119
▁କନ୍ଧ	-4120
ାନିସ୍ତାନ	-4121
▁କୋରାପୁଟ	-4122
କ୍ଟୋ	-4123
▁ନିକଟରୁ	-4124
ଲାନି	-4125
▁ଲାଗିଥିଲା	-4126
୍ୟକ	-4127
▁ଯାଏଁ	-4128
▁ସୋନ	-4129
ୋଗ୍ୟ	-4130
▁ଅରବିନ୍ଦ	-4131
▁ମନ୍ତବ୍ୟ	-4132
▁ସମବେଦନା	-4133
▁ପଇ	-4134
କ୍ଷୀ	-4135
ମୂଳକ	-4136
▁ପ୍ରାଚ	-4137
▁ଗମ୍ଭୀର	-4138
▁ଦୈ	-4139
▁ଲୁଣ	-4140
▁ରାଜଧାନୀ	-4141
▁ଓକି	-4142
▁ସାମର୍ଥ୍ୟ	-4143
▁ବିପୁ	-4144
▁ଅଧିବେଶନ	-4145
▁ବାଚସ୍ପତି	-4146
▁ଯିବ	-4147
▁ଡିଜେଲ	-4148
▁ପ୍ରଶାସନିକ	-4149
▁ସଂକ୍ରାନ୍ତରେ	-4150
ୋଶୀ	-4151
▁ନିରା	-4152
▁ଯତ୍ନ	-4153
▁ବିପୁଳ	-4154
▁ଓହ୍	-4155
▁କୌଶଳ	-4156
▁ବୀମା	-4157
▁କହୁଛି	-4158
▁ଭାଷାରେ	-4159
▁ଡୋନାଲ୍ଡ	-4160
ବୋଧନ	-4161
▁ମାର	-4162
▁ସମନ୍ୱ	-4163
ଚାଲି	-4164
ତାବକ	-4165
ଙ୍ଗରେ	-4166
▁ସାର୍ବ	-4167
▁ବିଜୁଳି	-4168
▁କଥାବାର୍ତ୍ତା	-4169
▁ଭୟଭ	-4170
▁ମଧ୍ୟମ	-4171
▁ନିନ୍ଦା	-4172
ଯାବ	-4173
▁ସୁରେଶ	-4174
ଡ଼କୁ	-4175
▁ପ୍ରେରଣା	-4176
▁ମେଡ଼ିକାଲ	-4177
▁ଅଯ	-4178
▁ଧୂ	-4179
▁ବ୍ୟକ୍ତିଙ୍କୁ	-4180
ପୁତ	-4181
▁ଅବି	-4182
ଲଙ୍କା	-4183
▁କଠୋର	-4184
▁କେରଳ	-4185
▁ରୁହନ୍ତୁ	-4186
▁ଜେନେରାଲ	-4187
▁ଆସୁଛନ୍ତି	-4188
ଜନୀ	-4189
ବତୀ	-4190
▁ବର୍ଣ୍ଣ	-4191
▁ନେତୃତ୍ୱରେ	-4192
▁ଅଥବା	-4193
▁ବାକି	-4194
▁ମସି	-4195
▁ଦର୍ଶନ	-4196
▁ଦୁର୍ବଳ	-4197
▁ରଖିଥିଲେ	-4198
▁କର୍ମଚାରୀଙ୍କ	-4199
ଜୁନ	-4200
▁ଜାହାଜ	-4201
▁ବିସ୍ତୃତ	-4202
▁ଡାକ୍ତରଙ୍କ	-4203
ଉନ୍	-4204
▁ନେଲେ	-4205
▁ଉପାଧ୍ୟ	-4206
▁ବ୍ୟୁରୋ	-4207
▁ପ୍ରଶ୍ନର	-4208
କୀ	-4209
ହୃତ	-4210
▁ପଡ	-4211
ୋର୍ସ	-4212
▁ଧାର୍	-4213
▁ବିଦ୍ୟ	-4214
କାମ	-4215
ଭୁତ	-4216
ନାମା	-4217
▁ପିଆଜ	-4218
▁କର୍ମଚାରୀମାନେ	-4219
ରିଂ	-4220
ାଗୁ	-4221
▁ବାସ୍ତବ	-4222
▁ନିର୍ଦ୍ଦିଷ୍ଟ	-4223
ଠିଆ	-4224
▁ନୋଟି	-4225
ସିସିଆଇ	-4226
▁ସେନାର	-4227
▁ପୁଞ୍ଜି	-4228
ବୃତ୍ତ	-4229
▁ତାଲିମ	-4230
▁ଯୁବତୀ	-4231
ୱାର	-4232
▁ଉପଭ	-4233
▁ପଦା	-4234
▁ବସ୍ତୁ	-4235
▁ସାବଧାନ	-4236
▁ନିର୍ମିତ	-4237
▁ବାହା	-4238
▁କହିଲା	-4239
▁ଚରିତ୍ର	-4240
▁ବଲିଉଡର	-4241
▁ହୁଅନ୍ତୁ	-4242
▁କାର୍ଯ୍ୟର	-4243
▁ଯୌ	-4244
▁କଠିନ	-4245
▁ନିର୍ଦ୍ଧାରିତ	-4246
େସନ୍	-4247
ଲମ୍ବନ	-4248
▁ଶବ୍ଦ	-4249
▁ଅର୍ପଣ	-4250
▁ନାରାୟଣ	-4251
▁ଇଣ୍ଡିଆର	-4252
▁ବାଧାପ୍ରାପ୍ତ	-4253
▁କାମରେ	-4254
▁ଶୀତ	-4255
ଯାତ୍ରା	-4256
▁ସୌଭାଗ୍ୟ	-4257
ଏଫ୍	-4258
▁ଆଚ	-4259
▁ନବର	-4260
▁ପରିସ	-4261
▁ପୋର୍ଟ	-4262
ସାଗ	-4263
▁ଗ୍ରୁ	-4264
▁କ୍ୟାମେରା	-4265
ାୟା	-4266
▁ନିଷ୍କ	-4267
▁ବଜେଟ୍	-4268
▁ବ୍ୟବସାୟରେ	-4269
▁ହର	-4270
▁ସନ୍ଧାନ	-4271
କାରୀଙ୍କୁ	-4272
▁ରାଜ୍ୟସଭା	-4273
▁ସମାରୋହରେ	-4274
ଡିଂ	-4275
ିମ୍	-4276
▁ଇଞ୍ଜ	-4277
▁ଟେଲି	-4278
▁ସହରର	-4279
ବ୍ୟାପୀ	-4280
▁କମିଶନ	-4281
▁ଟ୍ୱିଟ	-4282
ଡିପି	-4283
▁ୱେବ	-4284
▁କାଟି	-4285
▁ମାଓ	-4286
▁ରେଡ୍	-4287
▁ମ୍ୟାଚରେ	-4288
or	-4289
୍ତିକ	-4290
▁ଆଇସି	-4291
▁ଉତ୍କ	-4292
▁ଭୟଭୀତ	-4293
▁ନିୟୋଜିତ	-4294
▁ହବୋ	-4295
▁ନେଟୱ	-4296
ର୍ଦ୍ଧନ	-4297
▁ରାଜପୁତ	-4298
▁25	-4299
Name	-4300
▁ବିବର	-4301
▁ବ୍ଲକ	-4302
ଗରେ	-4303
▁ଦୂରେଇ	-4304
▁ଅଜୟ	-4305
▁ପଥର	-4306
କଙ୍କୁ	-4307
▁ଗର୍ଭ	-4308
▁ଦେବାର	-4309
▁ଆମ୍ବୁଲ	-4310
▁ରିଲିଜ୍	-4311
▁ଧାର୍ମିକ	-4312
▁ଆସନରୁ	-4313
▁ସମାଜର	-4314
▁ପରିବାରରେ	-4315
ଲ୍ଯ	-4316
▁ରହ	-4317
▁ମାଶା	-4318
▁ନିବେଦନ	-4319
▁ବିବରଣୀ	-4320
ଯେ	-4321
ଡ଼ାଇ	-4322
▁ଟିମ	-4323
▁ବାମ	-4324
▁ଭୋଟ୍	-4325
▁ଚାହୁଁଛି	-4326
ଢି	-4327
ପୋରେ	-4328
ଫର	-4329
▁ଛୁ	-4330
ବର୍ତ	-4331
▁ଶତ୍ର	-4332
▁ଭିଡ଼ିଓ	-4333
▁ହସପିଟାଲ	-4334
▁ତୁମ୍ଭମାନଙ୍କର	-4335
an	-4336
ଂଜ	-4337
▁ବଦଳ	-4338
▁ସୁଫଳ	-4339
▁ସ୍ୱରାଷ୍ଟ୍ର	-4340
ର୍ବାଦ	-4341
ସିନ୍ଦା	-4342
▁କର୍କଟ	-4343
▁ମିଳିଥାଏ	-4344
▁ଗ୍ରୀ	-4345
▁କେନ୍ଦ୍ରାପଡ଼ା	-4346
୍ୱା	-4347
▁ଦାନ	-4348
▁ବିପକ୍ଷରେ	-4349
▁ନଗ	-4350
▁ଏଠି	-4351
▁କମା	-4352
▁ବାଟ	-4353
▁ଚ୍ୟା	-4354
▁ସନ୍ତୁ	-4355
▁ଉତ୍ସାହ	-4356
▁କନ୍ଧମାଳ	-4357
ଷ୍ପ	-4358
ଚ୍ଛି	-4359
ବାହିତ	-4360
ିକେଟ୍	-4361
▁ଘଟିବ	-4362
▁ପରିବେ	-4363
▁ମେଟ୍ର	-4364
▁କ୍ଷତିଗ୍ରସ୍ତ	-4365
▁ନାଁରେ	-4366
ଅନ	-4367
▁ଗଣମାଧ୍ୟମ	-4368
▁ତ୍ୱ	-4369
▁ମୁକ୍ତି	-4370
ମାନଙ୍କରେ	-4371
▁ବାନାର୍ଜୀ	-4372
▁କରିନାହାନ୍ତି	-4373
ସମ୍	-4374
▁ଆଶୀ	-4375
▁ଅନନ୍ତ	-4376
▁ଡାକ୍ତ	-4377
େଙ୍କାନା	-4378
"""	-4379
▁ଉର୍	-4380
କ୍ରମେ	-4381
▁ସିପି	-4382
▁ବିଜେଡିର	-4383
▁ଶ୍ରୀଲଙ୍କା	-4384
▁ଇଲେ	-4385
▁ଆମଦାନ	-4386
▁ଆରୋଗ୍ୟ	-4387
▁ଭୟଙ୍କର	-4388
▁ପରିମାଣର	-4389
▁ପରିମାଣରେ	-4390
▁ଫୋନ	-4391
ପୁରରେ	-4392
▁ପଦବୀ	-4393
▁କ୍ୟାରି	-4394
▁କପି	-4395
▁ହାର୍	-4396
ଶିକ୍ଷା	-4397
▁ଫାଇଦା	-4398
▁ଠିଆ	-4399
▁ମାଲିକ	-4400
▁ନବରଙ୍ଗପୁର	-4401
▁ଦିଆଯାଉଛି	-4402
▁ଫିଲ୍ମଟି	-4403
▁ସଂସ୍ଥାନ	-4404
▁ହସ୍ପିଟାଲକୁ	-4405
ବାହୀ	-4406
▁ପଠାଯାଇଛି	-4407
▁ପହଞ୍ଚିଛି	-4408
▁ବ୍ୟବସାୟୀ	-4409
▁11	-4410
▁ଗି	-4411
▁ପ୍ରଶାସ	-4412
▁ନିର୍ଦ୍ଧ	-4413
▁ଦୋହ	-4414
▁ଗୁପ୍ତ	-4415
▁ଲଢ଼େଇ	-4416
▁ସଂସଦୀୟ	-4417
▁କ୍ଷୁଦ୍ର	-4418
▁ଚିକିତ୍ସାଳୟ	-4419
େତ୍ୟକ	-4420
▁ବିମାନବ	-4421
ୟୋ	-4422
▁ହକି	-4423
▁ଯୁକ୍ତ	-4424
▁ଆଦିବାସୀ	-4425
▁କୂ	-4426
▁ନୟ	-4427
▁ରଞ୍ଜନ	-4428
▁ଅଘଟ	-4429
▁କଲି	-4430
▁ସିକ	-4431
▁କରାଇବା	-4432
▁କୋର	-4433
▁ଗଲା	-4434
▁ଧରଣର	-4435
ଳତା	-4436
ସ୍ପଷ୍ଟ	-4437
ଚାପ	-4438
▁ବୟସ	-4439
ାସୁ	-4440
ଫିକ୍	-4441
▁କନ୍ୟା	-4442
▁ଟିଭି	-4443
▁ପଦ୍ମ	-4444
▁ଲକ୍ଷଣ	-4445
▁ପର୍ଯ୍ୟଟକ	-4446
ନ୍ସି	-4447
▁ଦବୋ	-4448
କାନ୍ତ	-4449
▁ଆମ୍ଭର	-4450
▁ପ୍ରଚୁର	-4451
▁କଳାହାଣ୍ଡି	-4452
▁ପ୍ରୋତ୍ସାହିତ	-4453
ୈଳୀ	-4454
▁କାଗ	-4455
▁କହେି	-4456
ଯିବାକୁ	-4457
▁ନାଗରିକତା	-4458
▁ଆଫଗାନିସ୍ତାନ	-4459
▁ପାକିସ୍ତାନକୁ	-4460
▁ରଥ	-4461
▁ଆଶୀର୍ବାଦ	-4462
▁ବ୍ୟାଙ୍କର	-4463
▁ଭକ୍ତ	-4464
ାଇଥିଲେ	-4465
▁ଅଟନ୍ତି	-4466
▁ଜାଣନ୍ତି	-4467
▁ନେତାମାନେ	-4468
▁ଲୋକସଭାରେ	-4469
▁କରିଦେଇଛନ୍ତି	-4470
ପଡ଼ା	-4471
▁ପୁରସ୍କୃତ	-4472
▁ଶକ୍ତିଶାଳୀ	-4473
▁କଟକଣା	-4474
▁ନିଖୋଜ	-4475
▁ପେଟ୍ରୋଲି	-4476
▁ସରକାରଙ୍କର	-4477
▁ଓଲ	-4478
▁ମୌଳିକ	-4479
ଗୁଳ	-4480
▁ମନମୋହନ	-4481
▁ଲାଗିଥିବା	-4482
▁ପଡିଛି	-4483
ବୋଧ	-4484
▁ଫର	-4485
▁ଏଯାବ	-4486
▁ପୁନର୍	-4487
▁କହୁଛନ୍ତି	-4488
-20	-4489
▁ପବନ	-4490
▁ଯେତେ	-4491
▁ମାନ୍ୟ	-4492
▁ପ୍ରେତ୍ୟକ	-4493
▁ଦ୍ବିତୀୟ	-4494
ମିତ୍ତ	-4495
▁ସମୁଦାୟ	-4496
▁ଅଘଟଣ	-4497
▁ମୁତାବକ	-4498
▁ସୀମାରେ	-4499
▁ହୋଇସାରିଛି	-4500
▁ଗୌରବ	-4501
▁ଜନସଂ	-4502
▁ବନ୍ଧୁକ	-4503
▁ଅସ୍ପଷ୍ଟ	-4504
▁ସ୍ୱଚ୍ଛତା	-4505
ତ୍ଵ	-4506
୍ୟାସନାଲ	-4507
▁ଜଳବାୟୁ	-4508
▁ବଢ଼ିବାରେ	-4509
▁ବ୍ରହ୍ମପୁର	-4510
ହୋ	-4511
ବିଆଇ	-4512
▁ଥାଇ	-4513
▁ପୃଥ	-4514
▁ଅବଧି	-4515
▁ଓହ୍ଲାଇ	-4516
▁ହୋଇପଡି	-4517
ଯାଇଛନ୍ତି	-4518
▁ପହଞ୍ଚିବା	-4519
▁‘‘	-4520
▁ଭର୍ତି	-4521
ହ୍ନା	-4522
▁ବୋଲିଂ	-4523
▁ହେଉଥିଲା	-4524
▁ଆଦିତ୍ୟନାଥ	-4525
▁ଡାକ	-4526
ଟାପନ୍ନ	-4527
ିନଥିଲେ	-4528
▁ଆଣ୍ଟି	-4529
େଙ୍କାନାଳ	-4530
▁ରାଇ	-4531
▁ପରୀକ୍ଷଣ	-4532
ସ୍ଥ୍ୟାବସ୍ଥା	-4533
▁ସ୍ୱାକ୍ଷରିତ	-4534
▁ବିଧି	-4535
▁ଯିବେ	-4536
▁କରିଦେ	-4537
ନୀତ	-4538
ପୂରଣ	-4539
▁ଅବା	-4540
▁ବଞ୍ଚି	-4541
▁ମିଶାଇ	-4542
▁କରୁଅଛି	-4543
▁ତୃ	-4544
▁ଅଟୋ	-4545
▁ଶତ୍ରୁ	-4546
▁ପ୍ରତାପ	-4547
ଢା	-4548
ଖାନା	-4549
▁ଭରି	-4550
▁ଲାଲ	-4551
▁ସଠିକ	-4552
▁ସେପରି	-4553
ାବୁ	-4554
▁ମୟୂର	-4555
▁ଉନ୍ମୋ	-4556
▁କରିସାରି	-4557
▁ପିଲାମାନେ	-4558
▁ଗ୍ରାମା	-4559
▁କର୍ପୋରେ	-4560
▁ବିସିସିଆଇ	-4561
▁ରାଜନୀତିରେ	-4562
ଏଲ୍	-4563
▁ଆଜ୍ଞା	-4564
ଏହା	-4565
ଣ୍ଣି	-4566
▁ତାପରେ	-4567
▁ଡ଼ାକ୍ତର	-4568
▁ସଫା	-4569
▁2020	-4570
▁ନଥାଏ	-4571
▁ବିୟୋଗ	-4572
▁ଡଲାର	-4573
▁କଥାକୁ	-4574
▁ପାଠ୍ୟ	-4575
▁ନାହାଁନ୍ତି	-4576
▁ହାଇକୋର୍ଟର	-4577
et	-4578
ସୋ	-4579
▁ବହନ	-4580
▁ସ୍ଥାୟୀ	-4581
▁ହସ୍ପିଟାଲ୍	-4582
▁ଭାଗିଦାରୀ	-4583
▁କାର୍ଯ୍ୟକ୍ରମକୁ	-4584
▁2016	-4585
▁ଲଣ୍ଡ	-4586
▁ବାସିନ୍ଦା	-4587
ହିତ୍ୟ	-4588
ାଲୁରୁ	-4589
▁ଅନୁକୂଳ	-4590
▁ବିକାଶର	-4591
ମୃତ	-4592
▁30	-4593
▁ଆଜ	-4594
▁ଆଭ	-4595
ଙ୍କି	-4596
ଞ୍ଚା	-4597
ସଭାପତି	-4598
▁ଭାବନା	-4599
▁ମୋବାଇଲ୍	-4600
▁କରାଯାଇନାହିଁ	-4601
▁ବାଇକ	-4602
▁ନେପାଳ	-4603
▁ଶତାଧିକ	-4604
▁ଓକିଲ	-4605
▁କୋଲକାତା	-4606
▁ନିମିତ୍ତ	-4607
ମୁକ୍ତ	-4608
ଲଭ	-4609
ହାନ	-4610
▁ମସ	-4611
▁ହଠାତ୍	-4612
▁ସପ୍ତାହରେ	-4613
▁ପାକିସ୍ତାନୀ	-4614
▁ବିଧାନସଭାରେ	-4615
▁ବୃଦ୍ଧ	-4616
▁ପ୍ୟାକେ	-4617
▁ଜାତିସଂଘ	-4618
▁କରିପାରନ୍ତି	-4619
▁ଚାଲ	-4620
▁ଆତଙ୍କବାଦୀଙ୍କ	-4621
▁୧୯	-4622
▁ପ୍ରେତ୍ୟକକ	-4623
ସିଦ୍ଧ	-4624
ଦ୍ବାରା	-4625
▁ସହଜରେ	-4626
▁ସମ୍ବୋଧିତ	-4627
▁ବିଦ୍ୟାଳୟର	-4628
ଗୁଆ	-4629
ତ୍ସ	-4630
▁ପର୍ବତ	-4631
▁ସକାଳୁ	-4632
▁ସଂସଦରେ	-4633
▁ବର୍ତ୍ତମାନର	-4634
▁ଶୋଇ	-4635
ଯୋଜନା	-4636
▁ବଙ୍ଗ	-4637
▁ସ୍ୱୟଂ	-4638
▁ସିଂହଙ୍କ	-4639
▁ପରିସ୍ଥିତିକୁ	-4640
ଏଚ	-4641
ିତ୍ବ	-4642
▁ଆଞ୍ଚ	-4643
▁ଜାଣିବାକୁ	-4644
▁କ୍ଷତିପୂରଣ	-4645
▁ଅନ୍ଧ	-4646
▁ମାର୍କ	-4647
କ୍ଷେତ୍ରରେ	-4648
▁କରିଦେଇଥିଲେ	-4649
▁ଜଳି	-4650
▁କନଫରେ	-4651
▁ପରିଣା	-4652
▁ସଠାେରେ	-4653
▁ପ୍ରି	-4654
▁ମାଗି	-4655
▁ଦ୍ୱାର	-4656
▁ହଳ	-4657
▁ସାତ	-4658
ନାଲରେ	-4659
▁ସାରିଛି	-4660
▁ରୋଗୀଙ୍କ	-4661
▁ଶୃଙ୍ଖଳା	-4662
▁ଅଭିଯୁକ୍ତଙ୍କ	-4663
ତ୍ତର	-4664
▁ନଇେ	-4665
ଜିତ	-4666
▁ବୋଲ	-4667
▁ବିସ୍ତାର	-4668
ୟ୍ଯ	-4669
▁ଏଫ	-4670
▁ହିମା	-4671
ର୍ଣ୍ଣା	-4672
▁ଭବିଷ୍ଯ	-4673
ବନରେ	-4674
▁ସାନ	-4675
▁ଯିହୁ	-4676
▁ଉପକୂଳ	-4677
▁ସଚିବା	-4678
▁କହିବାକୁ	-4679
ଏହି	-4680
▁ମହେ	-4681
▁ଷ୍ଟାଡି	-4682
ଙ୍ଗୀ	-4683
ଲେଙ୍ଗ	-4684
▁ଛାଡ଼	-4685
▁ଦଳକୁ	-4686
ଚନ୍ଦ୍ର	-4687
▁ଶ୍ରୀମ	-4688
▁କ୍ୟାପିଟାଲ	-4689
▁ଆଲ	-4690
ଷ୍କାର	-4691
ପାଖ	-4692
ଆଇସି	-4693
▁ଥଣ୍ଡା	-4694
▁ସଭାରେ	-4695
▁ଅନୁଗୁଳ	-4696
▁ପୃଥିବୀ	-4697
▁ବିଜେତା	-4698
ାମୀଣ	-4699
▁ନିଅନ୍ତୁ	-4700
▁ହୋଇନଥିବା	-4701
▁ଉଲ୍ଲେଖନୀୟ	-4702
▁ନ୍ୟୁଜିଲାଣ୍ଡ	-4703
▁ଛାତ୍ରଛାତ୍ରୀଙ୍କୁ	-4704
ଲାମ	-4705
▁ନୟାଗ	-4706
ାନ୍ୱିତ	-4707
▁ନାଇଡୁ	-4708
▁ଚାଲିଥିଲା	-4709
▁ମୁମ୍ବାଇର	-4710
▁ଶିକ୍ଷାନୁଷ୍ଠାନ	-4711
ସୂ	-4712
▁ମଞ୍ଚ	-4713
▁ବ୍ଯକ୍ତି	-4714
▁ସମ୍ବନ୍ଧୀୟ	-4715
ସାବ	-4716
▁13	-4717
▁ଆଇଟି	-4718
▁ପ୍ରତୀ	-4719
▁ଡାକ୍ତରୀ	-4720
ପ୍ରଦ	-4721
▁ସ୍ମୃତି	-4722
▁ସୁପ୍ରିମକୋର୍ଟରେ	-4723
▁ମାତା	-4724
▁ସ୍ବାମୀ	-4725
ରାଜ୍ୟ	-4726
▁କ୍ରି	-4727
▁ଭୁଲି	-4728
▁ଯାଜକ	-4729
ୁଦ୍ରିକ	-4730
▁ଅଲ୍ଲୀ	-4731
▁ଲକ୍ଷା	-4732
▁ପ୍ରକ୍ରିୟ	-4733
ୂର୍ତ୍ତ	-4734
▁ସୈନ୍ଯ	-4735
▁ଦେଖିଲେ	-4736
ଙ୍କେ	-4737
▁100	-4738
▁ଇରାନ	-4739
▁ଚିଦା	-4740
▁ବୟାନ	-4741
▁ସୈନିକ	-4742
ରୁଶାଲ	-4743
ସେନାର	-4744
ଠନର	-4745
ପାଦନ	-4746
ତାମୂଳକ	-4747
ମାତ୍ରା	-4748
▁ଲାଇନ୍	-4749
▁କିଛିଦିନ	-4750
▁ପରିସରରେ	-4751
▁କଏ	-4752
ନ୍ଧନ	-4753
ୃଷ୍ଟ	-4754
▁ଚାହି	-4755
▁ଛୁଟି	-4756
▁ଶରୀରର	-4757
▁ଲଗାତାର	-4758
କାଂ	-4759
ନାମ	-4760
▁ଅଲି	-4761
▁ବିଭ	-4762
▁ଭୂତା	-4763
▁ମୃତକ	-4764
▁ସର୍ଟ	-4765
▁ପୃଷ୍ଠ	-4766
▁ତେଲେଙ୍ଗ	-4767
।'	-4768
▁)	-4769
▁14	-4770
▁ବୁଲି	-4771
▁ଖ୍ରୀଷ୍ଟ	-4772
▁ଫ୍ରାନ୍ସ	-4773
▁ମହେନ୍ଦ୍ର	-4774
▁କନ୍	-4775
▁କୁଆ	-4776
▁ସାମୁଦ୍ରିକ	-4777
▁202	-4778
ଚିତ୍ର	-4779
▁ସ୍ଥଳ	-4780
▁ରୋଗରେ	-4781
▁ଗ୍ରାମରେ	-4782
▁ବୃହତ	-4783
▁ଷ୍ଟି	-4784
▁ଅନ୍ତି	-4785
▁ଫୋର୍ସ	-4786
▁ବାଜପେ	-4787
ବର୍ତ୍ତନ	-4788
▁ଶୁଭକାମ	-4789
▁ସେଥିରୁ	-4790
ଣ୍ତ	-4791
ଷମା	-4792
▁ଫେସ	-4793
▁ରିଜ	-4794
▁ଆଦର୍ଶ	-4795
▁ବିଦ୍ୟୁତ୍	-4796
▁ତାପମାତ୍ରା	-4797
▁କରାଯାଉଥିବା	-4798
ଶେ	-4799
▁200	-4800
▁ମେଡ	-4801
ଯାଉଥିବା	-4802
▁ସରଳ	-4803
▁ଏକମାତ୍ର	-4804
▁ସାହିତ୍ୟ	-4805
▁ଓଜନ	-4806
ଶିଷ୍ଟ	-4807
▁ନାମକ	-4808
▁ଗୁରୁତ୍ବ	-4809
ଶନ	-4810
ଜାତ	-4811
ଥାଉ	-4812
▁ଅନ୍ତିମ	-4813
▁ଲାଗୁଛି	-4814
▁ବ୍ଯବହାର	-4815
ଘନା	-4816
୍ରିକ	-4817
▁କୋଇ	-4818
▁ସଂକେତ	-4819
▁ସମୃଦ୍ଧ	-4820
▁ଗ୍ରାମୀଣ	-4821
ାନ୍ଦ	-4822
▁ପଶି	-4823
ଦାବାଦ	-4824
▁ଆତ୍ମା	-4825
▁ଚାପ	-4826
▁ମିଥ	-4827
▁ପୁସ୍ତକ	-4828
▁ଲକ୍ଷାଧିକ	-4829
୍ଯୁ	-4830
▁ଘରର	-4831
▁ଅନୁପ	-4832
ବାହିନୀ	-4833
▁ଶୁଭକାମନା	-4834
ଯାତ	-4835
ଜୀବନ	-4836
ନ୍ତିତ	-4837
▁ସକାରାତ୍ମକ	-4838
▁ଶୌ	-4839
▁ଖୋଜା	-4840
▁ଭୋଜନ	-4841
▁ହବେେ	-4842
▁ବିବିଧ	-4843
▁ପ୍ରଣାଳୀ	-4844
ୋହର	-4845
▁ଆଇପି	-4846
▁ଆଗରୁ	-4847
▁ଜନସାଧାରଣଙ୍କ	-4848
ମିଟେ	-4849
▁ରବି	-4850
▁ଜିଏସଟି	-4851
▁ଲୋକମାନଙ୍କର	-4852
ଣ୍ଠ	-4853
ରୁଷ	-4854
ାଇଁ	-4855
▁ଛାନ	-4856
▁ମଜବୁ	-4857
▁ସମୟର	-4858
▁କ୍ରମେ	-4859
▁ମିଶ୍ରଣ	-4860
▁ପାଇବାରେ	-4861
▁ତାମିଲନାଡୁ	-4862
ଗୋଳ	-4863
ନ୍ଦ୍ୱ	-4864
କେନ୍ଦ୍ର	-4865
ଣିଆ	-4866
ଷ୍କା	-4867
ାବଳୀ	-4868
▁ଆଗୁଆ	-4869
▁ଭୁଲ୍	-4870
▁ଶାରୀ	-4871
ାପନ	-4872
ିକିଆ	-4873
▁ଜୟନ୍ତୀ	-4874
▁ନିଆଯାଇ	-4875
▁କାଗଜ	-4876
▁ବାକ୍	-4877
▁ମିଡ଼ିଆ	-4878
▁ଅଧ୍ୟକ୍ଷା	-4879
ଥିଲ	-4880
▁ଅମ୍ବ	-4881
▁ଶ୍ରମ	-4882
▁ସାଜି	-4883
▁ସ୍ବତ	-4884
▁କୁମ୍ଭ	-4885
▁ଶାରୀରିକ	-4886
▁ଏମାନଙ୍କୁ	-4887
▁ରିଲିଜ	-4888
▁ପରିଚିତ	-4889
▁ପରିଣାମ	-4890
▁ସ୍ୱରୂପ	-4891
▁ଜଣାପଡିନାହିଁ	-4892
▁ପରାମର୍ଶଦାତା	-4893
▁ବଲ୍	-4894
▁ବଜେଟ	-4895
▁ପାରସ୍	-4896
ଟ୍ରି	-4897
▁ନେତାଙ୍କ	-4898
▁ହୋଇପାରିଛି	-4899
▁ଦେଶବାସୀଙ୍କୁ	-4900
’।	-4901
▁ମାଡ	-4902
▁ଭୋଟର	-4903
କ୍ଷୀରେ	-4904
▁ପକାନ୍ତୁ	-4905
▁A	-4906
୍ୟକ୍ତ	-4907
▁ପଦ୍ଧ	-4908
▁ସେମି	-4909
▁ଲଙ୍କା	-4910
▁ୟିରୁଶାଲ	-4911
▁ମୟୂରଭଞ୍ଜ	-4912
▁ଯୋଗଦେଇଥିଲେ	-4913
ୀଶ	-4914
ଣ୍ଡାର	-4915
ଳ୍ପନା	-4916
▁ଅବଦାନ	-4917
▁ପରିବେଷଣ	-4918
▁ସଚେତନତା	-4919
▁ପରିପ୍ରେ	-4920
ଆଇଟି	-4921
ରାଟର	-4922
▁ଅବହେ	-4923
ଗୁଡିକର	-4924
▁ଦୂରତା	-4925
▁ଶିବିର	-4926
▁ହାତକୁ	-4927
▁କରିଦିଆ	-4928
▁ରହୁଥିବା	-4929
▁କ୍ରିକେଟର	-4930
▁18	-4931
ଡିତା	-4932
ାରୋପ	-4933
▁ଅର୍ଥବ୍ୟବସ୍ଥା	-4934
ଇନ	-4935
ନିଂ	-4936
▁ମଦ	-4937
▁ପାରନ୍ତି	-4938
▁ହୋଇଥିବାରୁ	-4939
▁ରାଜ୍ୟସଭାରେ	-4940
୍ବି	-4941
▁ବରାଦ	-4942
▁ମୁଦ୍ରା	-4943
▁ସବୁକିଛି	-4944
୧୯	-4945
ଡ୍ଡା	-4946
▁ହେଁ	-4947
▁କୃଷ୍ଣ	-4948
▁ହୋଇନି	-4949
ଂଘନ	-4950
▁ଜୀ	-4951
▁ପିଇବା	-4952
▁ଯେଉଁଠି	-4953
▁ଚିଦାମ୍ବର	-4954
▁ଜଣାପଡ଼ିନାହିଁ	-4955
▁ଏଠାକୁ	-4956
▁ଜ୍ଞାପନ	-4957
▁ପୋଷ୍ଟମ	-4958
ଲୋଜି	-4959
▁ଶିଖ	-4960
ନିମ୍ନ	-4961
▁ଝାଡ଼	-4962
▁ମ୍ୟାନ	-4963
▁ମାତ୍ରା	-4964
▁କରିପାରୁ	-4965
▁ହଁ	-4966
ତ୍ଯା	-4967
ବନ୍ଧକ	-4968
୍ୟନ୍ତ	-4969
▁ଭାଗ୍ୟ	-4970
▁ଜଣାପଡ଼	-4971
▁କର୍ତ୍ତବ୍ୟ	-4972
▁ସିଏ	-4973
▁ଜୀବନକୁ	-4974
▁ଷ୍ଟେସନ	-4975
▁ପ୍ରମାଣିତ	-4976
▁ଭବିଷ୍ୟତରେ	-4977
ତୁମ୍ଭେ	-4978
▁ଅବଶ୍ୟ	-4979
▁ପିନ୍ଧି	-4980
▁ପ୍ରଦୀପ	-4981
▁ଢା	-4982
▁ବେସ	-4983
ାଗ୍ରାମ	-4984
▁ଘଟିଲା	-4985
▁ସମୃଦ୍ଧି	-4986
▁ଡଃ	-4987
▁ମଧୁ	-4988
▁ଫୁଟେ	-4989
▁ଲକଡା	-4990
▁ସୁଷମା	-4991
▁ଷ୍ଟାର୍ଟ	-4992
▁୯	-4993
ଅଧି	-4994
▁ସକ	-4995
▁ଆଭି	-4996
ଟଫର୍ମ	-4997
▁ସିହ୍ନା	-4998
▁ବ୍ୟବସ୍ଥାର	-4999
▁ସୁନ୍ଦରଗଡ଼	-5000
▁ବେଙ୍ଗାଲୁରୁ	-5001
ବଲ	-5002
କଥା	-5003
ଚଳିତ	-5004
▁ନାଥ	-5005
▁ବେଳକୁ	-5006
▁ଉତ୍ତରା	-5007
▁ଅନୁଷ୍କା	-5008
▁ସନ୍ଧ୍ୟାରେ	-5009
▁ଗଣମାଧ୍ୟମରେ	-5010
▁ଗୋଗ	-5011
▁ଡିଗ୍ରୀ	-5012
▁ଆକ୍ରାନ୍ତଙ୍କ	-5013
nt	-5014
ଜୋ	-5015
ନିଷ୍ଠ	-5016
▁ମାଲକାନ	-5017
▁ପରିପ୍ରେକ୍ଷୀରେ	-5018
ଆମେ	-5019
ସିବି	-5020
▁ଭିତରୁ	-5021
▁ଷ୍ଟ୍ର	-5022
▁ସିନ୍ଧ	-5023
▁ହିସାବ	-5024
▁ପୀଡିତା	-5025
▁ମେଡିକାଲକୁ	-5026
▁ଆମ୍ବୁଲାନ୍ସ	-5027
▁୫୦	-5028
▁କୋରିଆ	-5029
▁ଚାର୍ଜ	-5030
▁ଅର୍ଜୁନ	-5031
▁ବ୍ରିଟେ	-5032
▁କରୁଥିଲା	-5033
▁ପ୍ରବାସୀ	-5034
ଦଳ	-5035
▁ଏଫ୍	-5036
▁2014	-5037
▁ହୋଟେ	-5038
▁ବର୍ଗର	-5039
▁ପୀଡ଼ିତ	-5040
▁ଉପସଭାପତି	-5041
▁ଦର୍ଶା	-5042
▁ନିଶ୍ଚୟ	-5043
▁ମିଳିପାରିବ	-5044
ସାମ	-5045
▁ଫେସବୁ	-5046
ାତ୍ରାରେ	-5047
▁ମାଓବାଦୀ	-5048
▁ମହାରାଷ୍ଟ୍ରର	-5049
▁ଡ଼ି	-5050
▁ଜେଡି	-5051
▁ବାରଣ	-5052
▁ବାତ୍ୟା	-5053
କ୍ଷେ	-5054
ିକେଟ	-5055
▁କ୍ରମା	-5056
▁ସ୍ମାର	-5057
▁ଆକର୍ଷଣ	-5058
▁ପାରସ୍ପରିକ	-5059
ଶୁର	-5060
▁ଫୁଟ	-5061
▁ଆଇନ୍	-5062
▁ବିଷଯ	-5063
▁ଶାନ୍ତ	-5064
▁ରୋକିବା	-5065
▁ପ୍ରସାରଣ	-5066
▁ଢେଙ୍କାନାଳ	-5067
▁ସମ୍ପର୍କକୁ	-5068
ହୂ	-5069
▁କଟି	-5070
▁ଆମଦାନୀ	-5071
▁ସମାବେଶ	-5072
▁କ୍ରମାଗତ	-5073
▁ପାଇଛନ୍ତି	-5074
▁ନିମନ୍ତ୍ରଣ	-5075
ଟକା	-5076
▁ସଜ	-5077
▁ଆବାସ	-5078
▁ଦେଲା	-5079
▁ଅପମୃତ	-5080
▁ଶରୀରକୁ	-5081
▁ସର୍ବନିମ୍ନ	-5082
ଟିଭ୍	-5083
ନିଆର	-5084
▁ପାକ୍	-5085
▁ସେବେ	-5086
▁ପାଉଛି	-5087
▁ଇସ୍ପାତ	-5088
at	-5089
▁ବିଶାଳ	-5090
▁ପୁଲିସର	-5091
▁ବାନ୍ଧି	-5092
▁ମନୋନୀତ	-5093
▁ଆଞ୍ଚଳିକ	-5094
▁ଯେଉଁଠାରେ	-5095
ଇଓ	-5096
ୟାଲ	-5097
▁କୁଲ	-5098
▁ପାଦୁ	-5099
ମ୍ପରିକ	-5100
▁କମିଟିର	-5101
▁ଲିମିଟେ	-5102
▁ସାହାୟ୍ଯ	-5103
▁ପରିବାରବର୍ଗ	-5104
▁ସୁପ୍ରିମକୋର୍ଟଙ୍କ	-5105
▁ଜଡିତ	-5106
▁ସୁପ୍ରିମ୍	-5107
▁ପ୍ରତିଯୋଗିତାରେ	-5108
ଛେଦ	-5109
ସାୟ	-5110
▁ମିଛ	-5111
▁ଗ୍ରା	-5112
▁ଚୋପ୍ରା	-5113
▁ସଡକ	-5114
▁ଶରୀରରେ	-5115
▁କାର୍ଯ୍ୟକ	-5116
ଶାସ	-5117
▁ଜଳସେ	-5118
ାନ୍ତରିତ	-5119
▁ଏନସିପି	-5120
▁ସିନେମାରେ	-5121
▁ମୁମ୍ବାଇରେ	-5122
▁ସେନେଇ	-5123
▁ସେଭଳି	-5124
▁ସଫଳତାର	-5125
▁ଶିଳ	-5126
ଡ଼ାନ୍ତ	-5127
ଯାଇଥାଏ	-5128
▁ଯୋଗ୍ୟ	-5129
▁ସମର୍ପିତ	-5130
▁କ୍ଷେତ୍ରକୁ	-5131
▁ସ୍ବତନ୍ତ୍ର	-5132
ନେତା	-5133
୍ୟାର	-5134
▁ଦୀପକ	-5135
ର୍ଯ୍ୟା	-5136
▁ସଂସଦର	-5137
▁ଜନଜାତି	-5138
▁ନୌସେନା	-5139
▁ଭୂତାଣୁ	-5140
▁ମାଲକାନଗିରି	-5141
▁ଅପ୍	-5142
▁ଉପହାର	-5143
▁ଦୁର୍ଘଟଣାର	-5144
▁ଚିତ	-5145
▁ଅଭିଭା	-5146
▁ଗୃହରେ	-5147
▁ପଞ୍ଚାୟତ	-5148
▁ବ୍ଲ	-5149
▁ଟିକେ	-5150
▁ଥାନାକୁ	-5151
ୀକ	-5152
ାନକ	-5153
▁କହିବ	-5154
▁ସହରା	-5155
▁ଅଧିନିୟ	-5156
▁ନିର୍ଯାତ	-5157
▁କରିଥିବାରୁ	-5158
▁ବ୍ୟବସ୍ଥାରେ	-5159
କ୍ଟ୍ର	-5160
▁ଉଜ୍ଜ	-5161
୍ୟନ୍ତରୀଣ	-5162
ଆରୀ	-5163
,000	-5164
▁ଷ୍ଟାର	-5165
ାନ୍ତ୍ରିକ	-5166
▁ଦିନିକିଆ	-5167
▁ଦିଆଯାଇଥିବା	-5168
ଳ୍କ	-5169
▁ମାଛ	-5170
▁କରିଅ	-5171
▁ବକ୍ତ	-5172
▁ଭରସା	-5173
▁ଭାଇରସ	-5174
▁ଅବଲମ୍ବନ	-5175
▁ଅଭିଭାଷଣ	-5176
▁ଉନ୍ମୋଚନ	-5177
▁ଆସନ୍ତାକାଲି	-5178
ୂହ	-5179
ଟିଆ	-5180
▁ଚୋରି	-5181
▁ଭଟ୍ଟ	-5182
▁ଏକତ୍ର	-5183
▁ରାଜସ୍ୱ	-5184
▁ମୋଦୀଙ୍କୁ	-5185
▁ପ୍ଲାଟଫର୍ମ	-5186
▁ଏଯାବତ୍	-5187
ହିକ	-5188
▁ରମେଶ	-5189
▁କପୁରଙ୍କ	-5190
▁ହସ୍ତକ୍ଷେପ	-5191
ସଚ	-5192
ଟର୍	-5193
▁ନିଅ	-5194
▁ଦେବୀ	-5195
▁ବରଗଡ଼	-5196
▁ମିତ୍ର	-5197
▁ସଙ୍କଟ	-5198
▁ସମିତି	-5199
▁ସ୍ତମ୍ଭ	-5200
▁ସହାୟତାରେ	-5201
-2	-5202
▁24	-5203
▁ଗେ	-5204
ନ୍ଧି	-5205
▁ପୂଜ	-5206
▁ସ୍ନ	-5207
▁କର୍ଣ୍ଣ	-5208
▁କୁହାଯାଏ	-5209
▁ଋଷ	-5210
▁...	-5211
ିତ୍ରୀ	-5212
▁ଖାତା	-5213
▁କାଳରେ	-5214
▁ଅର୍ଥାତ	-5215
ୀନା	-5216
▁ଜେଟ	-5217
▁ଫୋଲ	-5218
▁ଯାହାଦ୍ୱାରା	-5219
ଏକ	-5220
ଲାସ	-5221
ବାହନ	-5222
▁ତନା	-5223
▁ପଛକୁ	-5224
ବର୍ଣ୍ଣ	-5225
▁ଆବେଦନକୁ	-5226
▁ଚିନ୍ତିତ	-5227
▁ନିର୍ଦ୍ଧାରଣ	-5228
ୱାଇ	-5229
▁ପେନ	-5230
▁ଅଫିସ	-5231
▁ସୁନୀ	-5232
▁ଉପାଧ୍ୟକ୍ଷ	-5233
ସାଗର	-5234
▁ଟିଏ	-5235
▁ଘଟାଇ	-5236
▁ବଢିବାରେ	-5237
▁ନାନା	-5238
▁ବର୍ତ	-5239
▁ମୁକେଶ	-5240
▁ଲକ୍ଷ୍ମ	-5241
▁ଦେହାନ୍ତ	-5242
▁ପ୍ରତିଦ୍ୱ	-5243
▁ଚ୍ୟାଲେଞ୍ଜ	-5244
▁ବାଧ୍ୟତାମୂଳକ	-5245
ହାଣ	-5246
▁ଚାଇ	-5247
▁୧୦୦	-5248
ପୁରୁଷ	-5249
▁ଟିକା	-5250
▁ଇମ୍ରାନ	-5251
▁ରିଜର୍ଭ	-5252
▁ପହଞ୍ଚିଥିଲା	-5253
▁ହୋଇପାରନ୍ତି	-5254
ଧୁରୀ	-5255
▁ରୁଷ	-5256
▁ଲଗାଣ	-5257
▁ଯୁଗ୍ମ	-5258
▁ସମସ୍ତଙ୍କର	-5259
▁ଜର୍	-5260
▁ନିତ	-5261
▁ନେଉ	-5262
ନାହାଁନ୍ତି	-5263
▁ମାଳ	-5264
▁ଧୋନି	-5265
▁ନାରୀ	-5266
▁ସ୍କୁଲ୍	-5267
▁ତାହାଙ୍କୁ	-5268
):	-5269
▁ବୋଧ	-5270
▁ଠାକୁ	-5271
▁ବୃକ୍ଷ	-5272
▁ଖବରପାଇ	-5273
▁ବିଭାଗକୁ	-5274
▁ଚକ	-5275
▁ସଭ୍ୟ	-5276
▁ଅଞ୍ଚଳକୁ	-5277
▁କାଉ	-5278
ନ୍ସିଂ	-5279
▁ସାମ୍ନା	-5280
▁ଲୋକଙ୍କର	-5281
▁ପେଟ୍ରୋଲିୟମ	-5282
ୁକ	-5283
ହୋଇ	-5284
▁ହୁଏତ	-5285
▁ସେଣ୍ଟ	-5286
▁ଏହିଭଳି	-5287
▁ତନାଘନା	-5288
▁କରିବାରୁ	-5289
▁ନିର୍ମାତା	-5290
▁ଚିନ୍ତାଧାରା	-5291
ସଭାର	-5292
▁ଧରା	-5293
▁ପ୍ରମୋ	-5294
▁ବ୍ରିକ୍ସ	-5295
▁ବିଳମ୍ବିତ	-5296
▁ପ୍ରାଥମିକତା	-5297
ଧ୍ଯ	-5298
ଲୁଗୁ	-5299
▁କାନ	-5300
▁ଏସପି	-5301
▁ତ୍ୱର	-5302
▁ସାହି	-5303
▁ପ୍ରକଟ	-5304
▁ଯନ୍ତ୍ରଣା	-5305
▁ଯୁବତୀଙ୍କ	-5306
▁ଆଭ୍ୟନ୍ତରୀଣ	-5307
▁ଅଧିକାରୀଙ୍କୁ	-5308
ଶୂ	-5309
ର୍ବ	-5310
▁ଏପ୍ର	-5311
▁ଭାଷଣ	-5312
▁ଓଡ଼ିଆ	-5313
▁ଟିକେଟ	-5314
▁ମାଧ୍ୟ	-5315
▁ପ୍ରସିଦ୍ଧ	-5316
▁କାର୍ଯ୍ୟକୁ	-5317
▁ସ୍ୱାସ୍ଥ୍ୟାବସ୍ଥା	-5318
▁ତୀ	-5319
▁ପିସିସି	-5320
▁ଅପରେସନ୍	-5321
▁ଅପମୃତ୍ୟୁ	-5322
▁କରିନାହିଁ	-5323
▁ପହଞ୍ଚିଥିଲେ	-5324
▁ହସି	-5325
▁କ୍ଷତ	-5326
▁ମଲ୍ଲିକ	-5327
▁ବର୍ତମାନ	-5328
▁ଆଭିମୁଖ୍ୟ	-5329
▁'%	-5330
ମ୍ବୁ	-5331
ମ୍ଭବ	-5332
▁ଡାକି	-5333
▁ଯେମିତି	-5334
▁ଗୁଜୁରାଟ	-5335
▁କ୍ୱ	-5336
ଷ୍ମାନ	-5337
▁ବାଦ୍	-5338
▁ଗୁଳିମା	-5339
▁ଦୁନିଆର	-5340
▁ମଧ୍ଯରୁ	-5341
▁ରନ୍	-5342
▁ଲାଠି	-5343
▁ସଠିକ୍	-5344
ସଦାପ୍ରଭୁ	-5345
▁ପାରମ୍ପରିକ	-5346
ଷିତ	-5347
▁ଠା	-5348
▁ଢ଼	-5349
▁ସୂର୍	-5350
▁ଅଧ୍ୟା	-5351
▁ଏବେବି	-5352
▁ମୃତ୍ଯୁ	-5353
▁ସ୍ୱାର୍ଥ	-5354
ଳାରେ	-5355
▁କ୍ଲ	-5356
▁ଅତୀତ	-5357
▁ଶିଳାନ	-5358
▁ପଡିଥିଲା	-5359
▁ମୁଣ୍ଡରେ	-5360
▁ନ୍ୟାସନାଲ	-5361
▁ଦୁର୍ବୃତ୍ତ	-5362
ଭୂତି	-5363
ର୍ଟମ	-5364
ବଶ୍ୟକ	-5365
▁ପଇସା	-5366
▁ଲଢ଼ି	-5367
▁ସିରିଜ୍	-5368
▁ଟାର୍ଗେଟ	-5369
ଗୃହ	-5370
▁୧୧	-5371
▁ଚାମ	-5372
▁ହାତୀ	-5373
ଣାସ୍ତ୍ର	-5374
▁ଚାମ୍ପି	-5375
▁ଚାହିଦା	-5376
କାରୀମାନେ	-5377
▁ବିଜେଡ଼ି	-5378
▁ପାକିସ୍ତାନରେ	-5379
▁ନୃତ	-5380
ିବଦ୍ଧ	-5381
▁ଆଦାନ	-5382
▁ପୋଷଣ	-5383
▁ଉପୁଜି	-5384
▁ଆମେରିକୀୟ	-5385
▁ମହିଳାମାନେ	-5386
ପାଲ	-5387
▁ଗୋଟେ	-5388
▁ଅଭ୍ୟାସ	-5389
▁ଜଣାଇବା	-5390
▁ଚାଷୀଙ୍କୁ	-5391
▁ଚିନ୍ତାରେ	-5392
▁ଭିଟାମିନ୍	-5393
▁ଉପସ୍ଥିତିରେ	-5394
କ୍ୟ	-5395
ଣାତ୍ମକ	-5396
ବ୍ୟତୀତ	-5397
▁ଉପକୃତ	-5398
▁ମଜବୁତ	-5399
▁କେଜ୍ରି	-5400
▁ସଶକ୍ତିକରଣ	-5401
▁ସୁରକ୍ଷାକର୍ମୀ	-5402
▁ପାଗ	-5403
▁ମୁହ	-5404
ଦ୍ଦାର	-5405
re	-5406
ବାଟ	-5407
▁ମାତ	-5408
▁କଡ଼ାକ	-5409
▁ସଂଗ୍ରାମ	-5410
ଆନ	-5411
େସ୍	-5412
▁ଭୀ	-5413
ଜେଡି	-5414
▁ଯୌନ	-5415
▁ସୁର	-5416
▁କାବୁ	-5417
▁ଶାସକ	-5418
▁ସ୍ଵାସ୍ଥ୍ୟ	-5419
▁ତମ	-5420
▁ଯୋଡି	-5421
▁କ୍ଷୀର	-5422
▁ସଂପାଦକ	-5423
▁ରାଷ୍ଟ୍ରର	-5424
▁ଘୃ	-5425
▁ଚକ୍ର	-5426
▁ଟୁଇଟ୍	-5427
▁ପାଲଟା	-5428
▁ଉଦବୋଧନ	-5429
▁ରାୟଗଡ଼ା	-5430
▁ମହତ୍ୱପୂର୍ଣ୍ଣ	-5431
▁କଥ	-5432
▁ସଦର	-5433
ଅଧିନାୟକ	-5434
▁ଏଠାକାର	-5435
▁ବିୟୋଗରେ	-5436
▁ଯାନବାହନ	-5437
▁ପ୍ରତିରୋଧ	-5438
▁ଶିଳାନ୍ୟାସ	-5439
ପଟ	-5440
ସାରେ	-5441
▁ଅଫିସରେ	-5442
▁ନିରଞ୍ଜନ	-5443
▁ଅଗ୍ନିକାଣ୍ଡରେ	-5444
ପନ୍	-5445
▁ଉଠା	-5446
▁ଗଙ୍ଗା	-5447
▁ବିତରଣ	-5448
▁ବୁଝାସୁ	-5449
▁ସୂତ୍ରରୁ	-5450
▁ଡାଇ	-5451
▁ହିତ	-5452
▁ପାଦୁକ	-5453
▁ବଦଳାଇ	-5454
▁ମାଗଣା	-5455
▁ଜନ୍ମଦିନ	-5456
ମଳ	-5457
ଷ୍ଟମ	-5458
▁ଅପର	-5459
▁ଟ୍ବି	-5460
▁ମିଲି	-5461
▁ମେଟ୍ରୋ	-5462
▁ସ୍ୱାଭାବିକ	-5463
▁ଡାଟା	-5464
▁କୋଇଲା	-5465
▁ତେଲୁଗୁ	-5466
▁ଇତିହାସରେ	-5467
▁ଆମ୍ଭମାନେେ	-5468
ଣରେ	-5469
ଣିତ	-5470
▁ଦିନର	-5471
▁ମାନି	-5472
▁ରାଉତ	-5473
ତିକ୍ରମ	-5474
▁ଇନଷ୍ଟ	-5475
▁ପରାଜୟ	-5476
▁ଆହତଙ୍କ	-5477
▁ଭାଇରସ୍	-5478
▁ସମାପ୍ତ	-5479
▁ନେଇଥିବା	-5480
▁ଫିଲ୍ମକୁ	-5481
ଲେଟ	-5482
ସମା	-5483
▁ଆକ୍	-5484
▁ଆଗତ	-5485
▁ପ୍ଲ	-5486
▁ଗାଁକୁ	-5487
▁ପରିସର	-5488
▁ପଠାଇବା	-5489
▁ହୋଇପାରୁ	-5490
▁ଚୂଡ଼ାନ୍ତ	-5491
▁ବଲାଙ୍ଗିର	-5492
▁ବୁଝାସୁଝା	-5493
▁ଚର୍ଚ୍ଚାରେ	-5494
▁କର୍ମଚାରୀଙ୍କୁ	-5495
▁ଗାଁର	-5496
ତ୍ତ୍ୱେ	-5497
▁ବାକ୍ଯ	-5498
▁ହେଉଥିଲେ	-5499
▁ବର୍ଣ୍ଣନା	-5500
ଜାଇ	-5501
▁16	-5502
ପ୍ରୀ	-5503
▁ଦାମ	-5504
▁ଖାନଙ୍କ	-5505
▁ଆଣିଛନ୍ତି	-5506
▁ହୋଇନଥିଲା	-5507
ଶୟ	-5508
▁ଭାରି	-5509
▁ଯାତାୟତ	-5510
ସିଲ	-5511
ବ୍ରା	-5512
▁ଅଜିତ	-5513
▁ବ୍ୟବହୃତ	-5514
▁ଲଦା	-5515
▁ରଣନୀତି	-5516
▁ସଂଯୁକ୍ତ	-5517
▁ଇଞ୍ଜିନିୟ	-5518
କେଲ	-5519
ମୁନା	-5520
▁ରକ୍ଷ	-5521
କ୍ଟୋବର	-5522
ଚାଲିଛି	-5523
▁ସ୍ୱର୍ଣ୍ଣ	-5524
ତକୁ	-5525
▁ଚାଷୀମାନେ	-5526
ଖୁ	-5527
ହୁଏ	-5528
ଦଣ୍ଡ	-5529
ୟାର୍	-5530
ନ୍ନାଥ	-5531
▁ବସ୍ତ୍ର	-5532
▁ସଂରକ୍ଷିତ	-5533
▁ପ୍ରତ୍ୟକ୍ଷ	-5534
▁ମେଗା	-5535
ର୍ଦ୍	-5536
▁ହାଉ	-5537
▁ମରାମ	-5538
ନ୍ଦିରା	-5539
▁ଜରୁରି	-5540
ଛେ	-5541
▁ହଟ	-5542
▁ପୋଖ	-5543
▁ଷଡ଼	-5544
▁ଏହାଛଡ଼ା	-5545
▁ପ୍ରବଳରୁ	-5546
▁ଚିକିତ୍ସାଳୟକୁ	-5547
▁ଶୂ	-5548
▁ଜଟି	-5549
▁ଲଘୁ	-5550
ୋକ୍ତା	-5551
▁ବାବା	-5552
▁ହେତୁ	-5553
▁ଘଣ୍ଟା	-5554
▁ରଖିବେ	-5555
▁ଅଧିବେଶନରେ	-5556
▁ଭୁବନେଶ୍ବର	-5557
▁ହାଇକୋର୍ଟରେ	-5558
ଦୂର	-5559
ଲାଲ	-5560
▁ବିଏସ	-5561
ଶସ୍ତ୍ର	-5562
▁କ୍ୟାପଟେ	-5563
▁ନିର୍ବାହ	-5564
▁ପରସ୍ପରକୁ	-5565
▁ଦେବେନ୍ଦ୍ର	-5566
ଓ୍ୱ	-5567
ୋଜି	-5568
କ୍କର	-5569
ବିଭାଗ	-5570
▁ଝଟକା	-5571
▁ସମ୍ଭା	-5572
▁ସମାଜରେ	-5573
▁ସମ୍ପନ୍ନ	-5574
▁ବାସ୍ତବରେ	-5575
▁ମେଡିକାଲ୍	-5576
ମୁଖ୍ୟମନ୍ତ୍ରୀ	-5577
▁ଜନସାଧାରଣଙ୍କୁ	-5578
ଡାଇ	-5579
▁କୁଳ	-5580
ନିର୍ଭର	-5581
▁ଇନ୍ଦିରା	-5582
▁ଅନ୍ତର୍ଭୁକ୍ତ	-5583
ଡ଼ର	-5584
▁ଛୁଇଁ	-5585
ପାରିନି	-5586
▁ମରାମତି	-5587
▁ପାଇଥିବା	-5588
▁ହରିୟାଣା	-5589
▁ପୌ	-5590
▁ମନୋଜ	-5591
▁ମେହେ	-5592
▁ଉତ୍ସାହିତ	-5593
▁କଡ଼ାକଡ଼ି	-5594
▁କରିଦେଇଛି	-5595
▁ପ୍ରତ୍ୟାହାର	-5596
ଜିଲ	-5597
ଯୋଗୁ	-5598
ର୍ଲା	-5599
▁ସିଇଓ	-5600
▁ଇନ୍ଧନ	-5601
▁ଦୟାକରି	-5602
▁ପ୍ରାରମ୍ଭିକ	-5603
ସନର	-5604
ହ୍ୟ	-5605
▁ବାଷ୍ପ	-5606
▁ମନୁଷ୍ଯ	-5607
▁ଶିକ୍ଷୟ	-5608
▁ୱେବସାଇ	-5609
▁ପ୍ୟାକେଜ	-5610
ନଥାଏ	-5611
ଆସିଛି	-5612
▁ସ୍ଥଗ	-5613
ପ୍ରକାଶ	-5614
▁ଅର୍ଜନ	-5615
ୋତି	-5616
▁କାଠ	-5617
ବେଳକୁ	-5618
▁ଅପହରଣ	-5619
▁ଧାରଣା	-5620
▁ବୁଦ୍ଧି	-5621
▁କେନ୍ଦ୍ରର	-5622
▁କ୍ୟାବିନେଟ୍	-5623
▁ମନ୍ତ୍ରୀଙ୍କ	-5624
▁ପତା	-5625
▁ନୃତ୍ୟ	-5626
▁କୁମାରଙ୍କ	-5627
▁ସମ୍ମୁଖରେ	-5628
▁ମିଳିନଥିଲା	-5629
୍ବଂ	-5630
▁ଗହ	-5631
▁ଏମଏସ	-5632
▁ଫେରାଇ	-5633
.5	-5634
▁ଯଶ	-5635
ମାନା	-5636
▁କାଲି	-5637
▁ପୋଡି	-5638
▁ବିଭା	-5639
▁ଲାଗିବ	-5640
▁ତ୍ରିପା	-5641
▁ବିହାରୀ	-5642
▁ପ୍ରସନ୍ନ	-5643
▁ପ୍ରକାଶିତ	-5644
▁ଝାରସୁଗୁଡ଼ା	-5645
ଯିବେ	-5646
ଶୁଣା	-5647
▁ବୃଷ	-5648
▁ଅଶ୍ୱ	-5649
▁ପିଛା	-5650
▁ଚାହେଁ	-5651
▁ଅଗ୍ରଗତି	-5652
▁ପ୍ରାଚୀନ	-5653
ୋଧ୍ୟ	-5654
ବସ୍ତୁ	-5655
▁ୱିଣ୍ଡୋ	-5656
▁ଅବସ୍ଥିତ	-5657
▁ସାର୍ବଜନୀ	-5658
▁ଆକାଉଣ୍ଟରେ	-5659
▁ଉତ୍ତ୍ୟକ୍ତ	-5660
ଦ୍ଦିକ	-5661
ବକ୍ତା	-5662
୍ୟାରେ	-5663
▁ଅଜଣା	-5664
▁ବାଟରେ	-5665
▁ଜଳସେଚନ	-5666
▁ପୂର୍ବା	-5667
ଫ୍ଟ	-5668
ୀଦାର	-5669
▁ଭବନ	-5670
▁ଦେଇଥାଏ	-5671
▁ଖାଇବାକୁ	-5672
▁ମାର୍ଚ୍ଚ	-5673
▁ଯୋଗଦେବେ	-5674
ଣୀର	-5675
ଦୂତ	-5676
ଦେବା	-5677
▁ଚାମଚ	-5678
▁ପଦ୍ଧତି	-5679
▁ଭିଡିଓକୁ	-5680
▁ପାରିନାହିଁ	-5681
ଭର୍	-5682
▁ଯାତାୟ	-5683
▁ସାମିଲ୍	-5684
ସ୍ୱା	-5685
▁ଗୋଆ	-5686
▁ଆଡ଼କୁ	-5687
▁ପାଇଥିଲେ	-5688
▁ଅସ୍ତ୍ରଶସ୍ତ୍ର	-5689
ମଙ୍କ	-5690
ାଗାର	-5691
▁ଏଲ୍	-5692
▁ଜ୍ୟ	-5693
▁ହର୍ଷ	-5694
▁ଅଧିନିୟମ	-5695
▁ଜନସଂଖ୍ୟା	-5696
▁ସର୍ଦ୍ଦାର	-5697
▁ଅଧ୍ୟକ୍ଷତା	-5698
ୱେ	-5699
ଳିବ	-5700
▁40	-5701
ଶଙ୍କର	-5702
▁ଧ୍ବଂ	-5703
▁ହତ୍ଯା	-5704
▁ପରିଷଦର	-5705
▁ସରକାରରେ	-5706
▁କୃତଜ୍ଞତା	-5707
▁ଦୁହିଁଙ୍କ	-5708
▁ପୋଷ୍ଟମର୍ଟମ	-5709
▁ବୁଝାମଣାପତ୍ର	-5710
୍‍	-5711
ପୁରର	-5712
▁ଛୁଆ	-5713
▁ପୋଷା	-5714
ଯନ୍ତ୍ର	-5715
▁ମିଡ଼ିଆରେ	-5716
▁ତାଳ	-5717
▁ବୋଲର	-5718
▁ସଞ୍ଚ	-5719
ାନୁମାନ	-5720
▁ପ୍ରତିଶ	-5721
▁ସର୍ତ୍ତ	-5722
▁ଗର୍ଭବତୀ	-5723
▁ଆୟୁଷ୍ମାନ	-5724
▁ଉପଭୋକ୍ତା	-5725
ସିର	-5726
▁ଆୟତ	-5727
▁ତେଜ	-5728
▁ଦଳୀୟ	-5729
ସ୍ତରରେ	-5730
▁ତୁଲାଇ	-5731
▁ଦିବସରେ	-5732
▁ସଚିବାଳୟ	-5733
▁ସ୍ୱାକ୍ଷର	-5734
▁ନିର୍ଯାତନା	-5735
▁ସମ୍ପର୍କିତ	-5736
▁ୟାଇ	-5737
▁ଏକତା	-5738
▁ଅନୁସୂ	-5739
▁ଇଂରାଜ	-5740
▁ଅଯୋଧ୍ୟ	-5741
▁ଓଡିଶାରେ	-5742
▁ଯୋଗ୍ୟତା	-5743
ଆସ	-5744
ମ୍ପର	-5745
▁ଦିନିଆ	-5746
▁ଏଜେନ୍ସି	-5747
▁ଇଲେକ୍ଟ୍ର	-5748
ରାରେ	-5749
▁ଅମର	-5750
▁ଗଣେଶ	-5751
▁ୱାର୍	-5752
▁ସେସବୁ	-5753
▁ଥି	-5754
▁କ୍ରାଇ	-5755
ନିର୍ବାଚ	-5756
▁ପକ୍ସ୍ଟ	-5757
▁ପିଲାଙ୍କ	-5758
▁ସ୍ୱାସ୍ଥ୍ୟସେବା	-5759
ଓୟୁ	-5760
ପଡା	-5761
▁ଲାଇନ	-5762
▁ଅର୍ଥାତ୍	-5763
▁ବୋମା	-5764
▁ରୋଗର	-5765
▁ସ୍ନା	-5766
▁ବେସାମ	-5767
▁ଉଲ୍ଲଂଘନ	-5768
▁ନୁହନ୍ତି	-5769
▁ମାନଙ୍କର	-5770
▁ପୂର୍ବାନୁମାନ	-5771
ଲାକ	-5772
▁ପାଲଟିଛି	-5773
▁ଥିବାବେଳେ	-5774
ଲକୁ	-5775
ଟ୍ଟା	-5776
▁କୁକୁ	-5777
▁କ୍ରୟ	-5778
▁ଦତ୍ତ	-5779
▁ହାଜର	-5780
ଥିଲାଗି	-5781
▁ଦ୍ବାର	-5782
▁ବନ୍ଦୀ	-5783
▁ଯେତିକି	-5784
ପୂର	-5785
▁ମଡ	-5786
ଏଣ୍ଟ	-5787
▁ନୀଳ	-5788
▁ତଳକୁ	-5789
▁ସାଧନ	-5790
▁ବିକ୍ରମ	-5791
▁କ୍ୟାମ୍ପ	-5792
▁ବ୍ୟବଛେଦ	-5793
ପିଏଫ	-5794
▁ଜଟିଳ	-5795
ବେକ୍ଷଣ	-5796
▁ଅରୁଣା	-5797
▁ସଙ୍ଗଠନ	-5798
▁ସ୍ୱରାଜ	-5799
ଉଣ୍ଡ	-5800
ଟେରା	-5801
▁ଡକା	-5802
▁ଆଶ୍ର	-5803
▁ନିରବ	-5804
▁ସହମତି	-5805
▁ସଂଖ୍ୟକ	-5806
▁ଅକ୍ଟୋବର	-5807
ରାଷ୍ଟ୍ରୀୟ	-5808
▁ଚରିତ୍ରରେ	-5809
▁ସଙ୍କଟାପନ୍ନ	-5810
କୁଳ	-5811
▁ବଂଚ	-5812
▁କବଳେ	-5813
▁ଦେଖୁ	-5814
▁ଧିରେ	-5815
▁ମୋହନ	-5816
▁ଆତଙ୍କୀ	-5817
▁ଓଡିଶାର	-5818
▁ଲକ୍ଷରୁ	-5819
▁ବେସାମରିକ	-5820
▁ଯାତ୍ରୀଙ୍କ	-5821
୍ଯା	-5822
ଲେଣି	-5823
୍ୟାଗ	-5824
▁ପରଦା	-5825
▁ବକ୍ସ	-5826
▁ସମ୍ପଦ	-5827
ଥାଆନ୍ତି	-5828
▁ତିନିଜଣ	-5829
▁ପାଣ୍ଡେ	-5830
▁ଯାତାୟାତ	-5831
▁ଉତ୍ତରପ୍ରଦେଶର	-5832
ଂଜନ	-5833
ଖ୍ୟାନ	-5834
▁ଧ୍ବଂସ	-5835
▁ମଜଭୁତ	-5836
▁ବଳିଦାନ	-5837
▁ରଖିଥିବା	-5838
▁ଶ୍ରୀନଗର	-5839
▁ପ୍ରମାଣପତ୍ର	-5840
ଟିକ	-5841
▁ମଇ	-5842
ଜେପି	-5843
▁ପାସ	-5844
▁ବଜ୍ର	-5845
▁ରହୁଥିଲେ	-5846
▁ଲାଭଦାୟକ	-5847
▁ପ୍ରସଙ୍ଗକୁ	-5848
▁ଆତ୍ମନିର୍ଭର	-5849
▁ପୀଡ଼ିତାଙ୍କ	-5850
▁ସଦାପ୍ରଭୁଙ୍କର	-5851
▁17	-5852
▁ଘୋ	-5853
▁ନକରି	-5854
▁ପୁଲୱ	-5855
▁ପାୱାର	-5856
▁ରହସ୍ୟ	-5857
▁ବ୍ୟାଟ୍	-5858
▁ଉଚ୍ଚସ୍ତରୀୟ	-5859
ଦ୍ଯ	-5860
ବାୟ	-5861
ଚନାରେ	-5862
▁ପ୍ଲେ	-5863
▁ଅଭିନବ	-5864
▁ତକ୍ସ୍ଟ	-5865
▁ବିହାରର	-5866
▁ଯୁକ୍ତି	-5867
▁ନେଉଛନ୍ତି	-5868
ଆମ୍ଭ	-5869
ାନାହିଁ	-5870
▁ଆଖପାଖ	-5871
▁ପଞ୍ଚମ	-5872
▁ସର୍ଭି	-5873
ପୂର୍ବରୁ	-5874
▁ପାର୍ଶ୍ୱ	-5875
▁ସେତବେେଳେ	-5876
େଲର	-5877
▁ରାଲି	-5878
▁ଅନୁସରଣ	-5879
▁ସ୍ଥଗିତ	-5880
▁ସ୍କୁଲରେ	-5881
▁ସାରିଛନ୍ତି	-5882
▁ଘଟଣାସ୍ଥଳକୁ	-5883
▁ପର୍ଯ୍ୟାପ୍ତ	-5884
ଭିତ	-5885
▁ଜିଓ	-5886
▁ମୋଟର	-5887
▁ରପ୍ତାନୀ	-5888
▁ତ୍ୱରାନ୍ୱିତ	-5889
ଲ୍ସ	-5890
ୃଷ୍ଣ	-5891
▁ପାଟି	-5892
▁ଠିକଣା	-5893
▁ନାବାଳକ	-5894
ଦାସ	-5895
ୋହୀ	-5896
▁ସମୀର	-5897
▁ନଡ୍ଡା	-5898
▁ଅପରାଧୀ	-5899
▁ମାମଲାକୁ	-5900
ଏର	-5901
ଣ୍ଟେ	-5902
▁ବାବୁ	-5903
▁ସଂଘର	-5904
▁ସିଆର	-5905
▁ସ୍ବର	-5906
▁ଚାରିଆ	-5907
▁ପ୍ରତିଭା	-5908
▁କରାଇଥିଲେ	-5909
▁ପିଲାମାନଙ୍କୁ	-5910
ବଣ	-5911
ଚରଣ	-5912
ଟାନ	-5913
ୋଦୟ	-5914
ୋଲଜି	-5915
ତିକାର	-5916
▁ଆଲିଆ	-5917
▁ବିନ୍ଯ	-5918
▁ଷ୍ଟେସ	-5919
▁ବକ୍ତବ୍ୟ	-5920
▁ପ୍ରତିବନ୍ଧକ	-5921
ମୂଳ	-5922
▁୩୦	-5923
▁ପାଇଲଟ	-5924
▁ସୀମିତ	-5925
ଷ୍ଠାନିକ	-5926
▁ତନ୍ତ୍ର	-5927
▁ଅଭିଭାବକ	-5928
▁କୃଷକଙ୍କ	-5929
▁ସୁପାରିଶ	-5930
▁୍ୟ୍ୟ	-5931
▁ଠାକୁର	-5932
▁ଚଳଚ୍ଚିତ୍ରରେ	-5933
େନ୍	-5934
ଟ୍ରିନା	-5935
▁ଅଧ୍ୟୟନ	-5936
▁କଂଗ୍ରେସକୁ	-5937
▁ଘନ	-5938
▁ଆକାଂ	-5939
▁ଅଧିକରୁ	-5940
▁ସୂର୍ଯ୍ୟ	-5941
▁ଅଗ୍ନିକାଣ୍ଡର	-5942
ଲ୍‍	-5943
େକର	-5944
▁ଦ୍ରା	-5945
▁ନିଗମ	-5946
▁ଲଞ୍ଚ	-5947
▁ସର୍ଭେ	-5948
▁ସଙ୍କେତ	-5949
▁ପାର୍ଟିର	-5950
om	-5951
ଖାଇ	-5952
ିବୁ	-5953
ନୀତିକ	-5954
▁ପାରେ	-5955
▁ଭୂଷଣ	-5956
▁ରହିଲେ	-5957
▁ସଂପ୍ର	-5958
▁ଧାର୍ଯ୍ୟ	-5959
▁ବର୍ତ୍ତି	-5960
▁ସତ୍ତ୍ୱେ	-5961
▁ସହଯୋଗକୁ	-5962
▁ସାର୍ବଜନୀନ	-5963
ଲାଭ	-5964
ଭୂଷଣ	-5965
▁ସାକାର	-5966
▁ଏପ୍ରିଲ	-5967
▁କମ୍ପାନି	-5968
▁ହଜ	-5969
▁ଛାୟା	-5970
▁ବୈଜୟ	-5971
▁ଉର୍ଦ୍ଧ	-5972
▁ପ୍ରଣୟନ	-5973
▁ବିପକ୍ଷ	-5974
▁ଯୋଜନାକୁ	-5975
▁ଉଦ୍ଦିଷ୍ଟ	-5976
ଧିନ	-5977
ର୍ମି	-5978
▁ଫୁଲ	-5979
▁ଶୁଣିବାକୁ	-5980
▁Ca	-5981
▁୨୫	-5982
ଙ୍ଗର	-5983
ୟିକା	-5984
▁ଋତୁ	-5985
▁ସ୍ବର୍ଗ	-5986
▁ପ୍ରକୃତରେ	-5987
it	-5988
ନୀର	-5989
୍ବା	-5990
ଲାରେ	-5991
▁ଅଖି	-5992
▁ମୁସ	-5993
ବୃତ୍ତି	-5994
▁ନିୟୁତ	-5995
▁ସାଇବର	-5996
▁ଅଗ୍ରସର	-5997
▁ବିଶ୍ରାମ	-5998
▁ସମ୍ବର୍ଦ୍ଧ	-5999
▁ହାର୍ଦ୍ଦିକ	-6000
ୟଲ	-6001
ଶ୍ଵ	-6002
ୟିବ	-6003
ପୁତ୍ର	-6004
ଶ୍ୱିକ	-6005
▁ଘାଟନ	-6006
▁ଥିଲି	-6007
▁ପଥରେ	-6008
▁ସତ୍ଯ	-6009
ରିମାନା	-6010
▁ସୁପ୍ରିମୋ	-6011
▁ସଦସ୍ୟମାନେ	-6012
▁M	-6013
ିଲା	-6014
▁ବୃହ	-6015
▁ବାସଭ	-6016
▁ଇତ୍ୟା	-6017
▁ନିହାତି	-6018
▁ପ୍ରତୀକ	-6019
▁ଆନନ୍ଦିତ	-6020
▁ପ୍ରକୃତି	-6021
▁ସମ୍ଭାଳି	-6022
▁ନୁହଁନ୍ତି	-6023
କଶ୍ମୀର	-6024
▁ପାରିତ	-6025
▁ଅନଲାଇନ	-6026
▁ସଂଖ୍ୟାଲ	-6027
ଂଚଳ	-6028
ହିମ	-6029
▁ଅଗ	-6030
▁ତୁମ	-6031
▁ଧନୀ	-6032
▁ବେସର	-6033
▁ସିଟି	-6034
▁ଘଟୁଛି	-6035
▁ଶୁଳ୍କ	-6036
ନ୍ତ୍ରିତ	-6037
▁ଜଗନ୍ନାଥ	-6038
ବିତ	-6039
ମାସ	-6040
▁ହଇ	-6041
ବିଧି	-6042
ୀକୃତ	-6043
▁ଅନି	-6044
▁ସଚିନ	-6045
▁R	-6046
ଟିଭ	-6047
ମିତା	-6048
▁ଧ୍ୱ	-6049
▁ମେଷ	-6050
▁ସବୁଜ	-6051
▁ସିଧା	-6052
ସ୍ତ୍ରୀ	-6053
▁ପତାକା	-6054
▁ମାଗଣାରେ	-6055
▁ମୁହୂର୍ତ୍ତ	-6056
ଫୋନ	-6057
▁ଅନା	-6058
ଦ୍ୟୋଗ	-6059
▁ଅଭିଷ	-6060
▁ଖୋଳତା	-6061
▁ମାଶାେ	-6062
▁ଦ୍ରବ୍ୟ	-6063
▁ପରଠାରୁ	-6064
▁ଇତ୍ୟାଦି	-6065
▁ପ୍ରଦର୍ଶିତ	-6066
▁କାର୍ଯ୍ୟକାର	-6067
ୀତି	-6068
▁ଛଅ	-6069
ଥିରେ	-6070
▁ମାୟ	-6071
▁ଏପଟେ	-6072
▁ଶୁଖି	-6073
▁ପୀଡିତ	-6074
▁ଉଜ୍ଜ୍ୱ	-6075
▁କ୍ରୀଡ଼	-6076
▁ହିମାଚଳ	-6077
▁ରହୁଛନ୍ତି	-6078
▁ରାଜିନାମା	-6079
ଲାଏ	-6080
▁ଘୁ	-6081
ରୀରେ	-6082
▁ରବୀ	-6083
ଧିକରଣ	-6084
ାନିର୍	-6085
▁କପିଲ	-6086
▁ଗୋପନ	-6087
▁ଟକ୍କର	-6088
▁ରିହାତି	-6089
▁ବସିଥିବା	-6090
▁ବୈଜୟନ୍ତ	-6091
▁ସେମିଫାଇ	-6092
▁ଯେଉଁଥିପାଇଁ	-6093
ପର୍	-6094
୍ଵି	-6095
ବାନ୍	-6096
ହାରୁ	-6097
▁ମଧ୍ୟକୁ	-6098
▁ବିମାନବନ୍ଦର	-6099
ଚୁରା	-6100
▁ସଂଗଠନର	-6101
▁ବିଶ୍ୱକପ୍	-6102
▁ଗୁରୁତ୍ୱାରୋପ	-6103
ଦିତ	-6104
ାମୁ	-6105
ୃଜନ	-6106
ଷ୍ଣୁ	-6107
▁ଖୋଲ	-6108
▁ଥିବ	-6109
▁ଶ୍ୱ	-6110
▁2015	-6111
▁ବେଶୀ	-6112
▁ଶୋଭା	-6113
▁ବସନ୍ତ	-6114
ବର୍ଦ୍ଧନ	-6115
▁କମ୍ପାନ	-6116
▁ନୟାଗଡ଼	-6117
▁ସତର୍କତା	-6118
▁ପାଳିତ	-6119
▁ଅନୁଦାନ	-6120
▁ଦିଆଯାଉ	-6121
▁ଉଦ୍ଘାଟନ	-6122
▁ବେସରକାରୀ	-6123
▁ସଂଖ୍ୟାଲଘୁ	-6124
▁ପହଞ୍ଚିଛନ୍ତି	-6125
ତକ	-6126
’,	-6127
▁ଅଚ	-6128
▁୧୩	-6129
▁ସୁନୀଲ	-6130
▁ଭୁବନେଶ	-6131
▁ତାରିଖରେ	-6132
▁ଭିଡିଓରେ	-6133
▁ଯାଉଥିଲା	-6134
ୋଳ	-6135
ୌପ	-6136
ଡ଼ିଏ	-6137
▁ଫସି	-6138
▁ପଣ୍ଡ	-6139
▁ପାଠପ	-6140
▁ବାରା	-6141
▁ଶୈଳୀ	-6142
▁ବିନିଯୋଗ	-6143
▁ପ୍ରଦର୍ଶନୀ	-6144
▁କରଣ	-6145
▁ଗାଇ	-6146
ାର୍ପଣ	-6147
▁ଆଦାୟ	-6148
ଞ୍ଚଳରେ	-6149
▁ଅନୁରୂପ	-6150
▁ବ୍ୟାପି	-6151
▁ସହଯୋଗର	-6152
▁ଗୁଜରାଟର	-6153
▁ଟ୍ରମ୍ପଙ୍କ	-6154
ଉଁଶ	-6155
▁ସଫ	-6156
୍ରିୟ	-6157
▁ସହମତ	-6158
▁କହିବେ	-6159
▁କ୍ଷେତ	-6160
▁ଗୋଗୋଇ	-6161
▁ପୋଡ଼ି	-6162
▁ଲକଡାଉନ	-6163
▁ହାଇକୋର୍ଟଙ୍କ	-6164
ୋସ	-6165
▁ଚହ	-6166
▁ମୁକୁ	-6167
▁ସୋନା	-6168
▁ଜେଲରେ	-6169
▁ଆଇସିସି	-6170
▁କ୍ରୀଡା	-6171
▁ଆନୁଷ୍ଠାନିକ	-6172
ବରଦ	-6173
▁ଉଗ୍ର	-6174
▁ଉଦ୍ଧ	-6175
ପର୍କରେ	-6176
▁ଦୁନିଆରେ	-6177
▁ପିଲାମାନଙ୍କ	-6178
ion	-6179
▁।”	-6180
ପ୍ଟେ	-6181
▁ଦମ୍	-6182
ର୍ତ୍ତ	-6183
▁ସର୍କି	-6184
▁ଜଣାଶୁଣା	-6185
▁ସେବେଠାରୁ	-6186
▁ଗାନ୍ଧିଙ୍କ	-6187
ମହ	-6188
▁N	-6189
ଜରେ	-6190
▁75	-6191
▁ପଛର	-6192
▁ବେଆଇ	-6193
▁ଲମ୍ବା	-6194
▁ଅହମ୍ମଦ	-6195
▁ପଡ଼ୋଶୀ	-6196
▁ସମ୍ବେଦନ	-6197
▁ସୁବର୍ଣ୍ଣ	-6198
▁ହେଉନାହିଁ	-6199
▁ସମ୍ପର୍କୀୟ	-6200
▁ଜୈବ	-6201
▁ଭୂକ	-6202
ଲିଖିତ	-6203
▁ପିଏମ	-6204
▁ମଙ୍ଗଳ	-6205
▁ନରସିଂହ	-6206
▁ପୃଷ୍ଠା	-6207
ମୂ	-6208
▁ଉତ	-6209
ନ୍ୟା	-6210
▁ବାପ	-6211
▁କଙ୍ଗ	-6212
▁ଦବେେ	-6213
▁ତ୍ୟାଗ	-6214
▁ବୁଡ଼ି	-6215
▁ରଙ୍ଗର	-6216
କାର୍ଯ୍ୟ	-6217
▁ଗ୍ୟାସ୍	-6218
▁ବିଧିବଦ୍ଧ	-6219
▁ନିଷ୍ପତ୍ତିକୁ	-6220
▁ଟ୍ଵି	-6221
ସ୍ଥାୟୀ	-6222
▁ଦିଅନ୍ତି	-6223
▁ଶ୍ରୀମତୀ	-6224
▁ବିଛା	-6225
▁ବଢୁଛି	-6226
ଲ୍ୟାଣ୍ଡ	-6227
▁ବୈଶ୍ୱିକ	-6228
▁ପାଣ୍ଡ୍ୟା	-6229
▁ଶ୍ରଦ୍ଧାଳୁ	-6230
▁ମଧ୍ୟପ୍ରଦେଶର	-6231
al	-6232
ସ୍ଯ	-6233
▁ଏକର	-6234
▁କୁଶ	-6235
▁ଚଢ଼ା	-6236
▁ଲଢେଇ	-6237
ନୋଲୋଜି	-6238
▁ଆଣିଥିଲେ	-6239
▁କାହାରିକୁ	-6240
▁ଭିତ୍ତିରେ	-6241
▁ଭାରତୀୟଙ୍କ	-6242
ଗଡା	-6243
▁ଧୁ	-6244
?"""	-6245
▁ଧନୁ	-6246
▁ପାରା	-6247
▁ବଣ୍ଟନ	-6248
▁ଉଚ୍ଛେଦ	-6249
▁କରିନଥିଲେ	-6250
▁ପରିଚାଳିତ	-6251
▁ଡାକ୍ତରମାନେ	-6252
ଗାଁ	-6253
▁୧୬	-6254
ସଙ୍ଗ	-6255
▁ଜାନୁ	-6256
▁ସେତୁ	-6257
▁ଅଟକାଇ	-6258
▁ତିନିଟି	-6259
▁ସାମରିକ	-6260
▁ଅରୁଣାଚଳ	-6261
▁ପୋର୍ଟାଲ	-6262
▁ପରିଦର୍ଶନ	-6263
▁ଶର୍ମାଙ୍କ	-6264
▁ତେଲେଙ୍ଗାନା	-6265
ପଞ୍ଚ	-6266
▁ଦର୍ଶାନ୍ତୁ	-6267
▁କ୍ରେ	-6268
▁ଫାଶୀ	-6269
▁ଚୌଧୁରୀ	-6270
▁ଦର୍ଶାଇ	-6271
▁ଲୁଟେରା	-6272
▁ଦେଉଥିବା	-6273
▁ରାଜ୍ୟକୁ	-6274
▁ଅତ୍ୟାବଶ୍ୟକ	-6275
▁ନିଆଯାଇଥିବା	-6276
,“	-6277
ଦୀର	-6278
▁70	-6279
ଟରରେ	-6280
ବାଦ୍	-6281
▁ଦାୟିତ୍ବ	-6282
▁ରାଜସ୍ଥାନର	-6283
.0	-6284
ar	-6285
ଥାଇ	-6286
ୟକର	-6287
▁ଐତି	-6288
▁ବାଲି	-6289
▁ନମୁନା	-6290
▁ପ୍ରତିନିଧ	-6291
▁ମତ୍ସ୍ୟଜୀବୀ	-6292
▁ଯାତ୍ରୀମାନେ	-6293
inet	-6294
ସିଏସ	-6295
▁ନିରୀ	-6296
▁ସମୂହ	-6297
▁ଚାଳନା	-6298
▁ମହାନିର୍	-6299
▁ସ୍ଥାପିତ	-6300
▁ତକ୍ସ୍ଟମ୍ଭ	-6301
▁ୟେ	-6302
▁କୁହ	-6303
▁ତୃଣ	-6304
▁ଯଦିଓ	-6305
▁ଗ୍ରାହକ	-6306
▁ପ୍ରତିଦ୍ୱନ୍ଦ୍ୱ	-6307
ିକର	-6308
ସନୀୟ	-6309
▁ବଢାଇ	-6310
▁ଇନଷ୍ଟି	-6311
▁ଘନିଷ୍ଠ	-6312
▁ହୋଇପାରିବେ	-6313
ଖୀ	-6314
ବୈ	-6315
କିଂ	-6316
ନ୍‍	-6317
ାଲାଇ	-6318
▁ଦେଓ	-6319
▁ଘେରି	-6320
ଚ୍ଛିନ୍ନ	-6321
▁ସଲମାନ୍	-6322
▁ଯୀଶୁଙ୍କ	-6323
▁ବିଶେଷକରି	-6324
ଝି	-6325
ଲ୍ୟା	-6326
ଶ୍ରେ	-6327
▁ଚମତ	-6328
ଆଁମାର	-6329
▁ନିବି	-6330
▁ବିଲି	-6331
▁ରହିଲା	-6332
▁ବଜ୍ରପାତ	-6333
▁ଜାଣିଛନ୍ତି	-6334
▁ପ୍ରକ୍ରିୟାରେ	-6335
ୟତ	-6336
▁ଅନୀ	-6337
▁ବୋଝ	-6338
ଷ୍ଟିକୋଣ	-6339
▁ହୁଅନ୍ତି	-6340
▁ପ୍ରାପ୍ତି	-6341
▁ବିଶ୍ୱବିଦ୍ୟାଳୟର	-6342
କକୁ	-6343
ବିର	-6344
ଳାର	-6345
▁ଦାଶ	-6346
▁ବିଗି	-6347
▁ପତ୍ତା	-6348
▁ଅଗ୍ରଣୀ	-6349
▁ପୂର୍ବେ	-6350
▁ତ୍ରିପାଠୀ	-6351
▁କଂଗ୍ରେସରେ	-6352
▁ଦେଶବ୍ୟାପୀ	-6353
▁ନାଗରିକଙ୍କ	-6354
ାତର	-6355
ାମି	-6356
▁ଅତ	-6357
▁ଗୋଲ	-6358
▁ଦିଏ	-6359
▁ଦୈନିକ	-6360
▁ମଣ୍ଡଳ	-6361
▁ରଖିଲେ	-6362
▁ଗ୍ରୁପ୍	-6363
▁ଦାବିରେ	-6364
▁ସିନେମାର	-6365
▁ଯୁବତୀଙ୍କୁ	-6366
ଆସୁ	-6367
ଶୋର	-6368
୍ଲା	-6369
ଖୋଜି	-6370
▁ଏଆଇ	-6371
ଜୀଙ୍କ	-6372
▁ମାଟି	-6373
▁ମୁସଲ	-6374
▁ସ୍ୱର	-6375
ବସ୍ଥାରେ	-6376
▁ପଦାର୍ଥ	-6377
▁କାର୍ଯ୍ୟକଳାପ	-6378
ୋଷଣ	-6379
ଗ୍ରା	-6380
ଶାଳା	-6381
▁ଅଦା	-6382
▁ଆରବ	-6383
▁ନିରାଶ	-6384
▁ହୋଇଗଲେ	-6385
▁ଇଣ୍ଡଷ୍ଟ୍ର	-6386
▁ଦୃଷ୍ଟିକୋଣ	-6387
▁କାର୍ଯ୍ୟାଳୟରେ	-6388
ରାୟ	-6389
▁୧୪	-6390
ଣ୍ଡ୍	-6391
▁ଇଚ୍ଛ	-6392
▁ଉପରୁ	-6393
▁ପାସ୍	-6394
▁ଅତ୍ୟଧିକ	-6395
▁ଦେଶବାସୀ	-6396
▁ଗୁଣାତ୍ମକ	-6397
▁ପଦାଧିକାରୀ	-6398
....	-6399
ଧାରୀ	-6400
▁ଇତି	-6401
▁ତତ୍	-6402
▁ଜବରଦ	-6403
▁ଦାୟର	-6404
▁ଆତ୍ମବି	-6405
▁ଅତ୍ୟାଧୁନିକ	-6406
ଲାଇନ	-6407
▁ଅହମ	-6408
▁ମେହ	-6409
▁ରାଜ୍ଯ	-6410
▁ସହଯୋଗରେ	-6411
▁ପ୍ରବର୍ତ୍ତନ	-6412
ଆଉ	-6413
ସନ୍ତ	-6414
▁ଝୁଲ	-6415
▁ଜଣକୁ	-6416
▁ପ୍ରଭାରୀ	-6417
▁ସେଠାକାର	-6418
▁ବିଦ୍ୟାର୍ଥୀ	-6419
ବର୍	-6420
୍କା	-6421
ାବତୀ	-6422
▁ଆଇଏ	-6423
▁କବାଟ	-6424
▁ଅର୍ଦ୍ଧ	-6425
▁ପୁନର୍ବାର	-6426
▁ରାସ୍ତାରୋକ	-6427
ଲଟ୍	-6428
ୋର୍ଡ	-6429
▁ଆକ୍ଟ	-6430
▁ଭଙ୍ଗ	-6431
ଲମ୍ବିତ	-6432
▁ପାର୍କ	-6433
▁ଶାସିତ	-6434
▁ଆସିବାକୁ	-6435
▁କରିଥିଲି	-6436
▁ମନ୍ଦିରର	-6437
▁ସନ୍ଧ୍ୟା	-6438
▁ଉପମୁଖ୍ୟମନ୍ତ୍ରୀ	-6439
▁ନଗଦ	-6440
ଗ୍ରାମ	-6441
▁ଏନକାଉ	-6442
▁ବର୍ଷାର	-6443
▁ଶକ୍ତିର	-6444
▁ସପକ୍ଷରେ	-6445
▁ଅଂଶବିଶେଷ	-6446
▁ନେଟୱାର୍କ	-6447
ୃଶ	-6448
▁D	-6449
ମଧ୍ୟରେ	-6450
▁ଅବହେଳା	-6451
▁କୁଲଦୀପ	-6452
▁ତହିଁରେ	-6453
ପନା	-6454
▁ଲୁହ	-6455
କ୍ଷାର	-6456
▁ଚୀନର	-6457
▁ଯେବେ	-6458
ମଧ୍ୟରୁ	-6459
▁ଭାଗରେ	-6460
▁କଷ୍ଟକର	-6461
▁ସମନ୍ୱୟ	-6462
▁ରକ୍ତଚାପ	-6463
▁ବନ୍ଧୁଙ୍କ	-6464
▁ସ୍ଥାନାନ୍ତରିତ	-6465
ଚାଳୟ	-6466
ବ୍ଦୀ	-6467
▁କ୍ଲି	-6468
▁ଦରମା	-6469
▁ବିକାଶରେ	-6470
▁ନିର୍ବାଚନୀ	-6471
▁ରିପୋର୍ଟରେ	-6472
▁ପ୍ରକ୍ରିୟାକୁ	-6473
.1	-6474
ଏମଇ	-6475
ାବୀ	-6476
▁ଭାଜ	-6477
ରହିଛି	-6478
▁ବାଛି	-6479
▁ଭିଡ଼	-6480
▁ଶିଖି	-6481
▁ଶୋକର	-6482
▁ଇଂରାଜୀ	-6483
▁ଉପଗ୍ରହ	-6484
▁ସିଙ୍ଗା	-6485
▁ଏହାସହିତ	-6486
▁ପାଇପାରିବେ	-6487
▁ସମ୍ବେଦନଶୀଳ	-6488
▁ସବୋ	-6489
ସ୍ଥଳୀ	-6490
▁ମୌସୁ	-6491
▁ରାୟକୁ	-6492
▁ଇଣ୍ଡିଆନ୍	-6493
ତରେ	-6494
▁ମକର	-6495
▁କୋଟିରୁ	-6496
▁ନୋଟିସ୍	-6497
▁ସଂସ୍କରଣ	-6498
▁ସେତେବେଳକୁ	-6499
▁ଅଭିଯୁକ୍ତମାନେ	-6500
ସିଏ	-6501
ପୁରା	-6502
▁ଆସୋ	-6503
▁ଉପର	-6504
▁ଧରାପ	-6505
▁ସାନି	-6506
▁ଜୟପୁର	-6507
▁ଐତିହ୍ୟ	-6508
▁ବ୍ୟାଙ୍କ୍	-6509
▁ରାଜପୁତଙ୍କ	-6510
▁ସୁପ୍ରିମକୋର୍ଟର	-6511
ଶ୍ବ	-6512
ୁ୍ୟ	-6513
▁ମନି	-6514
▁ମରୁ	-6515
▁ଶକ୍ତ	-6516
▁ଚାଲିବ	-6517
▁ସାଉଦି	-6518
▁ଜର୍ମାନ	-6519
▁ଅବଶିଷ୍ଟ	-6520
▁ଫାଇନାଲ୍	-6521
▁ଯାତ୍ରୀଙ୍କୁ	-6522
▁ଏଚ	-6523
ଞ୍ଜେ	-6524
ଶିଳ୍ପ	-6525
▁ଅଙ୍କ	-6526
▁ଓଲଟି	-6527
▁ମିଳେ	-6528
▁ଘୋଷିତ	-6529
▁ମୁଦ୍ର	-6530
▁ୱେଷ୍ଟ	-6531
▁ଗୁଳିରେ	-6532
▁ଖୋଜାଖୋଜି	-6533
▁ପ୍ରଦେଶରେ	-6534
▁ଗୁରୁତ୍ବପୂର୍ଣ୍ଣ	-6535
ପିତା	-6536
ଲେଷ୍ଟ	-6537
▁ଜ୍ୟୋତି	-6538
▁ମହାରାଜ	-6539
ଙ୍କକ୍ସ୍ଟ	-6540
▁ଅଂଶୀଦାର	-6541
▁ଗତିବିଧି	-6542
▁ନଥିବାରୁ	-6543
▁ବିଭାଗରେ	-6544
▁ବଲାଙ୍ଗୀର	-6545
▁ସମ୍ପ୍ରଦାୟ	-6546
▁ଇନଷ୍ଟାଗ୍ରାମ	-6547
▁ଗେହ	-6548
▁ଚିର	-6549
ଧିକାର	-6550
▁ପଢ଼ି	-6551
▁ୟୁପି	-6552
▁ଶତାବ୍ଦୀ	-6553
▁ଆବଶ୍ୟକୀୟ	-6554
▁ଓଡ଼ିଶାଲାଇ	-6555
▁ନିଷ୍କ୍ରିୟ	-6556
▁ପାଠ୍ୟକ୍ରମ	-6557
େଲା	-6558
▁ସେଲ	-6559
ଦ୍ଦିନ	-6560
▁ଅନକେ	-6561
▁ମନୋର	-6562
▁ଲିଙ୍କ	-6563
▁ଅନୁଭୂତ	-6564
▁ଚମତ୍କାର	-6565
▁ଅନୁଚ୍ଛେଦ	-6566
▁ପ୍ରତିଷ୍ଠ	-6567
ଭାଷ	-6568
ସୁଣ	-6569
ଭିନ୍	-6570
ଲିଟି	-6571
▁ଯାକ	-6572
▁ସେଟ	-6573
ଶାସିତ	-6574
▁ଅଦ୍ୟ	-6575
▁ଜ୍ୟା	-6576
▁ଏକାଡେ	-6577
▁ଦିନରୁ	-6578
▁ମନୋହର	-6579
▁କୁହନ୍ତି	-6580
▁ଆମନ୍ତ୍ରଣ	-6581
ରାଗ	-6582
ଦେଲେ	-6583
ଗୋଷ୍ଠ	-6584
▁ଉଡ଼ା	-6585
▁ଦାରି	-6586
▁ମେସି	-6587
▁ସାହସ	-6588
▁ଚଢ଼ାଉ	-6589
▁ସଂଗୀତ	-6590
▁ବଢ଼ୁଛି	-6591
▁ଶୌଚାଳୟ	-6592
▁ଏଥିଯୋଗୁ	-6593
▁ରାଜନେତା	-6594
▁କରାଯିବାର	-6595
▁ରବୀନ୍ଦ୍ର	-6596
▁ଦୁର୍ଭାଗ୍ୟ	-6597
▁ହୋଇଥିବାବେଳେ	-6598
▁ମଜା	-6599
▁ଟିପ୍	-6600
▁କେରଳର	-6601
▁ପୁନରୁ	-6602
▁ଜୀବନ୍ତ	-6603
▁ଟ୍ରମ୍ପ୍	-6604
▁ଦିଆଯିବା	-6605
ହାରେ	-6606
▁ନେବ	-6607
▁ସଦନ	-6608
▁ଭବନରେ	-6609
▁ଦିବ୍ୟା	-6610
▁ସ୍ୱଳ୍ପ	-6611
▁ପରିବର୍ତ	-6612
▁ବଢ଼ାଇବା	-6613
▁ନିଲମ୍ବିତ	-6614
▁କରୁନାହାନ୍ତି	-6615
▁ପ୍ରକ୍ରିୟାକରଣ	-6616
ଅପ	-6617
ଛୁଆ	-6618
ିନରେ	-6619
▁ଅଖିଳ	-6620
▁ମାଂସ	-6621
▁ପୋଷାକ	-6622
▁ଗର୍ବିତ	-6623
▁ଗୁଡ଼ିକୁ	-6624
▁ଧକ୍କାରେ	-6625
▁ଆଲୋଚନାରେ	-6626
▁ବ୍ଯବସ୍ଥା	-6627
▁ଲେଖିଥିଲେ	-6628
▁କୃଷକମାନଙ୍କୁ	-6629
▁ଘଉ	-6630
▁୧୮	-6631
କ୍ଷିତ	-6632
ନୋଲଜି	-6633
କିନ୍ତୁ	-6634
▁ବିଧାୟ	-6635
▁ଶେୟାର	-6636
▁କଙ୍ଗନା	-6637
▁ମୁଖ୍ୟତଃ	-6638
▁ବିଜେଡିରେ	-6639
▁ଅଭିଯୁକ୍ତମାନଙ୍କୁ	-6640
ନକ	-6641
ମୁଖୀ	-6642
ୟମରେ	-6643
▁ଲବେ	-6644
ଇଣ୍ଡି	-6645
▁ଅବଦୁ	-6646
▁ବେଶି	-6647
▁ମିଶର	-6648
▁ଭ୍ରମଣ	-6649
el	-6650
ଥିତ	-6651
▁ଠକ	-6652
▁ବିପ	-6653
▁2022	-6654
▁ଲଦାଖ	-6655
▁ଇସ୍ରା	-6656
ମୂର୍ତ୍ତି	-6657
▁ଭିତ୍ତିକ	-6658
▁କୋର୍ଟଙ୍କ	-6659
▁ଆମ୍ଭମାନଙ୍କ	-6660
▁ପରମେଶ୍ବରଙ୍କୁ	-6661
ହିନୀର	-6662
▁ଜେରା	-6663
▁ମତାମ	-6664
▁ଆଇନକୁ	-6665
▁ଆଣିଲେ	-6666
▁ଉତ୍ତୋଳନ	-6667
▁ମିଆଁମାର	-6668
ପାରିନଥିଲା	-6669
▁ମିଳିପାରେ	-6670
▁ହରାଇଛନ୍ତି	-6671
▁ମର	-6672
▁ରୋଷ	-6673
▁ରଦ୍ଦ	-6674
▁ଡାହାଣ	-6675
▁ଶିଷ୍ଯ	-6676
▁ଦୋହରାଇ	-6677
▁ପୂର୍ବକ	-6678
ଜୀବୀଙ୍କୁ	-6679
▁ସାକ୍ଷାତକାର	-6680
▁ମହିଳାମାନଙ୍କ	-6681
ଉଲ	-6682
େନ	-6683
▁ଝଡ଼	-6684
▁ବାଘ	-6685
▁ବିତ	-6686
▁ଛାନ୍	-6687
▁ରେଖା	-6688
▁ନିରାପଦ	-6689
▁ସୋନପୁର	-6690
▁ବିବାଦୀୟ	-6691
▁କର୍ମୀଙ୍କ	-6692
ଯୀଶୁ	-6693
▁ଠପ୍	-6694
୍ତ୍ତିକ	-6695
▁କ୍ଷେପ	-6696
▁ନେବାରେ	-6697
▁ଯାନବାହ	-6698
▁ଗୁରୁତ୍ଵ	-6699
ଟକୁ	-6700
▁ଛେ	-6701
ସଚିବ	-6702
▁କଳହ	-6703
ପ୍ରେସ	-6704
▁ଅଂଚଳ	-6705
▁ଆଇନରେ	-6706
▁ଅଗ୍ରାହ	-6707
▁ଆଲି	-6708
▁ନହେ	-6709
ୁଥିଲେ	-6710
▁ଗଣ୍ଡ	-6711
▁ତ୍ୱଚା	-6712
▁ଫେରିବା	-6713
▁ଶାହାରୁ	-6714
▁ସାଙ୍ଗରେ	-6715
▁ଟୁର୍ଣ୍ଣା	-6716
▁ପ୍ରତିବଦ୍ଧତା	-6717
ଟଣା	-6718
ମନା	-6719
▁21	-6720
▁22	-6721
▁ବୃତ	-6722
ଖଣ୍ଡର	-6723
▁ପାଇଲେ	-6724
▁ବଜେଟରେ	-6725
▁ବାଜପେୟ	-6726
▁ପୁଲୱାମା	-6727
▁ଗଣମାଧ୍ୟମକୁ	-6728
ଟୀ	-6729
ଙ୍ଗେ	-6730
▁ଆରୋପ	-6731
ଖାନାରେ	-6732
▁ଝିଅକୁ	-6733
▁ଦିଆଗଲା	-6734
କ୍ସ୍ଟଦ୍ଧ	-6735
▁ଉତ୍ତରରେ	-6736
ତାନ୍ତ୍ରିକ	-6737
▁ରାଜେନ୍ଦ୍ର	-6738
▁ରଖାଯାଇଥିଲା	-6739
and	-6740
ହରି	-6741
ୋଲ୍	-6742
ଜ୍ଜା	-6743
ଡ଼େଇ	-6744
ପ୍ପା	-6745
▁ଚଢା	-6746
କୁମାର	-6747
▁ଆୟକର	-6748
▁ରେଲୱ	-6749
▁ଅସମ୍ଭବ	-6750
▁ଏହାଛଡା	-6751
▁କଳ୍ପନା	-6752
▁ଖାଆନ୍ତୁ	-6753
▁ଚଳାଇଛନ୍ତି	-6754
▁କରିଦିଆଯାଇଛି	-6755
ୁରୋପ	-6756
▁ନୀର	-6757
▁ଶତକ	-6758
▁ଢଙ୍ଗରେ	-6759
ଥନ	-6760
ଯମ	-6761
ବ୍ଯ	-6762
ାରଖ	-6763
୍ନୌ	-6764
▁ପାଳି	-6765
▁ସ୍କ୍ର	-6766
▁ଅତିକ୍ରମ	-6767
▁ଭିଟାମିନ	-6768
▁ଝାଡ଼ଖଣ୍ଡ	-6769
▁ପ୍ରଶାସନର	-6770
▁ଏହାବ୍ୟତୀତ	-6771
.2	-6772
ରାଣ	-6773
ପାଳନ	-6774
▁ଅଛୁ	-6775
▁ପନି	-6776
▁ପୋଲ	-6777
ଥାନ୍ତା	-6778
▁ଦୁଷ୍ଟ	-6779
▁ବଲିଉଡରେ	-6780
▁ଆସେ	-6781
▁ଗ୍ଭ	-6782
▁ବିବ	-6783
▁ମଷେ	-6784
ୀକୃତି	-6785
▁ନାରା	-6786
▁ଆଣିବାକୁ	-6787
▁ଗ୍ରାମ୍ୟ	-6788
▁ପ୍ରଚଳିତ	-6789
▁ମହାମହିମ	-6790
▁ହୋଇସାରି	-6791
▁କ୍ଷମତାକୁ	-6792
▁ରାଜସ୍ଥାନରେ	-6793
ସମ୍ପ	-6794
▁କଏଦ	-6795
ୁଥିଲା	-6796
▁ଧନିଆ	-6797
▁ମହାଶୟ	-6798
▁ଆପତ୍ତି	-6799
▁ମଣ୍ଡଳୀ	-6800
▁ସଦସ୍ୟଙ୍କ	-6801
▁କରିସାରିଛନ୍ତି	-6802
▁ଆତଙ୍କବାଦୀମାନେ	-6803
▁ଶାନ୍ତିପୂର୍ଣ୍ଣ	-6804
30	-6805
ଧକ	-6806
ରୁଖ	-6807
▁60	-6808
ଷ୍ଟାର	-6809
▁ଜାଳି	-6810
▁ହଳଦୀ	-6811
୍ୟାନ୍ସ	-6812
▁ମସିହା	-6813
▁ଖେଳିଯାଇଛି	-6814
ଫୁ	-6815
ାନାର	-6816
ିକ୍ତ	-6817
▁ଚଢ଼	-6818
▁ଠାବ	-6819
▁ନୀତ	-6820
▁ପାହା	-6821
▁ଛିଡ଼ା	-6822
▁ଦୂରରେ	-6823
▁ଅଭିଷେକ	-6824
ୀମାନଙ୍କୁ	-6825
କଂ	-6826
ରୁଣ	-6827
▁ଖାଁ	-6828
▁ବେଗ	-6829
ାଙ୍କନ	-6830
ିବାରୁ	-6831
▁ଛଡ଼ା	-6832
ପ୍ରକାର	-6833
▁ଅଫିସ୍	-6834
▁ଗୁପ୍ତା	-6835
▁ମୁଖ୍ୟା	-6836
▁ଅଭାବନୀୟ	-6837
▁ଏଥିଲାଗି	-6838
▁ସମ୍ମିଳନ	-6839
▁ଇଣ୍ଟରନେଟ୍	-6840
▁ହୋଇଯାଇଛନ୍ତି	-6841
ୱନ	-6842
▁ମୈ	-6843
▁ଇଡି	-6844
▁ରାୱ	-6845
▁କୁହୁ	-6846
▁କ୍ରମ	-6847
▁ଲେଖକ	-6848
▁ସୁଦୃଢ	-6849
ଙ୍କଠାରୁ	-6850
▁ଟ୍ରାଫିକ୍	-6851
ଶହ	-6852
ପଦା	-6853
ଲ୍ଟ	-6854
ତ୍ତମ	-6855
▁ନବୋ	-6856
▁ଘୃଣା	-6857
▁ସ୍ୱେ	-6858
▁ଟର୍ମି	-6859
▁ଟଙ୍କାରୁ	-6860
▁ସମ୍ଭାବ୍ୟ	-6861
ଦେଓ	-6862
ଶତଃ	-6863
ଳଙ୍କ	-6864
▁ଅପି	-6865
ଧସ୍ତି	-6866
▁ମସଲା	-6867
ପ୍ରଦାନ	-6868
▁ମୂଲ୍ଯ	-6869
▁ନିଜସ୍ୱ	-6870
▁ବନ୍ଦରରେ	-6871
▁ମୂଲ୍ୟରେ	-6872
▁ସ୍ଥିତିକୁ	-6873
▁କର୍ମୀମାନେ	-6874
▁ହୋଇପଡ଼ିଛି	-6875
▁ସୁଇ	-6876
ପେକ୍ଷ	-6877
▁ସଚ୍ଚ	-6878
▁ହଟାଇ	-6879
ଲାଏନ୍ସ	-6880
▁ଧସ୍ତା	-6881
▁ଭରପୂର	-6882
ଦିଅନ୍ତୁ	-6883
▁ତୃଣମୂଳ	-6884
▁ବିଭାଜନ	-6885
▁ମିଥ୍ୟା	-6886
ଦୁଷ୍କର୍ମ	-6887
▁ପଚାରିଲେ	-6888
ଅପ୍	-6889
ଆରେ	-6890
ଗମନ	-6891
ଭିନ	-6892
ମରା	-6893
▁ଅସମ	-6894
▁ବାଛ	-6895
▁ରାଫ	-6896
▁କଡାକ	-6897
▁ଆଗ୍ରହୀ	-6898
▁କାରଖାନା	-6899
▁ଧରିବାକୁ	-6900
▁କାର୍ଯ୍ୟରତ	-6901
▁ହୋଇଥାନ୍ତି	-6902
▁କାଉନ	-6903
▁ହିଂସ	-6904
ଭେମ୍ବର	-6905
▁ଆସ୍ଥା	-6906
▁ଜୀବିତ	-6907
▁ସତ୍ୟତା	-6908
ାମନ୍ତ୍ରୀ	-6909
▁ଷ୍ଟେସନରେ	-6910
▁ୟିରୁଶାଲମ	-6911
▁ସମ୍ମିଳନୀର	-6912
▁ଦୁର୍ଘଟଣାଗ୍ରସ୍ତ	-6913
ଧର୍ମ	-6914
ସୀମା	-6915
େସିଆ	-6916
▁କନକ	-6917
▁ନିଃ	-6918
ପ୍ରୀତ	-6919
▁ଭିନ୍	-6920
▁ଶ୍ରେୟ	-6921
▁ସମବାୟ	-6922
▁ଜୀବିକା	-6923
▁ୱିକେଟ୍	-6924
ତୁମ୍ଭମାନେେ	-6925
▁କୃଷକମାନଙ୍କ	-6926
ଷ୍ଣା	-6927
▁ସାଥ	-6928
▁ୟୁଜ	-6929
ଖ୍ୟାତ	-6930
▁ଗୋଟା	-6931
▁ଝିଅର	-6932
▁ପୃଥକ	-6933
▁ଅହମ୍ମ	-6934
▁ଆନ୍ତଃ	-6935
▁ଆଇନଜୀବୀ	-6936
▁ଇଣ୍ଡିଆନ	-6937
▁ବିବେଚନା	-6938
▁ଧସ୍ତାଧସ୍ତି	-6939
▁ମହାବିଦ୍ୟାଳୟ	-6940
▁0	-6941
ପଥର	-6942
ଶ୍ଯ	-6943
କ୍ରି	-6944
ବ୍ୟୁ	-6945
ିକତା	-6946
▁ପତି	-6947
ଧାନରେ	-6948
▁କକ୍ଷ	-6949
▁ସମାଗ	-6950
▁ଅକ୍ଷର	-6951
▁ଡିଜାଇ	-6952
▁ଅଭିମୁଖ	-6953
▁ଟିକେଟ୍	-6954
▁ପ୍ରମୋଦ	-6955
▁ଜନତାଙ୍କ	-6956
▁ହେବାପରେ	-6957
▁ଉଲ୍ଲେଖଯୋଗ୍ୟ	-6958
▁ହୋଇପାରିନାହିଁ	-6959
▁ସୁରକ୍ଷାକର୍ମୀଙ୍କ	-6960
ଙ୍ଘ	-6961
ମିର	-6962
▁ବଳରେ	-6963
▁ପାଖରୁ	-6964
▁ଶିଶୁର	-6965
ଶ୍ରେଷ୍ଠ	-6966
▁ବନବିଭାଗ	-6967
▁ମନ୍ଦିରରେ	-6968
▁ନୂଆଦିଲ୍ଲୀରେ	-6969
▁କେନ୍ଦ୍ରଶାସିତ	-6970
ୀରା	-6971
୍ବେ	-6972
ଓ୍ଵା	-6973
ାୟାର	-6974
▁ପଜି	-6975
▁ଗୋଲ୍	-6976
▁ସେଲ୍	-6977
ସ୍ଥିତି	-6978
▁ନଦୀରେ	-6979
▁ଗଭର୍ଣ୍ଣ	-6980
▁ବ୍ୟାଟ୍ସମ	-6981
▁ମୃତ୍ୟୁବରଣ	-6982
ଡୀ	-6983
▁ତମେ	-6984
▁ଅପମାନ	-6985
▁ଖୁସିର	-6986
▁ଟ୍ୱିଟର	-6987
▁ସହଭାଗୀ	-6988
▁ଆଚାର୍ଯ୍ୟ	-6989
▁ଏସି	-6990
▁ବାୟୋ	-6991
▁ପଏଣ୍ଟ	-6992
▁ସ୍ନେହ	-6993
▁ନାୟିକା	-6994
▁ବାୟୁସେନାର	-6995
▁ଟେକ୍ନୋଲୋଜି	-6996
▁କର୍ମକର୍ତ୍ତା	-6997
କେଶ	-6998
ଲେଟ୍	-6999
▁ଜାଣେ	-7000
▁ନିଶା	-7001
ଲକ୍ଷିତ	-7002
▁ମଧୁମେ	-7003
▁ସୁରକ୍ଷ	-7004
▁ଚିତ୍କାର	-7005
▁ବିନ୍ୟାସ	-7006
▁ଗଣଦୁଷ୍କର୍ମ	-7007
▁ଅଧିକାରୀମାନଙ୍କୁ	-7008
ମାରୀ	-7009
▁ଅନୀଲ	-7010
▁ଅଦ୍ୟତନ	-7011
▁ଶୁଣିଲେ	-7012
▁ସରପଞ୍ଚ	-7013
▁ଅଭିମୁଖେ	-7014
▁ଇମ୍ରାନ୍	-7015
▁ଯାଆନ୍ତୁ	-7016
▁ସନ୍ତୁଷ୍ଟ	-7017
▁ଆନ୍ଦୋଳନକୁ	-7018
▁ହସପିଟାଲରେ	-7019
▁ଓଡ଼ିଶାଲାଇଭ୍	-7020
ଠାର	-7021
ଶେଖର	-7022
▁ଜାଭ	-7023
▁ଦୀନ	-7024
▁ଫାର	-7025
▁କୃତି	-7026
▁ଲାଗେ	-7027
▁କହିଲି	-7028
▁ବଦଳରେ	-7029
▁ୟୁଦ୍ଧ	-7030
▁କ୍ରାଇମ	-7031
▁ଜଣାଇଲେ	-7032
▁ପିଅନ୍ତୁ	-7033
▁ଲକ୍ଷ୍ନୌ	-7034
▁କାଗଜପତ୍ର	-7035
▁ଏହାଦ୍ବାରା	-7036
▁କର୍ଣ୍ଣାଟକରେ	-7037
50	-7038
▁31	-7039
ment	-7040
ଡିସି	-7041
ମଣ୍ଡଳ	-7042
▁ଖଣିଜ	-7043
▁ବୁକ୍	-7044
ଦ୍ଦେଶକ	-7045
▁ଗୁଳିବ	-7046
▁ମତାମତ	-7047
▁କୋଭିଡ୍	-7048
▁ମୌସୁମୀ	-7049
▁ସେଣ୍ଟର	-7050
▁ସ୍କୁଲର	-7051
▁ଅନୁଭୂତି	-7052
▁ଯବାନଙ୍କ	-7053
▁ଫାଇନାଲରେ	-7054
▁ପ୍ରତିରୋଧକ	-7055
ଏବ	-7056
ବାବ	-7057
ରାଉ	-7058
▁ଲୁଚ	-7059
▁ବିଗ୍	-7060
▁ମଡେଲ	-7061
▁ଯିହା	-7062
▁ଷଷ୍ଠ	-7063
▁ସିଭି	-7064
▁ଉଦଘାଟ	-7065
▁ଘଟିବା	-7066
▁ବିଏସ୍	-7067
▁ପରିଲକ୍ଷିତ	-7068
ତ୍ରା	-7069
ଫୋନ୍	-7070
▁ବେଲ	-7071
▁ଚୁପ୍	-7072
କରନ୍ତୁ	-7073
▁ଆଇନଗତ	-7074
▁ପେନସନ	-7075
▁କଡାକଡି	-7076
▁ଟ୍ରାଫିକ	-7077
▁ଯେପରିକି	-7078
▁ସ୍ଥାନରୁ	-7079
▁ଆମେରିକାରେ	-7080
୍କୁ	-7081
ର୍ପଣ	-7082
ସଙ୍କ	-7083
▁ଖାଉ	-7084
▁ବଢିବ	-7085
ଦ୍ୟୋଗିକ	-7086
▁ଯାନବାହାନ	-7087
▁ସମାଜବାଦୀ	-7088
▁ବିଷୟବସ୍ତୁ	-7089
▁ସମ୍ପ୍ରସାରଣ	-7090
ଚୀ	-7091
ହୂଦୀ	-7092
ୋତ୍ସ	-7093
▁ରମେ	-7094
▁ଅନିଲ	-7095
▁ମ୍ୟୁ	-7096
▁ଯାକୁ	-7097
▁ରିଲିଫ	-7098
▁ସମ୍ବାଦ	-7099
▁ପ୍ରଥମଥର	-7100
▁ମହତ୍ତ୍ୱ	-7101
▁ସମ୍ପାଦନ	-7102
ଜଳ	-7103
େୟ	-7104
ଦାୟୀ	-7105
ଶ୍ବର	-7106
▁ରିସ	-7107
▁ଚଢାଉ	-7108
▁ସ୍ପେଶ	-7109
▁ଏନଡିଆର	-7110
▁ପଞ୍ଚାୟ	-7111
▁ଖେଳାଯିବ	-7112
▁ସାଇଣ୍ଟି	-7113
▁ସିଦ୍ଧାର୍ଥ	-7114
ୁନ	-7115
▁ଏଣ	-7116
ଜନିତ	-7117
▁କବି	-7118
▁ଦଲି	-7119
▁ବିଚ	-7120
▁ନେତୃ	-7121
▁ସୌରଭ	-7122
▁ବେଆଇନ	-7123
▁ଆସିଥାଏ	-7124
▁ଭଣ୍ଡାର	-7125
▁ଯିହୁଦାର	-7126
▁ଉପନିର୍ବାଚ	-7127
▁ଇଶ୍ରାୟେଲୀୟ	-7128
ଡବ୍	-7129
ପ୍ଳ	-7130
▁ଉଇ	-7131
▁ନବସ	-7132
▁ସୋର	-7133
▁ରୂପା	-7134
▁ପୁଞ୍ଜ	-7135
▁ରହୁଛି	-7136
▁ରେଲୱେ	-7137
▁ଆକ୍ରମଣର	-7138
▁ଅଭିଜ୍ଞତା	-7139
▁ପରିବର୍ତ୍ତିତ	-7140
ଡନ	-7141
ଷୁ	-7142
▁ଇକ	-7143
କ୍ରୋ	-7144
ିନିଆ	-7145
▁ଟାଟା	-7146
▁ମିନି	-7147
▁ମେଘା	-7148
▁କମିସନ	-7149
▁ଲାଇସେ	-7150
▁ଅପରାଧିକ	-7151
ବଦେ	-7152
▁ବଧ	-7153
ପୃକ୍ତି	-7154
▁ଗୃହୀତ	-7155
▁ସେବାକୁ	-7156
▁ମୁସଲମାନ	-7157
▁ସ୍ତ୍ରୀକୁ	-7158
▁କାଶ୍ମୀରରେ	-7159
▁୪୦	-7160
ସ୍ଥଳ	-7161
▁ଅପରି	-7162
▁ପଡୋଶୀ	-7163
▁ପ୍ରଣବ	-7164
▁ସିନ୍ଧୁ	-7165
▁ମାନ୍ୟବର	-7166
▁ସମ୍ବୋଧନ	-7167
▁ଦୀର୍ଘଦିନ	-7168
▁କ୍ୟାଟ୍ରିନା	-7169
▁ପରିସ୍ଥିତିର	-7170
▁ଅନ୍ୟମାନଙ୍କୁ	-7171
▁ପ୍ରାର୍ଥୀଙ୍କ	-7172
▁ଜିଲ	-7173
▁କୋଚ୍	-7174
▁ରାତ୍ର	-7175
ଜିଷ୍ଟ୍ର	-7176
▁ମଧୁମେହ	-7177
▁ପୃଥିବୀର	-7178
▁ଯୀଶୁଙ୍କୁ	-7179
ମ୍ସ	-7180
▁ଦରରେ	-7181
▁ବିଲକୁ	-7182
▁ଆଲୋକପାତ	-7183
▁ବିବେଚିତ	-7184
▁ବିମାନରେ	-7185
▁ଟେକ୍ନୋଲଜି	-7186
▁ବିଶ୍ୱସ୍ତରୀୟ	-7187
ଚୁ	-7188
ୋମ	-7189
ଜଣେ	-7190
ପଡି	-7191
ାଜନକ	-7192
▁କବର	-7193
▁ଜନ୍	-7194
▁ସଦା	-7195
▁କଟିବ	-7196
▁ଫର୍ମ	-7197
▁ସପ୍ତମ	-7198
▁କେରଳରେ	-7199
▁ପଡ଼ିଥିବା	-7200
▁କାର୍ତ୍ତିକ	-7201
▁ଆବଶ୍ୟକତାକୁ	-7202
ଡ୍ର	-7203
ଗାମୀ	-7204
ୟର୍କ	-7205
▁ସୁଗ	-7206
▁କଣ୍ଠ	-7207
▁ରସୁଣ	-7208
ପୂର୍ବା	-7209
▁ବସବାସ	-7210
▁ସେବାର	-7211
▁ହେଲାଣି	-7212
▁ଦୋଷୀଙ୍କ	-7213
▁ଏକ୍ସପ୍ରେସ	-7214
,”	-7215
▁ଜୁଲ	-7216
▁ଫ୍ୟା	-7217
▁ବାଲା	-7218
▁ଜେଟଲୀ	-7219
▁ତାରକା	-7220
▁ବଂଶଧର	-7221
▁ବର୍ଷି	-7222
▁ରାଫେଲ	-7223
▁ଗାଙ୍ଗୁ	-7224
▁ବିଶ୍ୱକୁ	-7225
▁ସ୍ୱୀକୃତି	-7226
▁କ୍ୟାପଟେନ୍	-7227
ଗନ	-7228
▁ସନ	-7229
ଲୋକେ	-7230
ଶାଲ୍	-7231
▁ସତେ	-7232
ରାଜିତ	-7233
▁କଣ୍ଟ	-7234
▁କାନା	-7235
▁କୃତୀ	-7236
▁ବାର୍	-7237
▁ରାଉର	-7238
▁ଅବତରଣ	-7239
▁ଭାଙ୍ଗ	-7240
▁ସୈନ୍ୟ	-7241
ଣ୍ଡାଦେଶ	-7242
▁ଆସୋସିଏସ	-7243
▁ସମନ୍ୱିତ	-7244
▁ସହେିପରି	-7245
▁ଗାଙ୍ଗୁଲି	-7246
▁ପଠାଇଛନ୍ତି	-7247
ଲିଯ	-7248
ନ୍ନା	-7249
େଦ୍ଯ	-7250
▁କରୁଛ	-7251
▁ଧୋନୀ	-7252
▁ସଦୃଶ	-7253
▁ଡେବ୍ୟୁ	-7254
▁ମାଧ୍ୟମ	-7255
▁ସିଂଙ୍କ	-7256
▁ହୋଇଯାଏ	-7257
▁ଜାନୁଆରୀ	-7258
▁ଅଗ୍ରାହ୍ୟ	-7259
▁ପ୍ରତିଜ୍ଞା	-7260
▁ବାଣିଜ୍ୟିକ	-7261
▁ଇନଷ୍ଟିଚ୍ୟୁ	-7262
ଜିର	-7263
▁ଚୋର	-7264
▁ବାଲ	-7265
ଦର୍ଶୀ	-7266
▁ଆଡକୁ	-7267
▁କବେେ	-7268
▁ଡିଆର	-7269
ବିଜେପି	-7270
▁କବିତା	-7271
▁ଉପାଦାନ	-7272
▁କଲେଜରେ	-7273
▁ପ୍ରାଣୀ	-7274
▁ବଢ଼ିବା	-7275
▁ମଞ୍ଜୁର	-7276
▁ବିକାଶକୁ	-7277
▁ମସିହାରେ	-7278
▁ଉପସ୍ଥିତି	-7279
▁ଦର୍ଶକଙ୍କ	-7280
▁ଦ୍ୱାରସ୍ଥ	-7281
▁ପଠାଇଥିଲା	-7282
▁ମୂର୍ତ୍ତି	-7283
▁ମୂଲ୍ୟବୋଧ	-7284
▁ସମସ୍ୟାକୁ	-7285
201	-7286
କୋଟି	-7287
ବାବୁ	-7288
ସନରେ	-7289
▁ମହୁ	-7290
▁ଏସୀୟ	-7291
▁ଜଗତର	-7292
▁ଭବ୍ୟ	-7293
▁ସଂଜୟ	-7294
▁ସାମି	-7295
▁ହରିଆ	-7296
▁ମୁହଁରେ	-7297
▁ଜଣାପଡ଼ିବ	-7298
▁କର୍ମକ୍ଷେତ୍ରରେ	-7299
ଅର	-7300
▁ନବୈ	-7301
▁ୟିଏ	-7302
▁ଆୟୁଷ	-7303
▁ଉପଦେଶ	-7304
▁କାନ୍ଥ	-7305
▁କାନ୍ଧ	-7306
▁ଶଙ୍କର	-7307
ଗୁଡିକରେ	-7308
▁ଆମ୍ଭକୁ	-7309
▁କରିହେବ	-7310
▁ନବୈେଦ୍ଯ	-7311
▁ନିର୍ଣ୍ଣ	-7312
▁ଶ୍ରମିକଙ୍କ	-7313
▁ପଟ୍ଟନାୟକଙ୍କୁ	-7314
ଫାନ	-7315
▁ନଇ	-7316
କ୍ଷକ	-7317
ାଇଛି	-7318
ାସ୍କ	-7319
▁କୋଣ	-7320
▁ରଖିବ	-7321
ସେମ୍ବର	-7322
ିନିବେଶ	-7323
▁ତେନ୍ଦ	-7324
▁ଅଶୋଧିତ	-7325
▁ଫ୍ରାନ୍	-7326
▁ଉପଲକ୍ଷେ	-7327
▁ନେଟୱର୍କ	-7328
▁ପ୍ରସାରିତ	-7329
▁ମିଳୁନାହିଁ	-7330
ସ୍ବ	-7331
▁କ୍ଷମ	-7332
▁ତାଲା	-7333
▁ପ୍ରଦ	-7334
▁ଲୁଟ୍	-7335
▁ଆଲର୍ଟ	-7336
▁ତୀର୍ଥ	-7337
▁ପଡୁଛି	-7338
▁ଶସ୍ତା	-7339
▁ସମାଗମ	-7340
▁ତେନ୍ଦୁଲ	-7341
▁ଦାରିଦ୍ର	-7342
▁ପଡ଼ିଥାଏ	-7343
▁ନିର୍ଦେଶକ	-7344
▁ମୁଖାର୍ଜୀ	-7345
▁ଦିବ୍ୟାଙ୍ଗ	-7346
▁ପରମେଶ୍ବରଙ୍କର	-7347
▁ନିଦ	-7348
▁ଭୟର	-7349
▁ସସ୍	-7350
ଚାଳନା	-7351
▁ଅମିତ୍	-7352
▁ପୋଷ୍ଟର	-7353
କୂ	-7354
ହିର	-7355
ଚନ୍ଦନ	-7356
ବନ୍ଦୀ	-7357
▁ମାଲେ	-7358
▁ହିଟ୍	-7359
ଞ୍ଚଲ୍ୟ	-7360
ୋନେସିଆ	-7361
▁ଅସ୍ଥି	-7362
▁ଭତ୍ତା	-7363
▁ପାରିବା	-7364
ପ୍ଟେମ୍ବର	-7365
▁ଆତଙ୍କିତ	-7366
▁ଏମଏସଏମଇ	-7367
ପାକିସ୍ତାନ	-7368
▁ଆଠ	-7369
▁କଂପ	-7370
କାଣ୍ଡ	-7371
ପିଏଲ୍	-7372
ସ୍ଥଳରେ	-7373
▁କହିବି	-7374
▁ବାଙ୍ଗ	-7375
▁ପଣ୍ଡିତ	-7376
▁ଛାନଭିନ୍	-7377
▁ପ୍ରଶଂସକ	-7378
▁ଅନ୍ୟମାନେ	-7379
▁ଇଣ୍ଟରନେଟ	-7380
▁ଜିଲ୍ଲାଗୁଡ଼ିକ	-7381
ଜିଂ	-7382
ଟରୁ	-7383
▁ନମ	-7384
ସିଆଲ	-7385
▁ଆଶୁ	-7386
▁ରାଜେଶ	-7387
ପୁର୍ଣ୍ଣ	-7388
▁ଇନ୍ଦ୍ର	-7389
▁ସମର୍ପଣ	-7390
▁କରିଥିଲୁ	-7391
▁ପକ୍ସ୍ଟତ୍ର	-7392
▁ସଂକ୍ରମିତଙ୍କ	-7393
ଲିଂ	-7394
ାମକ	-7395
କେଲା	-7396
ବାଣୀ	-7397
▁ତତ୍କ	-7398
▁ନଦୀର	-7399
▁ଦିଗକୁ	-7400
▁କୋରୋନା	-7401
▁ମୃତୁ୍ୟ	-7402
▁ଅଧ୍ୟାପକ	-7403
▁ରଖିଥିଲା	-7404
▁ଚାଞ୍ଚଲ୍ୟ	-7405
▁ପଡ଼ିଥିଲେ	-7406
ପଡ଼ି	-7407
▁ମାଉ	-7408
▁ଗୋଏଲ	-7409
▁ଫଟୋକୁ	-7410
▁ୟୁରୋପ	-7411
▁ଆଇଆଇଟି	-7412
▁ନଭେମ୍ବର	-7413
▁ବାପାଙ୍କ	-7414
▁ରିଲାଏନ୍ସ	-7415
▁ଲୋକାର୍ପଣ	-7416
▁ସମ୍ବନ୍ଧିତ	-7417
▁ବିଦ୍ୟାଳୟରେ	-7418
▁ଆତ୍ମବିଶ୍ୱାସ	-7419
▁କ୍ଷେପଣାସ୍ତ୍ର	-7420
▁ସଦାପ୍ରଭୁଙ୍କୁ	-7421
ଂଶୁ	-7422
ଏଆଇ	-7423
▁ବାୟ	-7424
ନାହୁଁ	-7425
୍ୱରରେ	-7426
▁ନାଟକ	-7427
▁ଫାଟି	-7428
▁କେତକେ	-7429
▁ଫୋଲଡର	-7430
▁ତଦନ୍ତରୁ	-7431
▁ହିସାବରେ	-7432
▁କମିଶନଙ୍କ	-7433
▁ଗଣଶିକ୍ଷା	-7434
▁ଇଲେକ୍ଟ୍ରୋନ	-7435
ଯଦି	-7436
▁ଫର୍	-7437
▁ଅପ୍ର	-7438
▁ଡାଉନ	-7439
▁ସଜାଗ	-7440
▁ୟଜ୍ଞ	-7441
▁ହାରୋଣ	-7442
▁ଦଶନ୍ଧି	-7443
▁ଫିଙ୍ଗି	-7444
▁ବିଦେଶରେ	-7445
▁ତେନ୍ଦୁଲକର	-7446
▁କ୍ୟାମେରାରେ	-7447
ଶର	-7448
ଖିଆ	-7449
ଫ୍ର	-7450
▁କୀ	-7451
ଶାସନ	-7452
▁ବୟସ୍କ	-7453
▁ସୋଶାଲ	-7454
▁ଅଳ୍ପକେ	-7455
▁ଗୋପନୀୟ	-7456
▁ମହଙ୍ଗା	-7457
▁ଯାଇଥାଏ	-7458
▁ଆସିନାହିଁ	-7459
▁ଚର୍ଚ୍ଚାର	-7460
▁ହେବନାହିଁ	-7461
▁ଶିକ୍ଷୟିତ୍ରୀ	-7462
▁୧୭	-7463
▁ଚେତ	-7464
▁ଝାଡ	-7465
▁ଶସ୍ଯ	-7466
▁ଶୁଣୁ	-7467
▁ସାଗର	-7468
▁ଭାରସାମ	-7469
▁ପରିବର୍ତ୍ତେ	-7470
▁କାର୍ଯ୍ୟକ୍ଷମ	-7471
ଅଛ	-7472
ଚକ	-7473
▁ଉଲ	-7474
▁ଘାଟ	-7475
▁ଚାଳ	-7476
▁ରଘୁ	-7477
▁ସଫ୍	-7478
▁ହାମ	-7479
ର୍ୟ୍ଯ	-7480
▁ବୁଡି	-7481
▁ମାସର	-7482
▁ତିକ୍ତ	-7483
▁ଦେଶରୁ	-7484
▁ଜୀବନସା	-7485
▁ପାରିଲେ	-7486
▁କମାଣ୍ଡର	-7487
▁ଭାରସାମ୍ୟ	-7488
▁ପୂର୍ବପୁରୁଷ	-7489
ଖାେ	-7490
ଜିକ	-7491
ଣ୍ୟ	-7492
▁ଶଲୋ	-7493
ାୟତ୍ତ	-7494
ିକ୍ସେ	-7495
▁ଉଡ଼ାଣ	-7496
▁ଅସମର୍ଥ	-7497
▁ହରାଇଥିଲେ	-7498
▁ପୁଞ୍ଜିନିବେଶ	-7499
▁ଅନ୍ତରାଷ୍ଟ୍ରୀୟ	-7500
କୌଶ	-7501
▁ହଟି	-7502
▁ଖାସ୍	-7503
▁ଚିନି	-7504
▁ହେଲ୍	-7505
▁ଅଲିମ୍ପ	-7506
▁ଆରମ୍ଭରୁ	-7507
▁ଦାୟିତ୍ୱରେ	-7508
▁ପ୍ରକଳ୍ପକୁ	-7509
▁ଅହମ୍ମଦାବାଦ	-7510
▁ଇଣ୍ଡୋନେସିଆ	-7511
▁ଉଚ୍ଚଶିକ୍ଷା	-7512
▁ଗାନ୍ଧୀଙ୍କୁ	-7513
▁ମେଡ଼ିକାଲରେ	-7514
▁ମହିଳାମାନଙ୍କୁ	-7515
▁ଡକ	-7516
ବ୍ରତ	-7517
ାବଳି	-7518
▁ଦୂତ	-7519
▁ନକଲ	-7520
ଚାଳିତ	-7521
▁ଅସ୍ୱ	-7522
▁ସାମଲ	-7523
▁କ୍ୟାନ	-7524
▁ଦେବାରେ	-7525
▁ପ୍ରଣାମ	-7526
▁ଫଳପ୍ରଦ	-7527
▁ମନୋଭାବ	-7528
▁ସନ୍ଦେଶ	-7529
▁ସ୍ତରୀୟ	-7530
ଯାତ୍ରାରେ	-7531
▁କାଶ୍ମୀରର	-7532
▁ଛାତ୍ରଙ୍କ	-7533
▁ନ୍ୟୁୟର୍କ	-7534
▁ଜିତେନ୍ଦ୍ର	-7535
▁ପଦକ୍ଷେପକୁ	-7536
▁ପୁନରୁଦ୍ଧାର	-7537
▁ନାବାଳିକାଙ୍କୁ	-7538
▁ତଳ	-7539
ସିୟମ	-7540
ହେଲା	-7541
▁ପଂଚ	-7542
▁ବରଣ	-7543
▁2013	-7544
▁ବର୍ଜ	-7545
▁ଇସ୍ରାଏଲ	-7546
▁କରିପାରିବା	-7547
▁ପଶ୍ଚିମବଙ୍ଗର	-7548
ଟ୍ସ	-7549
ଦୁଲ	-7550
ମନ୍ତ	-7551
ଲିମ୍	-7552
ଉଥିଲେ	-7553
ଗ୍ରିକ	-7554
ମାନ୍ତ	-7555
ିନିମୟ	-7556
▁ଖେଳୁ	-7557
▁ସେଠି	-7558
▁ସେବନ	-7559
ବିଦ୍ୟା	-7560
▁କରିଡର	-7561
▁ଜୁଲାଇ	-7562
▁ଦାମ୍ପ	-7563
▁କମିସନର	-7564
▁ଶାହଙ୍କ	-7565
▁ହୃଦଘାତ	-7566
▁ବିନ୍ଯାସ	-7567
▁ଭିଡିଓଟି	-7568
▁ପ୍ରତିଷ୍ଠାତା	-7569
▁କୈା	-7570
▁ଗୁଣବ	-7571
▁ଶସ୍ୟ	-7572
ମିତିକି	-7573
▁ଅଗଷ୍ଟ	-7574
▁ନୋଟିସ	-7575
▁ଲବେୀୟ	-7576
▁ଉପଯୋଗୀ	-7577
▁ସୋଶାଲ୍	-7578
▁ସଂଗ୍ରହା	-7579
▁କମ୍ପାନୀର	-7580
▁ନେତାଙ୍କୁ	-7581
▁ନିମ୍ନଲିଖିତ	-7582
ାୟନ	-7583
▁ଅଦ୍	-7584
▁ପକା	-7585
ାମୀଙ୍କ	-7586
▁ଝଗଡ଼ା	-7587
▁ସାହେବ	-7588
ବେନ୍ଦ୍ର	-7589
▁କ୍ରେଡି	-7590
▁ଗ୍ରାମର	-7591
▁ବାଣ୍ଟି	-7592
▁ବୃତ୍ତି	-7593
▁ଯିହୁଦା	-7594
▁ପାଉଥିବା	-7595
▁କେତେବେଳେ	-7596
▁ଇଞ୍ଜିନିୟରିଂ	-7597
▁ମରା	-7598
▁ଉଭୟେ	-7599
▁ମନକୁ	-7600
୍ୟାନେଲ	-7601
▁କରୀନା	-7602
▁ପିଟାଲ	-7603
▁ଫାଇବର	-7604
▁ଗୁଡିକୁ	-7605
▁ଜବାବରେ	-7606
▁ବଢ଼ିଛି	-7607
▁ହୋଇନଥିଲେ	-7608
▁ଏହାପୂର୍ବରୁ	-7609
▁ସୁଶାନ୍ତଙ୍କ	-7610
ଥୁ	-7611
ୀକା	-7612
▁ଶରଦ	-7613
▁ଆଧ୍ୟ	-7614
▁ବିଧେ	-7615
▁ହେଲପର	-7616
▁ହେଲିକ	-7617
▁ପନିପରି	-7618
▁ଏତିକିରେ	-7619
▁ଟର୍ମିନାଲ	-7620
▁ହରିଚନ୍ଦନ	-7621
ନିର୍ଦ୍ଧାରିତ	-7622
▁ଚନ୍ଦ୍ରଶେଖର	-7623
▁ପ୍ରତିମୂର୍ତ୍ତି	-7624
ଲତ	-7625
ୋବର	-7626
ବିଂଶ	-7627
▁କଲୁ	-7628
▁ପଡୁ	-7629
▁ସାଧ	-7630
ବୀକାର	-7631
ାର୍ଥକ	-7632
▁ଗଢ଼ି	-7633
▁ସତ୍ୟା	-7634
▁ନେତ୍ରୀ	-7635
▁ନୂଆପଡ଼ା	-7636
▁ପୁଲିସରେ	-7637
▁ପିଲାଙ୍କୁ	-7638
▁ଦେଖାଦେଇଥିଲା	-7639
▁କର୍ତ୍ତୃପକ୍ଷଙ୍କ	-7640
▁ଷଡ	-7641
ଆଇଏସ	-7642
▁ଲିଭ	-7643
▁ଫାର୍	-7644
▁ଭାବୁ	-7645
ପାରିଛି	-7646
▁ଜମିରେ	-7647
▁ମହୋଦୟ	-7648
▁ଦେବଗଡ଼	-7649
▁ମହାସାଗର	-7650
▁ନିର୍ଣ୍ଣୟ	-7651
▁ଚ଼	-7652
ଚନୀୟ	-7653
ଟ୍ୟୁ	-7654
ମାନର	-7655
ଦ୍ୱାର	-7656
▁ଆଚରଣ	-7657
▁କୋଠା	-7658
▁ଏନଡିଏ	-7659
▁ଆଇପିଏଲ	-7660
▁ଜିତିବା	-7661
▁ପ୍ରଭାବୀ	-7662
▁ସଶସ୍ତ୍ର	-7663
▁ପୃଷ୍ଠଭୂମି	-7664
ଏତ	-7665
ଯି	-7666
▁ଅବୈ	-7667
▁ଆଜା	-7668
▁କାମକୁ	-7669
▁ରୋଷେଇ	-7670
▁ବିବାଦର	-7671
▁ଶୁଣିବା	-7672
▁ପୁଲିସ୍‍	-7673
▁ସ୍ଥିରତା	-7674
▁ଦାମ୍ପତ୍ୟ	-7675
▁କ୍ୟାବିନେଟର	-7676
ct	-7677
ୂତ	-7678
ମ୍ୟ	-7679
▁୨୧	-7680
▁ବେକ	-7681
▁ଭରଣ	-7682
ଆସୁଛି	-7683
▁ସିଟ୍	-7684
▁ଅଂଚଳର	-7685
▁ତହିଁର	-7686
▁ବିଜ୍ଞା	-7687
▁ଶୀର୍ଷକ	-7688
▁ସବିଶେଷ	-7689
▁ଅଗ୍ରୱାଲ	-7690
▁ଶିକ୍ଷାର	-7691
▁ଆକାଂକ୍ଷା	-7692
▁ହୋଇଗଲାଣି	-7693
▁କେନ୍ଦ୍ରକୁ	-7694
▁ପ୍ରତିଶ୍ରୁତିବଦ୍ଧ	-7695
ାସା	-7696
ୟାନ	-7697
ଆରସି	-7698
ଟେରୀ	-7699
▁ଗଢ଼	-7700
▁ଚାର	-7701
▁ବେଦ	-7702
ଥାନ୍ତ	-7703
▁ଇଷ୍ଟ	-7704
▁ବେତନ	-7705
▁ମଧୁର	-7706
▁ଚୌହାନ	-7707
▁ଅପରାହ୍	-7708
▁ଯଥାକ୍ରମେ	-7709
▁ସାମଗ୍ରୀକ	-7710
▁ବାଜପେୟୀଙ୍କ	-7711
▁କାର୍ଯ୍ୟାନ୍ୱ	-7712
ଦ୍ଵ	-7713
ିଣୀ	-7714
▁26	-7715
▁ଧୈ	-7716
▁ଆଇନର	-7717
▁ଇସ୍ରୋ	-7718
▁ଚେୟାର	-7719
▁ଫାଇନାଲ	-7720
▁ମ୍ୟାନେ	-7721
▁ସିଦ୍ଧୁ	-7722
▁ପ୍ରଶାନ୍ତ	-7723
▁ସାଧାରଣତଃ	-7724
▁କେଜ୍ରିୱାଲ	-7725
▁ହିନ୍ଦୁସ୍ଥାନ	-7726
▁ଆଳୁ	-7727
▁ଟିମର	-7728
▁ଫରେି	-7729
▁କିଙ୍ଗ	-7730
▁ଡିସ୍କ	-7731
▁ଚଳାଇବା	-7732
▁ଲାଗିବା	-7733
▁କହୁଥିଲେ	-7734
▁ଜବରଦସ୍ତ	-7735
▁ଶ୍ରେଣୀର	-7736
▁ୟଜ୍ଞବଦେ	-7737
▁ସର୍ବଶ୍ରେଷ୍ଠ	-7738
▁ମହାନିର୍ଦ୍ଦେଶକ	-7739
ବେଗ	-7740
▁ସଜା	-7741
କୃଷ୍ଣ	-7742
▁ଗଣତି	-7743
▁ଭୁଶୁ	-7744
▁ମିଜୋ	-7745
▁ଆଣବିକ	-7746
▁ତାହେଲେ	-7747
▁ସାଇକେଲ	-7748
▁ଜଣାପଡିବ	-7749
▁ଜରିମାନା	-7750
▁ଟଙ୍କାକୁ	-7751
▁ଭବିଷ୍ଯଦ୍	-7752
▁କରାଯାଉଥିଲା	-7753
▁ଷ୍ଟାଡିୟମରେ	-7754
ୋରେ	-7755
ତେଣୁ	-7756
▁ମନୀ	-7757
▁ଦଖାଇ	-7758
ପୂର୍ବକ	-7759
▁ଟ୍ବିଟ୍	-7760
▁ମହୋତ୍ସ	-7761
ାର୍ଜୀଙ୍କ	-7762
▁ଆଧ୍ୟାତ୍ମ	-7763
▁କନଫରେନ୍ସିଂ	-7764
▁ଗଣତାନ୍ତ୍ରିକ	-7765
▁ହୋଇନାହାନ୍ତି	-7766
ତିତ	-7767
▁ମଲ	-7768
ଗରରେ	-7769
▁ପାଶ	-7770
ଚାର୍ଜ	-7771
▁କିମି	-7772
▁ଲାଲୁ	-7773
ସ୍ୱାମୀ	-7774
▁କଥାରେ	-7775
▁କାଣ୍ଡ	-7776
▁ତଦାରଖ	-7777
▁ବ୍ଲକ୍	-7778
▁ଶଲୋମନ	-7779
▁ସର୍ଭର	-7780
▁ଉପବନ୍ଧ	-7781
▁ଖୋଜିବା	-7782
▁ଦମ୍ପତି	-7783
▁କମିଟିରେ	-7784
▁ପାଦୁକୋନ	-7785
▁ବିହାରରେ	-7786
▁ମଞ୍ଜୁରୀ	-7787
▁ଝୁ	-7788
ପିଜି	-7789
▁ଆଡଭ	-7790
▁ଓଭର	-7791
▁ଭିଡ	-7792
ଘାତିକ	-7793
ୋଳନରେ	-7794
▁ଜେପି	-7795
▁ଡିଫେ	-7796
▁ମାରୁ	-7797
▁ସୂଚନ	-7798
▁ଟ୍ରଫି	-7799
▁ଯାକୁବ	-7800
▁ସଫ୍ଟୱ	-7801
▁ହେବନି	-7802
▁କୈାଣସି	-7803
▁ବର୍ଗରେ	-7804
▁ବୁର୍ଲା	-7805
▁ସର୍ଭିସ	-7806
▁ହେକ୍ଟର	-7807
▁କରିପାରେ	-7808
▁ସ୍ୱାସ୍ଥ୍ୟବସ୍ଥା	-7809
ଯଲେ	-7810
▁150	-7811
▁ଇଭି	-7812
▁ଶରଣ	-7813
▁ବାରି	-7814
▁ବାଳକ	-7815
▁ରଚନା	-7816
ହକ୍ସ୍ଟ	-7817
▁ନେବାର	-7818
▁ଖୋଲିବା	-7819
▁ଜଳସ୍ତର	-7820
▁ଶୋଚନୀୟ	-7821
▁ଅନୁସୂଚିତ	-7822
▁ପ୍ରଶାସନକୁ	-7823
▁ରିପୋର୍ଟକୁ	-7824
▁ଷଡ଼ଯନ୍ତ୍ର	-7825
▁ଗ୍ରାମବାସୀମାନେ	-7826
୍ର୍	-7827
▁ଦବ	-7828
▁ଛଡା	-7829
▁ସକଳ	-7830
ନ୍ଦିର	-7831
▁କିମ୍	-7832
▁ଭୟରେ	-7833
▁କୁକୁର	-7834
▁ପାଉଁଶ	-7835
▁ଫୋନରେ	-7836
▁ଏଥିନେଇ	-7837
▁ବନ୍ଧୁତ	-7838
▁କ୍ୟାରିୟର	-7839
▁ଫେରିଥିଲେ	-7840
▁/	-7841
ଷାର	-7842
କ୍ସନ	-7843
ଙ୍ଘନ	-7844
ଜ୍ଜୁ	-7845
ାଇଲେ	-7846
▁ଦେୟ	-7847
▁ବିମ	-7848
ଗତିରେ	-7849
ମଙ୍କୁ	-7850
▁ଏଟିଏ	-7851
▁ବିତି	-7852
▁ବ୍ଲୁ	-7853
▁ହତ୍ୟ	-7854
▁ଆବର୍ଜ	-7855
▁ଗୋଟାଏ	-7856
▁ଦୁଃଖଦ	-7857
▁ପଦାକୁ	-7858
▁ସେଠାକୁ	-7859
▁ଚାହୁଁଛୁ	-7860
▁କରାଇଛନ୍ତି	-7861
▁ବୁଝାମଣାକୁ	-7862
▁ପ୍ରତିବାଦରେ	-7863
ଦ୍ଦି	-7864
▁କମଲ	-7865
▁ଲକ୍	-7866
▁ଫଟୋରେ	-7867
▁	-7868
୍	-7869
ା	-7870
ି	-7871
ର	-7872
କ	-7873
େ	-7874
ନ	-7875
ତ	-7876
ବ	-7877
ସ	-7878
ମ	-7879
ୁ	-7880
ପ	-7881
ହ	-7882
ଲ	-7883
ୟ	-7884
ଦ	-7885
।	-7886
ଇ	-7887
ୋ	-7888
ଥ	-7889
ଏ	-7890
ୀ	-7891
ଣ	-7892
ଟ	-7893
ଜ	-7894
ଗ	-7895
ଛ	-7896
ଯ	-7897
ଭ	-7898
ଆ	-7899
ଶ	-7900
ଙ	-7901
ଧ	-7902
ଷ	-7903
ଅ	-7904
ଳ	-7905
ଚ	-7906
ଡ	-7907
ଉ	-7908
ଁ	-7909
,	-7910
ଖ	-7911
ଂ	-7912
ୂ	-7913
ଓ	-7914
ଫ	-7915
ଠ	-7916
ୱ	-7917
ୃ	-7918
଼	-7919
ଘ	-7920
ଞ	-7921
.	-7922
"	-7923
ୌ	-7924
-	-7925
ଢ	-7926
ୈ	-7927
0	-7928
’	-7929
1	-7930
:	-7931
2	-7932
)	-7933
(	-7934
?	-7935
ଝ	-7936
ଵ	-7937
୧	-7938
‘	-7939
5	-7940
'	-7941
e	-7942
୦	-7943
i	-7944
ଃ	-7945
3	-7946
୨	-7947
4	-7948
9	-7949
s	-7950
‍	-7951
“	-7952
7	-7953
8	-7954
୫	-7955
t	-7956
6	-7957
n	-7958
r	-7959
a	-7960
%	-7961
!	-7962
o	-7963
୩	-7964
”	-7965
୪	-7966
m	-7967
S	-7968
–	-7969
ଋ	-7970
P	-7971
C	-7972
୬	-7973
c	-7974
I	-7975
୯	-7976
[	-7977
]	-7978
୭	-7979
f	-7980
A	-7981
୮	-7982
l	-7983
d	-7984
ଔ	-7985
N	-7986
O	-7987
D	-7988
_	-7989
u	-7990
ଐ	-7991
R	-7992
/	-7993
M	-7994
|	-7995
