<pad>	0
<unk>	0
<s>	0
</s>	0
▁t	-0
he	-1
▁a	-2
in	-3
re	-4
▁the	-5
on	-6
er	-7
is	-8
en	-9
▁s	-10
at	-11
ed	-12
▁w	-13
nd	-14
▁o	-15
▁c	-16
ha	-17
▁b	-18
▁in	-19
it	-20
▁p	-21
or	-22
▁f	-23
es	-24
▁T	-25
▁of	-26
ar	-27
al	-28
an	-29
ing	-30
ou	-31
▁d	-32
as	-33
▁to	-34
ic	-35
▁and	-36
il	-37
ion	-38
ent	-39
▁m	-40
▁The	-41
▁ha	-42
▁S	-43
▁be	-44
▁I	-45
ro	-46
le	-47
id	-48
▁A	-49
▁M	-50
▁th	-51
▁P	-52
▁n	-53
▁re	-54
ol	-55
▁is	-56
ve	-57
▁B	-58
ot	-59
▁h	-60
ter	-61
▁C	-62
▁H	-63
▁l	-64
ver	-65
ra	-66
st	-67
om	-68
▁g	-69
ct	-70
im	-71
ill	-72
ation	-73
ur	-74
ut	-75
▁e	-76
▁for	-77
am	-78
ad	-79
et	-80
▁was	-81
ir	-82
▁on	-83
▁al	-84
▁st	-85
▁he	-86
ay	-87
ment	-88
el	-89
us	-90
▁has	-91
ce	-92
ice	-93
ig	-94
ow	-95
▁D	-96
res	-97
▁R	-98
▁will	-99
ak	-100
od	-101
▁N	-102
hi	-103
ly	-104
ere	-105
ri	-106
▁de	-107
ist	-108
▁are	-109
os	-110
ia	-111
▁Ind	-112
ac	-113
ers	-114
▁that	-115
▁K	-116
est	-117
nt	-118
▁G	-119
olice	-120
▁have	-121
▁He	-122
ul	-123
▁con	-124
her	-125
op	-126
▁u	-127
▁pro	-128
▁at	-129
▁not	-130
▁v	-131
ate	-132
▁it	-133
▁y	-134
▁been	-135
▁W	-136
ain	-137
art	-138
ith	-139
ister	-140
and	-141
ort	-142
▁an	-143
pp	-144
so	-145
▁this	-146
inister	-147
▁by	-148
our	-149
▁se	-150
▁as	-151
▁with	-152
▁sa	-153
ident	-154
▁also	-155
ld	-156
▁com	-157
red	-158
ag	-159
▁F	-160
um	-161
ab	-162
▁go	-163
th	-164
▁Minister	-165
▁India	-166
▁were	-167
▁police	-168
ch	-169
▁J	-170
cc	-171
if	-172
han	-173
▁said	-174
ong	-175
▁wh	-176
▁sp	-177
▁O	-178
ies	-179
▁L	-180
▁su	-181
rom	-182
ime	-183
se	-184
ity	-185
▁Th	-186
▁from	-187
▁inc	-188
ess	-189
vern	-190
ud	-191
un	-192
oc	-193
▁ne	-194
end	-195
ef	-196
▁his	-197
▁E	-198
em	-199
▁r	-200
ress	-201
vernment	-202
▁It	-203
▁k	-204
ht	-205
iv	-206
ect	-207
ial	-208
▁ex	-209
▁But	-210
ry	-211
ant	-212
ore	-213
▁le	-214
▁wor	-215
ric	-216
qu	-217
ther	-218
▁cou	-219
ated	-220
har	-221
▁had	-222
ous	-223
hed	-224
▁U	-225
▁res	-226
▁ar	-227
ard	-228
ction	-229
ire	-230
ff	-231
ll	-232
eop	-233
▁ag	-234
ital	-235
ive	-236
▁all	-237
▁This	-238
eople	-239
▁ad	-240
ap	-241
▁Pr	-242
fter	-243
▁BJ	-244
are	-245
ep	-246
ok	-247
▁you	-248
wo	-249
ast	-250
""	-251
▁pl	-252
▁tak	-253
ted	-254
ase	-255
ue	-256
ik	-257
ome	-258
▁me	-259
osp	-260
one	-261
ge	-262
▁government	-263
▁Y	-264
▁acc	-265
orm	-266
ust	-267
▁BJP	-268
▁Ra	-269
ever	-270
port	-271
very	-272
ian	-273
ure	-274
▁St	-275
ospital	-276
▁int	-277
▁j	-278
▁no	-279
▁sh	-280
▁In	-281
▁im	-282
▁people	-283
ide	-284
▁inv	-285
hief	-286
▁part	-287
ition	-288
ost	-289
▁or	-290
▁do	-291
▁off	-292
ater	-293
ould	-294
▁him	-295
▁comp	-296
ight	-297
▁Police	-298
▁(	-299
ind	-300
ath	-301
nder	-302
▁Prime	-303
ary	-304
mit	-305
ctor	-306
▁count	-307
▁V	-308
▁ab	-309
ied	-310
▁1	-311
▁There	-312
▁their	-313
▁up	-314
ec	-315
▁incident	-316
out	-317
▁How	-318
▁them	-319
▁pres	-320
av	-321
▁out	-322
ations	-323
▁after	-324
..	-325
▁invest	-326
▁man	-327
ace	-328
ence	-329
▁there	-330
ew	-331
▁Mod	-332
ell	-333
ack	-334
▁spot	-335
age	-336
▁can	-337
▁other	-338
amil	-339
▁fil	-340
rou	-341
▁again	-342
ult	-343
ame	-344
form	-345
▁work	-346
▁hospital	-347
▁Modi	-348
▁ra	-349
▁cont	-350
▁Go	-351
▁sha	-352
▁under	-353
▁Cong	-354
▁2	-355
ious	-356
▁we	-357
▁And	-358
all	-359
hil	-360
rict	-361
▁two	-362
▁Congress	-363
ical	-364
used	-365
▁dis	-366
li	-367
way	-368
▁reg	-369
▁investig	-370
iz	-371
▁day	-372
og	-373
ens	-374
per	-375
ass	-376
▁ro	-377
ail	-378
ip	-379
istan	-380
▁Indian	-381
▁te	-382
▁case	-383
▁inj	-384
hen	-385
▁they	-386
ured	-387
▁so	-388
ord	-389
vel	-390
▁into	-391
▁state	-392
▁one	-393
▁being	-394
gh	-395
▁app	-396
ub	-397
▁However	-398
du	-399
▁country	-400
▁time	-401
▁att	-402
▁Chief	-403
istrict	-404
ru	-405
ody	-406
▁lead	-407
▁taken	-408
▁tra	-409
ered	-410
ged	-411
umb	-412
ich	-413
▁against	-414
▁am	-415
▁any	-416
▁over	-417
oll	-418
▁They	-419
lo	-420
ade	-421
rest	-422
▁her	-423
▁sc	-424
▁ser	-425
ational	-426
ash	-427
erson	-428
ov	-429
we	-430
▁Wh	-431
▁dec	-432
oth	-433
▁new	-434
ndra	-435
ble	-436
ang	-437
▁en	-438
▁un	-439
▁about	-440
esh	-441
ine	-442
▁arrest	-443
▁cl	-444
▁As	-445
ans	-446
▁famil	-447
ish	-448
▁fir	-449
ents	-450
▁get	-451
now	-452
▁On	-453
ram	-454
alth	-455
ourt	-456
▁You	-457
ear	-458
ign	-459
▁ev	-460
▁Del	-461
ree	-462
ife	-463
able	-464
▁bet	-465
ach	-466
ions	-467
▁Delhi	-468
igh	-469
▁We	-470
ance	-471
▁inform	-472
me	-473
reat	-474
ingh	-475
▁which	-476
▁your	-477
▁med	-478
▁would	-479
▁offic	-480
▁injured	-481
ove	-482
rit	-483
▁our	-484
ely	-485
akistan	-486
▁la	-487
▁rec	-488
▁film	-489
ates	-490
ound	-491
▁who	-492
▁first	-493
▁start	-494
▁happ	-495
ren	-496
▁sec	-497
▁district	-498
▁its	-499
▁qu	-500
▁exp	-501
ities	-502
▁report	-503
▁did	-504
▁person	-505
▁arrested	-506
▁mat	-507
▁Pakistan	-508
na	-509
ile	-510
▁us	-511
aj	-512
▁Raj	-513
up	-514
ached	-515
dition	-516
oin	-517
▁She	-518
▁meet	-519
med	-520
▁Singh	-521
mer	-522
▁Sh	-523
ces	-524
▁Un	-525
old	-526
▁Ch	-527
▁ac	-528
▁shall	-529
▁made	-530
▁Government	-531
ake	-532
iss	-533
ating	-534
▁present	-535
▁family	-536
isha	-537
▁far	-538
▁Pra	-539
▁wom	-540
ked	-541
arendra	-542
hild	-543
ween	-544
▁iss	-545
ased	-546
▁imp	-547
▁between	-548
▁per	-549
ised	-550
uring	-551
velop	-552
resident	-553
ved	-554
▁reached	-555
▁Narendra	-556
ward	-557
▁know	-558
ose	-559
▁""	-560
▁body	-561
▁lik	-562
cted	-563
▁State	-564
▁ele	-565
ks	-566
der	-567
lic	-568
pt	-569
▁Man	-570
▁stud	-571
ise	-572
▁Ma	-573
ings	-574
."	-575
▁my	-576
▁rem	-577
▁died	-578
▁soc	-579
▁then	-580
hip	-581
▁An	-582
▁Pat	-583
ject	-584
▁President	-585
▁tr	-586
▁loc	-587
ob	-588
eng	-589
▁Ar	-590
▁pre	-591
▁investigation	-592
▁but	-593
▁20	-594
▁cro	-595
▁accused	-596
emb	-597
ya	-598
pport	-599
ned	-600
▁more	-601
ai	-602
ond	-603
ook	-604
▁every	-605
▁child	-606
...	-607
▁occ	-608
au	-609
ret	-610
ced	-611
mitted	-612
▁started	-613
▁De	-614
inist	-615
▁fire	-616
tain	-617
▁very	-618
ee	-619
itu	-620
▁pol	-621
als	-622
▁ter	-623
▁inter	-624
ma	-625
les	-626
pur	-627
▁Od	-628
▁should	-629
ket	-630
▁ent	-631
▁prov	-632
ave	-633
ouse	-634
ters	-635
▁All	-636
▁health	-637
▁world	-638
oun	-639
fere	-640
▁incre	-641
gan	-642
▁co	-643
ons	-644
ank	-645
▁Com	-646
aus	-647
ments	-648
▁resp	-649
▁Odisha	-650
lud	-651
man	-652
▁Gand	-653
▁Prad	-654
▁kill	-655
▁pass	-656
get	-657
ened	-658
▁cha	-659
▁minister	-660
ning	-661
ally	-662
▁rel	-663
▁meeting	-664
▁need	-665
vers	-666
▁Cha	-667
▁many	-668
ries	-669
other	-670
▁bl	-671
▁vis	-672
▁when	-673
▁develop	-674
00	-675
ral	-676
▁dep	-677
▁how	-678
▁dem	-679
▁mar	-680
▁post	-681
▁sent	-682
▁some	-683
mp	-684
▁well	-685
▁Gandhi	-686
ict	-687
fore	-688
▁comm	-689
▁bec	-690
▁unt	-691
here	-692
▁yet	-693
▁than	-694
ib	-695
ont	-696
▁add	-697
▁prog	-698
ool	-699
▁Sec	-700
▁water	-701
ory	-702
own	-703
▁PM	-704
ected	-705
▁action	-706
▁New	-707
▁say	-708
▁such	-709
act	-710
war	-711
und	-712
▁she	-713
▁death	-714
ght	-715
▁social	-716
rough	-717
ats	-718
▁No	-719
la	-720
▁Sha	-721
ollow	-722
▁numb	-723
▁hel	-724
▁place	-725
▁matter	-726
ck	-727
ather	-728
day	-729
▁disc	-730
mb	-731
▁take	-732
ives	-733
▁Rs	-734
arli	-735
▁For	-736
▁official	-737
ss	-738
elf	-739
▁informed	-740
▁dire	-741
▁includ	-742
ause	-743
▁pos	-744
ite	-745
ful	-746
lain	-747
ting	-748
▁too	-749
▁life	-750
▁through	-751
ie	-752
▁road	-753
▁rain	-754
▁chief	-755
riend	-756
▁help	-757
▁His	-758
▁ann	-759
▁chan	-760
▁these	-761
ati	-762
rib	-763
ror	-764
▁come	-765
▁year	-766
▁media	-767
▁both	-768
▁good	-769
▁during	-770
ala	-771
con	-772
umar	-773
chool	-774
▁only	-775
▁team	-776
▁unto	-777
arious	-778
▁while	-779
ower	-780
ision	-781
▁took	-782
ission	-783
▁students	-784
ey	-785
▁Ad	-786
▁car	-787
▁play	-788
retary	-789
▁So	-790
▁dif	-791
▁due	-792
ued	-793
mers	-794
▁bus	-795
ended	-796
▁number	-797
▁like	-798
▁hand	-799
▁later	-800
▁5	-801
▁even	-802
mir	-803
ood	-804
oor	-805
▁ben	-806
urity	-807
▁memb	-808
▁vide	-809
▁3	-810
row	-811
▁vill	-812
▁killed	-813
led	-814
ushed	-815
▁Court	-816
▁party	-817
▁attack	-818
cer	-819
ior	-820
▁alle	-821
▁situ	-822
iness	-823
ution	-824
amp	-825
ana	-826
▁eff	-827
▁could	-828
▁condition	-829
cy	-830
ount	-831
read	-832
▁Kumar	-833
▁"	-834
uss	-835
▁Cent	-836
▁polit	-837
▁admitted	-838
akh	-839
▁Bh	-840
▁Kash	-841
▁court	-842
▁complain	-843
ft	-844
ized	-845
stit	-846
▁ind	-847
▁prot	-848
▁regard	-849
▁situation	-850
ited	-851
▁br	-852
ided	-853
▁act	-854
▁pr	-855
▁dead	-856
▁occas	-857
ried	-858
▁thou	-859
▁rushed	-860
▁"""	-861
▁Shri	-862
▁What	-863
▁cent	-864
▁Kashmir	-865
▁president	-866
ness	-867
▁Mo	-868
ural	-869
▁Pradesh	-870
▁serv	-871
▁occasion	-872
▁col	-873
▁rep	-874
▁found	-875
ata	-876
▁fe	-877
ener	-878
▁mov	-879
▁video	-880
▁accident	-881
ng	-882
urther	-883
▁contin	-884
▁various	-885
▁ass	-886
▁house	-887
▁support	-888
▁Pro	-889
▁fac	-890
▁area	-891
ures	-892
ccess	-893
ctors	-894
▁cons	-895
▁rece	-896
ecial	-897
ctions	-898
iat	-899
▁fin	-900
conom	-901
▁home	-902
▁leaders	-903
▁After	-904
▁Patna	-905
▁children	-906
▁Ram	-907
▁giv	-908
ides	-909
ices	-910
▁201	-911
▁son	-912
artment	-913
▁complaint	-914
ists	-915
osed	-916
▁high	-917
▁cur	-918
▁Union	-919
▁remain	-920
olog	-921
umbai	-922
▁crore	-923
eep	-924
ran	-925
▁cap	-926
▁ve	-927
uth	-928
▁ph	-929
ified	-930
ublic	-931
▁among	-932
ci	-933
irl	-934
▁last	-935
▁what	-936
▁Mumbai	-937
▁reported	-938
RD	-939
riends	-940
▁program	-941
▁success	-942
▁development	-943
ars	-944
▁op	-945
▁treat	-946
ink	-947
▁ret	-948
eth	-949
ues	-950
ants	-951
▁terror	-952
▁bro	-953
▁three	-954
▁import	-955
arh	-956
▁Is	-957
▁vi	-958
cess	-959
▁One	-960
▁oper	-961
ms	-962
hes	-963
▁members	-964
▁benef	-965
▁fl	-966
▁str	-967
▁came	-968
▁women	-969
hul	-970
ched	-971
orts	-972
ently	-973
ility	-974
anj	-975
▁announ	-976
▁regist	-977
ors	-978
ases	-979
▁join	-980
rent	-981
tern	-982
▁proble	-983
▁Patnaik	-984
▁treatment	-985
usp	-986
▁sub	-987
ollowing	-988
▁differe	-989
▁farmers	-990
▁school	-991
anc	-992
ges	-993
ism	-994
rat	-995
▁Khan	-996
▁before	-997
xt	-998
ock	-999
ible	-1000
ways	-1001
▁set	-1002
▁down	-1003
▁going	-1004
▁demand	-1005
▁back	-1006
ording	-1007
▁Hospital	-1008
ele	-1009
▁if	-1010
▁law	-1011
▁given	-1012
▁former	-1013
uc	-1014
▁mur	-1015
▁lakh	-1016
pe	-1017
its	-1018
riv	-1019
enior	-1020
▁look	-1021
▁serious	-1022
▁God	-1023
▁mon	-1024
ament	-1025
BI	-1026
ific	-1027
▁Comm	-1028
oy	-1029
▁LO	-1030
▁woman	-1031
▁registered	-1032
ute	-1033
▁make	-1034
▁resc	-1035
▁leader	-1036
ug	-1037
▁Sab	-1038
▁LORD	-1039
▁land	-1040
hic	-1041
▁Sa	-1042
▁Both	-1043
▁girl	-1044
▁partic	-1045
▁National	-1046
▁information	-1047
be	-1048
nect	-1049
ressed	-1050
▁issue	-1051
▁econom	-1052
vi	-1053
ics	-1054
ner	-1055
▁cor	-1056
▁That	-1057
▁sur	-1058
▁further	-1059
ven	-1060
▁fi	-1061
▁those	-1062
▁security	-1063
▁Secretary	-1064
▁different	-1065
▁4	-1066
loy	-1067
asht	-1068
ple	-1069
river	-1070
▁Chin	-1071
▁long	-1072
ration	-1073
▁comple	-1074
▁project	-1075
▁away	-1076
▁officials	-1077
uch	-1078
▁ed	-1079
ross	-1080
▁Dep	-1081
▁countries	-1082
oh	-1083
chn	-1084
rol	-1085
▁does	-1086
▁susp	-1087
hile	-1088
▁cle	-1089
▁got	-1090
▁see	-1091
▁Just	-1092
▁Shar	-1093
▁call	-1094
▁soon	-1095
▁ident	-1096
▁visit	-1097
inistry	-1098
▁here	-1099
▁Me	-1100
▁laun	-1101
▁today	-1102
▁bu	-1103
▁cr	-1104
▁Two	-1105
ffic	-1106
▁Rahul	-1107
air	-1108
avy	-1109
▁def	-1110
▁done	-1111
vail	-1112
▁organ	-1113
▁others	-1114
att	-1115
▁Am	-1116
▁head	-1117
▁People	-1118
▁across	-1119
▁Ab	-1120
▁Bi	-1121
▁emp	-1122
▁happened	-1123
▁Tr	-1124
▁US	-1125
▁Then	-1126
▁days	-1127
ulture	-1128
▁connect	-1129
uj	-1130
▁vir	-1131
▁still	-1132
▁current	-1133
my	-1134
wn	-1135
wood	-1136
▁aff	-1137
▁won	-1138
ivers	-1139
▁held	-1140
▁quest	-1141
▁entire	-1142
▁discuss	-1143
ular	-1144
▁Jam	-1145
aking	-1146
▁Wor	-1147
veral	-1148
▁crit	-1149
▁rele	-1150
▁result	-1151
▁several	-1152
ty	-1153
eld	-1154
ush	-1155
▁air	-1156
▁Many	-1157
▁decision	-1158
ias	-1159
▁sm	-1160
olly	-1161
▁big	-1162
▁har	-1163
▁way	-1164
▁trans	-1165
-1	-1166
iet	-1167
▁sy	-1168
▁lar	-1169
▁conf	-1170
▁went	-1171
▁local	-1172
▁where	-1173
arn	-1174
arch	-1175
▁inf	-1176
▁fore	-1177
▁wife	-1178
ashtra	-1179
oot	-1180
▁det	-1181
▁Sharma	-1182
ollywood	-1183
▁however	-1184
ani	-1185
▁If	-1186
▁ob	-1187
ived	-1188
outh	-1189
▁vehic	-1190
ins	-1191
▁Al	-1192
andid	-1193
▁Sabha	-1194
▁appro	-1195
▁const	-1196
uk	-1197
▁At	-1198
▁Kap	-1199
▁father	-1200
overed	-1201
▁alleged	-1202
eg	-1203
bal	-1204
▁immed	-1205
▁particip	-1206
▁districts	-1207
ote	-1208
▁Nave	-1209
▁Shah	-1210
minist	-1211
▁investigating	-1212
ham	-1213
▁name	-1214
▁plac	-1215
▁requ	-1216
▁condu	-1217
▁seized	-1218
▁'	-1219
esp	-1220
hal	-1221
ason	-1222
ired	-1223
▁beg	-1224
ention	-1225
▁Mahar	-1226
▁power	-1227
▁produ	-1228
▁Naveen	-1229
ump	-1230
itiz	-1231
endra	-1232
▁educ	-1233
▁colle	-1234
▁Ministry	-1235
▁including	-1236
▁pe	-1237
ince	-1238
▁Acc	-1239
▁Con	-1240
▁cre	-1241
wards	-1242
▁Bollywood	-1243
gy	-1244
▁ins	-1245
▁ref	-1246
eswar	-1247
ortem	-1248
▁Amit	-1249
▁years	-1250
go	-1251
mu	-1252
▁Every	-1253
▁commit	-1254
▁second	-1255
▁village	-1256
▁important	-1257
▁gu	-1258
stem	-1259
▁win	-1260
▁init	-1261
▁prom	-1262
▁elections	-1263
nel	-1264
▁Te	-1265
▁lot	-1266
▁main	-1267
▁Be	-1268
▁Its	-1269
▁just	-1270
aim	-1271
▁poss	-1272
▁increase	-1273
urn	-1274
▁Ex	-1275
hant	-1276
ppos	-1277
semb	-1278
▁High	-1279
▁decla	-1280
kar	-1281
▁sk	-1282
▁Sup	-1283
▁role	-1284
▁declared	-1285
tar	-1286
▁Ag	-1287
ajor	-1288
augh	-1289
reme	-1290
▁each	-1291
▁areas	-1292
▁Health	-1293
ada	-1294
▁Dr	-1295
urned	-1296
▁grow	-1297
▁cause	-1298
▁candid	-1299
▁Maharashtra	-1300
ual	-1301
engal	-1302
ished	-1303
uthor	-1304
▁most	-1305
▁same	-1306
▁vict	-1307
▁great	-1308
▁murder	-1309
▁senior	-1310
oney	-1311
unity	-1312
▁Jammu	-1313
▁movie	-1314
▁protest	-1315
▁Bal	-1316
▁Justice	-1317
eleb	-1318
thing	-1319
▁want	-1320
sembly	-1321
▁avail	-1322
▁claim	-1323
▁Bengal	-1324
▁programme	-1325
▁10	-1326
▁sche	-1327
arlier	-1328
eneral	-1329
▁known	-1330
▁administ	-1331
eve	-1332
par	-1333
gest	-1334
orth	-1335
▁Sam	-1336
▁ext	-1337
▁let	-1338
▁form	-1339
▁seen	-1340
▁field	-1341
▁right	-1342
▁strong	-1343
).	-1344
▁Do	-1345
▁del	-1346
▁four	-1347
▁much	-1348
arliament	-1349
ah	-1350
ax	-1351
ops	-1352
ages	-1353
▁Fin	-1354
▁tal	-1355
chnolog	-1356
▁Supreme	-1357
ten	-1358
lood	-1359
▁show	-1360
▁daugh	-1361
▁youth	-1362
▁public	-1363
▁business	-1364
▁political	-1365
▁recovered	-1366
ts	-1367
ering	-1368
▁filed	-1369
▁Indias	-1370
ke	-1371
band	-1372
hand	-1373
ourn	-1374
▁major	-1375
▁national	-1376
),	-1377
▁Bhar	-1378
▁dece	-1379
▁These	-1380
▁Kapoor	-1381
▁mother	-1382
▁relations	-1383
▁bo	-1384
ared	-1385
▁adv	-1386
▁ful	-1387
ready	-1388
▁prop	-1389
▁Central	-1390
ild	-1391
ird	-1392
tee	-1393
▁Im	-1394
arty	-1395
ality	-1396
ience	-1397
▁thee	-1398
mortem	-1399
▁injur	-1400
▁never	-1401
▁special	-1402
▁launched	-1403
▁-	-1404
com	-1405
erv	-1406
garh	-1407
asing	-1408
▁cases	-1409
▁celeb	-1410
▁happy	-1411
▁month	-1412
oper	-1413
▁Lok	-1414
▁bas	-1415
▁camp	-1416
▁impro	-1417
▁peace	-1418
▁deceased	-1419
▁Commission	-1420
ines	-1421
▁CBI	-1422
▁few	-1423
ative	-1424
▁places	-1425
▁District	-1426
te	-1427
▁Ja	-1428
uban	-1429
▁men	-1430
▁run	-1431
▁war	-1432
▁news	-1433
▁upon	-1434
▁writ	-1435
▁along	-1436
▁intern	-1437
▁persons	-1438
▁question	-1439
pl	-1440
▁%	-1441
ilit	-1442
▁Son	-1443
▁end	-1444
▁thy	-1445
▁poll	-1446
▁suff	-1447
▁viral	-1448
▁driver	-1449
▁ch	-1450
▁Hind	-1451
▁char	-1452
▁grou	-1453
▁sign	-1454
▁step	-1455
▁event	-1456
▁already	-1457
pposition	-1458
▁According	-1459
▁Department	-1460
▁ye	-1461
ones	-1462
▁Act	-1463
▁Mal	-1464
▁move	-1465
▁must	-1466
usband	-1467
▁reason	-1468
ix	-1469
▁spe	-1470
rought	-1471
▁brother	-1472
ped	-1473
▁Sp	-1474
aged	-1475
chan	-1476
▁pra	-1477
▁sol	-1478
▁tre	-1479
icide	-1480
ising	-1481
▁Pand	-1482
iately	-1483
lement	-1484
▁train	-1485
▁critical	-1486
▁currently	-1487
arat	-1488
▁dont	-1489
▁money	-1490
ination	-1491
▁opport	-1492
▁sector	-1493
ubaneswar	-1494
de	-1495
▁6	-1496
not	-1497
ands	-1498
self	-1499
▁gra	-1500
▁shi	-1501
ained	-1502
▁probe	-1503
▁announced	-1504
▁Ut	-1505
ature	-1506
rying	-1507
▁open	-1508
▁used	-1509
▁viol	-1510
gether	-1511
▁China	-1512
▁World	-1513
▁lives	-1514
▁match	-1515
▁author	-1516
▁together	-1517
▁Af	-1518
uman	-1519
▁care	-1520
▁dest	-1521
▁near	-1522
▁added	-1523
▁nation	-1524
▁friends	-1525
▁attended	-1526
▁compan	-1527
▁personnel	-1528
▁identified	-1529
az	-1530
eal	-1531
▁ca	-1532
reng	-1533
▁Med	-1534
▁exam	-1535
▁actor	-1536
▁another	-1537
▁suicide	-1538
▁underway	-1539
irus	-1540
▁Shi	-1541
▁jud	-1542
▁citiz	-1543
▁issued	-1544
▁process	-1545
▁provide	-1546
▁immediately	-1547
ph	-1548
,""	-1549
uty	-1550
▁glo	-1551
▁Rail	-1552
ale	-1553
men	-1554
ency	-1555
▁Bha	-1556
▁Res	-1557
▁est	-1558
▁leg	-1559
▁respons	-1560
▁expressed	-1561
▁operation	-1562
▁Bhubaneswar	-1563
ick	-1564
fall	-1565
onav	-1566
▁Guj	-1567
▁beh	-1568
▁bre	-1569
ailed	-1570
engers	-1571
▁Later	-1572
▁asked	-1573
▁chall	-1574
▁issues	-1575
▁streng	-1576
onavirus	-1577
▁received	-1578
▁following	-1579
▁Le	-1580
uture	-1581
ession	-1582
▁system	-1583
▁available	-1584
ark	-1585
▁face	-1586
ricket	-1587
▁Uttar	-1588
ultural	-1589
▁account	-1590
▁efforts	-1591
ets	-1592
utt	-1593
▁pop	-1594
▁top	-1595
ption	-1596
▁list	-1597
▁heart	-1598
▁level	-1599
chnology	-1600
▁doctors	-1601
▁.	-1602
aid	-1603
has	-1604
▁Mad	-1605
▁min	-1606
▁mod	-1607
▁saf	-1608
▁tem	-1609
feren	-1610
▁keep	-1611
▁spok	-1612
▁states	-1613
▁expected	-1614
▁Parliament	-1615
CC	-1616
pr	-1617
oss	-1618
▁Su	-1619
airs	-1620
fted	-1621
quir	-1622
▁now	-1623
▁use	-1624
stand	-1625
▁Army	-1626
▁next	-1627
▁test	-1628
▁order	-1629
etition	-1630
▁called	-1631
▁future	-1632
▁address	-1633
▁brought	-1634
▁services	-1635
▁administration	-1636
wal	-1637
▁BJD	-1638
▁fun	-1639
arent	-1640
▁Stud	-1641
▁inst	-1642
asthan	-1643
▁cannot	-1644
▁shifted	-1645
▁demanded	-1646
▁injuries	-1647
▁education	-1648
ena	-1649
cing	-1650
▁Day	-1651
▁Ele	-1652
▁Pun	-1653
▁Who	-1654
▁des	-1655
▁why	-1656
▁Bank	-1657
▁exper	-1658
▁young	-1659
▁celebr	-1660
▁shared	-1661
▁provided	-1662
aug	-1663
ike	-1664
wit	-1665
ware	-1666
▁Eng	-1667
▁lod	-1668
▁mor	-1669
ension	-1670
▁occur	-1671
▁become	-1672
▁likely	-1673
▁getting	-1674
▁Rajasthan	-1675
ID	-1676
sequ	-1677
▁Def	-1678
erest	-1679
iving	-1680
▁plan	-1681
stitut	-1682
▁Trump	-1683
▁large	-1684
▁husband	-1685
▁working	-1686
▁problems	-1687
hu	-1688
ees	-1689
mon	-1690
▁lo	-1691
ners	-1692
ving	-1693
▁city	-1694
▁cong	-1695
▁poor	-1696
▁rest	-1697
▁South	-1698
▁bring	-1699
▁night	-1700
▁office	-1701
▁region	-1702
jay	-1703
▁Cor	-1704
▁ens	-1705
acher	-1706
ences	-1707
▁give	-1708
▁clear	-1709
▁heavy	-1710
▁inaug	-1711
▁third	-1712
ibility	-1713
▁employ	-1714
▁locals	-1715
▁search	-1716
▁7	-1717
ert	-1718
imes	-1719
line	-1720
▁Air	-1721
▁key	-1722
▁put	-1723
▁left	-1724
▁taking	-1725
▁Gujarat	-1726
iron	-1727
vent	-1728
▁che	-1729
ither	-1730
quiry	-1731
▁food	-1732
▁scheme	-1733
▁problem	-1734
operation	-1735
aw	-1736
ging	-1737
oint	-1738
▁Why	-1739
▁rul	-1740
▁lodged	-1741
▁victim	-1742
▁Assembly	-1743
▁continue	-1744
▁sl	-1745
abad	-1746
▁val	-1747
▁Home	-1748
▁West	-1749
▁When	-1750
▁beli	-1751
▁Centre	-1752
▁market	-1753
▁saying	-1754
aff	-1755
lad	-1756
rael	-1757
ream	-1758
▁Col	-1759
▁job	-1760
▁ple	-1761
ratul	-1762
▁Aust	-1763
▁cust	-1764
▁love	-1765
▁pric	-1766
▁till	-1767
▁needs	-1768
ditional	-1769
▁Friends	-1770
▁medical	-1771
▁workers	-1772
▁daughter	-1773
▁implement	-1774
▁department	-1775
mi	-1776
orn	-1777
▁My	-1778
▁ur	-1779
lish	-1780
▁Sub	-1781
▁may	-1782
icket	-1783
▁Some	-1784
▁cond	-1785
▁dies	-1786
▁hist	-1787
▁phot	-1788
tained	-1789
▁build	-1790
▁rescued	-1791
▁towards	-1792
▁directed	-1793
▁economic	-1794
▁officers	-1795
▁increasing	-1796
▁8	-1797
mes	-1798
▁MP	-1799
iety	-1800
irth	-1801
pped	-1802
▁pri	-1803
dered	-1804
going	-1805
▁Form	-1806
▁gone	-1807
▁supp	-1808
ancial	-1809
▁Party	-1810
▁since	-1811
▁Israel	-1812
▁rescue	-1813
▁resign	-1814
▁benefit	-1815
▁families	-1816
▁interest	-1817
ined	-1818
ivil	-1819
ying	-1820
▁gre	-1821
undred	-1822
▁allow	-1823
▁short	-1824
riculture	-1825
▁connection	-1826
cil	-1827
lim	-1828
agar	-1829
▁hit	-1830
▁own	-1831
▁pan	-1832
▁stop	-1833
▁Famil	-1834
▁Tamil	-1835
▁parts	-1836
▁things	-1837
▁projects	-1838
▁international	-1839
ps	-1840
ves	-1841
ough	-1842
ruct	-1843
weet	-1844
▁dev	-1845
▁Bang	-1846
▁With	-1847
▁around	-1848
▁Austral	-1849
▁Develop	-1850
▁inaugur	-1851
▁politics	-1852
▁passengers	-1853
ari	-1854
uri	-1855
king	-1856
▁Wom	-1857
udget	-1858
▁Dire	-1859
▁best	-1860
▁lost	-1861
▁Bihar	-1862
▁didnt	-1863
▁Family	-1864
▁always	-1865
▁concer	-1866
▁prices	-1867
▁proper	-1868
▁Finance	-1869
▁parties	-1870
hya	-1871
ient	-1872
ours	-1873
▁bur	-1874
▁read	-1875
▁view	-1876
ointed	-1877
vernor	-1878
▁Former	-1879
iversity	-1880
▁because	-1881
sequently	-1882
LA	-1883
▁19	-1884
atch	-1885
▁hig	-1886
▁met	-1887
▁pay	-1888
aring	-1889
▁achi	-1890
▁dist	-1891
▁While	-1892
▁began	-1893
▁fight	-1894
▁behind	-1895
▁happen	-1896
▁Following	-1897
▁authorities	-1898
20	-1899
jab	-1900
yed	-1901
▁En	-1902
▁Aff	-1903
▁Jan	-1904
▁art	-1905
▁hon	-1906
▁coll	-1907
▁word	-1908
everal	-1909
witter	-1910
▁change	-1911
▁Development	-1912
lt	-1913
inc	-1914
▁dam	-1915
▁mob	-1916
▁king	-1917
▁pati	-1918
idence	-1919
▁Punjab	-1920
▁forces	-1921
▁Several	-1922
▁morning	-1923
▁progress	-1924
▁rainfall	-1925
▁released	-1926
▁conducted	-1927
icy	-1928
▁gr	-1929
range	-1930
while	-1931
▁priv	-1932
▁trib	-1933
illion	-1934
ilities	-1935
▁effect	-1936
▁indust	-1937
▁control	-1938
▁without	-1939
▁citizens	-1940
▁CO	-1941
▁Sc	-1942
▁To	-1943
ruck	-1944
soci	-1945
▁Far	-1946
▁Tra	-1947
agers	-1948
▁hath	-1949
▁rail	-1950
▁true	-1951
ential	-1952
▁birth	-1953
▁States	-1954
▁follow	-1955
▁traffic	-1956
ork	-1957
▁Pl	-1958
▁dr	-1959
▁Can	-1960
▁aut	-1961
▁eng	-1962
▁oil	-1963
iated	-1964
olved	-1965
viron	-1966
▁cost	-1967
esides	-1968
anwhile	-1969
▁global	-1970
▁Affairs	-1971
vironment	-1972
▁possible	-1973
▁congratul	-1974
els	-1975
inet	-1976
land	-1977
▁Sal	-1978
▁led	-1979
▁pur	-1980
ouses	-1981
▁disp	-1982
▁rains	-1983
▁Twitter	-1984
▁improve	-1985
▁teacher	-1986
▁Students	-1987
"""	-1988
adi	-1989
▁Ne	-1990
▁fa	-1991
cell	-1992
inal	-1993
ises	-1994
pted	-1995
then	-1996
▁tour	-1997
ources	-1998
▁heard	-1999
▁human	-2000
▁light	-2001
▁Defence	-2002
▁respect	-2003
stitution	-2004
▁committee	-2005
duc	-2006
ails	-2007
angu	-2008
▁Loc	-2009
▁tot	-2010
epend	-2011
▁hard	-2012
▁hold	-2013
▁past	-2014
▁prof	-2015
abinet	-2016
▁might	-2017
▁caused	-2018
▁joined	-2019
▁sister	-2020
▁9	-2021
-19	-2022
hay	-2023
aign	-2024
▁Jag	-2025
▁sal	-2026
ivity	-2027
▁mind	-2028
▁CM	-2029
▁Re	-2030
▁sw	-2031
hing	-2032
▁May	-2033
▁nam	-2034
itive	-2035
▁redu	-2036
ending	-2037
gation	-2038
▁estab	-2039
▁thous	-2040
▁spread	-2041
▁contest	-2042
▁decided	-2043
▁secretary	-2044
cl	-2045
VID	-2046
aka	-2047
pan	-2048
ceed	-2049
onse	-2050
▁Nad	-2051
iance	-2052
▁Educ	-2053
▁Fore	-2054
▁Pras	-2055
▁Shiv	-2056
▁find	-2057
arents	-2058
▁basis	-2059
▁stand	-2060
▁coming	-2061
▁General	-2062
▁forward	-2063
▁Ministers	-2064
▁participated	-2065
oj	-2066
ene	-2067
ira	-2068
▁eas	-2069
▁old	-2070
▁five	-2071
▁sing	-2072
uttack	-2073
▁closed	-2074
▁Chandra	-2075
▁claimed	-2076
▁station	-2077
▁candidate	-2078
▁organised	-2079
▁successful	-2080
irm	-2081
reed	-2082
view	-2083
▁Bar	-2084
▁ban	-2085
▁deb	-2086
▁lit	-2087
▁Test	-2088
▁sele	-2089
▁award	-2090
▁steps	-2091
isation	-2092
istance	-2093
▁growth	-2094
▁cricket	-2095
▁earlier	-2096
▁economy	-2097
▁inquiry	-2098
▁schools	-2099
▁service	-2100
▁vehicle	-2101
▁function	-2102
▁vehicles	-2103
▁strengthen	-2104
▁terrorists	-2105
▁cooperation	-2106
▁Kh	-2107
▁Vi	-2108
vere	-2109
▁Ker	-2110
▁MLA	-2111
▁sim	-2112
ocked	-2113
rived	-2114
▁Karn	-2115
▁Lord	-2116
▁acce	-2117
▁book	-2118
▁accom	-2119
agement	-2120
▁making	-2121
dra	-2122
ern	-2123
fic	-2124
▁15	-2125
come	-2126
less	-2127
aries	-2128
irman	-2129
▁feel	-2130
▁gave	-2131
hether	-2132
▁COVID	-2133
▁doing	-2134
ference	-2135
▁houses	-2136
▁raised	-2137
▁Cuttack	-2138
▁election	-2139
▁coronavirus	-2140
by	-2141
ns	-2142
ys	-2143
amb	-2144
era	-2145
ger	-2146
uge	-2147
rast	-2148
▁Ash	-2149
▁Pad	-2150
▁Sar	-2151
▁bat	-2152
▁Coun	-2153
▁pict	-2154
▁based	-2155
ructure	-2156
▁Kerala	-2157
▁society	-2158
▁campaign	-2159
▁Australia	-2160
▁financial	-2161
▁seriously	-2162
ka	-2163
sw	-2164
body	-2165
ilar	-2166
ipal	-2167
nath	-2168
▁Rep	-2169
▁Sun	-2170
▁lab	-2171
iding	-2172
▁Your	-2173
▁prep	-2174
▁tweet	-2175
▁Bharat	-2176
▁failed	-2177
▁Besides	-2178
▁arrange	-2179
▁written	-2180
▁Director	-2181
▁Opposition	-2182
idd	-2183
wam	-2184
▁Co	-2185
oday	-2186
▁Not	-2187
▁Off	-2188
▁Yog	-2189
▁Jhar	-2190
▁More	-2191
▁ever	-2192
▁real	-2193
▁rise	-2194
▁told	-2195
elfare	-2196
▁Colle	-2197
▁gener	-2198
▁Intern	-2199
▁destro	-2200
▁constru	-2201
▁continu	-2202
▁nothing	-2203
▁officer	-2204
▁affected	-2205
▁recently	-2206
▁reportedly	-2207
ura	-2208
quar	-2209
▁inn	-2210
▁Will	-2211
▁loss	-2212
▁meas	-2213
▁milit	-2214
▁better	-2215
▁consid	-2216
▁Governor	-2217
sh	-2218
000	-2219
The	-2220
ept	-2221
irc	-2222
ope	-2223
rah	-2224
▁Ke	-2225
hold	-2226
oura	-2227
▁Her	-2228
▁gri	-2229
meric	-2230
▁foot	-2231
▁says	-2232
▁seat	-2233
▁elect	-2234
▁journ	-2235
▁press	-2236
▁passed	-2237
▁airport	-2238
▁appointed	-2239
▁discussed	-2240
rastructure	-2241
▁relationship	-2242
cap	-2243
ily	-2244
olk	-2245
▁el	-2246
head	-2247
ival	-2248
▁Par	-2249
▁Pre	-2250
▁den	-2251
ovind	-2252
▁dise	-2253
▁ener	-2254
▁live	-2255
▁shot	-2256
cement	-2257
▁forest	-2258
▁impact	-2259
▁Council	-2260
▁married	-2261
▁parents	-2262
▁committed	-2263
▁villagers	-2264
ST	-2265
ek	-2266
hat	-2267
▁12	-2268
arth	-2269
itor	-2270
oved	-2271
part	-2272
raft	-2273
▁Don	-2274
▁Muk	-2275
▁Tel	-2276
▁eat	-2277
▁Arun	-2278
▁side	-2279
▁stay	-2280
▁enhan	-2281
▁final	-2282
▁sides	-2283
▁whole	-2284
unities	-2285
▁applic	-2286
▁ensure	-2287
▁mobile	-2288
quarters	-2289
▁himself	-2290
▁private	-2291
▁reports	-2292
ification	-2293
▁Everyone	-2294
▁response	-2295
▁Education	-2296
▁Meanwhile	-2297
▁technology	-2298
edd	-2299
mar	-2300
uck	-2301
wan	-2302
ense	-2303
ipur	-2304
mony	-2305
▁Roh	-2306
▁bel	-2307
▁sou	-2308
angir	-2309
ataka	-2310
▁bank	-2311
▁file	-2312
▁Afric	-2313
▁appre	-2314
▁roads	-2315
▁times	-2316
▁truck	-2317
ulation	-2318
▁Kovind	-2319
▁severe	-2320
▁captain	-2321
▁evening	-2322
▁healthy	-2323
▁cultural	-2324
da	-2325
io	-2326
iqu	-2327
ects	-2328
over	-2329
▁Add	-2330
▁dig	-2331
ember	-2332
erred	-2333
odies	-2334
▁Sanj	-2335
▁able	-2336
▁answ	-2337
▁fall	-2338
▁spir	-2339
resent	-2340
▁clean	-2341
▁thing	-2342
▁During	-2343
▁School	-2344
▁became	-2345
▁doctor	-2346
▁record	-2347
▁Banglad	-2348
▁Medical	-2349
▁Pradhan	-2350
▁Security	-2351
▁anything	-2352
▁everyone	-2353
▁Karnataka	-2354
▁understand	-2355
ber	-2356
▁Bo	-2357
▁Dh	-2358
anka	-2359
▁Ran	-2360
▁Hary	-2361
▁fest	-2362
jected	-2363
▁think	-2364
▁energy	-2365
▁facing	-2366
▁played	-2367
▁temple	-2368
▁trying	-2369
▁arrived	-2370
▁command	-2371
▁contrib	-2372
▁perform	-2373
▁teachers	-2374
▁according	-2375
▁Bangladesh	-2376
▁opportunity	-2377
app	-2378
isl	-2379
ude	-2380
▁cy	-2381
aram	-2382
▁Nar	-2383
▁Sus	-2384
▁ris	-2385
▁date	-2386
▁star	-2387
▁sust	-2388
▁flood	-2389
▁teams	-2390
▁Madhya	-2391
▁director	-2392
▁returned	-2393
▁statement	-2394
▁candidates	-2395
CT	-2396
ese	-2397
ika	-2398
▁50	-2399
▁Or	-2400
▁tw	-2401
hood	-2402
rand	-2403
reen	-2404
▁Amb	-2405
▁sea	-2406
▁bord	-2407
▁full	-2408
▁once	-2409
▁Today	-2410
▁activ	-2411
▁shalt	-2412
▁policy	-2413
▁achieve	-2414
▁created	-2415
▁related	-2416
▁completed	-2417
▁governments	-2418
▁infrastructure	-2419
▁responsibility	-2420
CP	-2421
ita	-2422
por	-2423
▁ND	-2424
▁fr	-2425
."""	-2426
iate	-2427
ling	-2428
rong	-2429
vest	-2430
▁App	-2431
▁mot	-2432
▁pot	-2433
ances	-2434
anjan	-2435
▁Among	-2436
▁begun	-2437
▁civil	-2438
▁Salman	-2439
▁United	-2440
▁Earlier	-2441
▁Haryana	-2442
▁allowed	-2443
▁detained	-2444
▁arrangements	-2445
II	-2446
put	-2447
urb	-2448
urs	-2449
▁Ass	-2450
▁Our	-2451
▁boy	-2452
▁sle	-2453
▁vac	-2454
round	-2455
▁Fire	-2456
▁Puri	-2457
▁circ	-2458
▁free	-2459
▁insp	-2460
▁late	-2461
▁miss	-2462
ateral	-2463
olkata	-2464
▁aware	-2465
▁class	-2466
▁dream	-2467
▁seats	-2468
incipal	-2469
▁direct	-2470
▁necess	-2471
▁Cabinet	-2472
▁include	-2473
▁initiat	-2474
▁institut	-2475
▁increased	-2476
▁initiated	-2477
▁University	-2478
ald	-2479
▁Ah	-2480
▁Ro	-2481
down	-2482
emic	-2483
ites	-2484
unic	-2485
▁Rel	-2486
▁Spe	-2487
▁vot	-2488
▁cast	-2489
▁feat	-2490
▁gold	-2491
▁kind	-2492
▁paid	-2493
▁stat	-2494
▁wind	-2495
▁Hence	-2496
▁ascer	-2497
▁phone	-2498
▁price	-2499
▁stars	-2500
▁total	-2501
igation	-2502
stitute	-2503
▁bodies	-2504
▁depart	-2505
▁stated	-2506
▁Kolkata	-2507
▁changed	-2508
▁company	-2509
▁challeng	-2510
▁occurred	-2511
▁Therefore	-2512
▁undergoing	-2513
▁investigations	-2514
ina	-2515
▁Kr	-2516
▁Mr	-2517
adav	-2518
ateg	-2519
oice	-2520
▁enc	-2521
▁equ	-2522
▁tax	-2523
aught	-2524
▁Nath	-2525
▁deal	-2526
▁fell	-2527
▁host	-2528
▁Chand	-2529
▁Thats	-2530
▁Their	-2531
▁joint	-2532
▁reach	-2533
▁associ	-2534
▁series	-2535
▁threat	-2536
▁details	-2537
▁patients	-2538
MS	-2539
abh	-2540
cle	-2541
raj	-2542
rug	-2543
ung	-2544
▁Ay	-2545
cent	-2546
iver	-2547
omes	-2548
▁Cap	-2549
▁Pri	-2550
▁opp	-2551
illed	-2552
▁Head	-2553
▁huge	-2554
atives	-2555
ficult	-2556
▁Hindi	-2557
▁Rohit	-2558
▁speak	-2559
ilateral	-2560
▁complet	-2561
▁refused	-2562
▁request	-2563
▁resident	-2564
of	-2565
den	-2566
ains	-2567
emor	-2568
hase	-2569
▁Dev	-2570
▁fav	-2571
▁tar	-2572
▁Nadu	-2573
isions	-2574
▁House	-2575
▁Yadav	-2576
▁scene	-2577
itation	-2578
▁Indians	-2579
▁history	-2580
▁quality	-2581
▁required	-2582
▁difficult	-2583
SP	-2584
nam	-2585
uru	-2586
work	-2587
▁Sri	-2588
▁div	-2589
▁six	-2590
▁ver	-2591
▁wel	-2592
ously	-2593
▁2018	-2594
▁Serv	-2595
▁emer	-2596
▁fund	-2597
▁lear	-2598
▁mult	-2599
▁self	-2600
▁Panda	-2601
▁Women	-2602
▁blood	-2603
▁drink	-2604
▁guest	-2605
nership	-2606
▁Office	-2607
▁Prasad	-2608
▁worked	-2609
▁custody	-2610
▁general	-2611
▁hundred	-2612
▁position	-2613
▁investment	-2614
gn	-2615
bed	-2616
ule	-2617
▁IP	-2618
▁ey	-2619
ayag	-2620
hari	-2621
ighb	-2622
▁Koh	-2623
▁age	-2624
▁par	-2625
attis	-2626
iting	-2627
▁Chen	-2628
▁sons	-2629
coming	-2630
ection	-2631
ertain	-2632
▁Under	-2633
▁exact	-2634
▁force	-2635
▁budget	-2636
▁return	-2637
▁Sushant	-2638
▁interro	-2639
▁Election	-2640
▁Railways	-2641
▁benefits	-2642
▁building	-2643
▁petition	-2644
▁suspended	-2645
uf	-2646
ify	-2647
iod	-2648
ium	-2649
jee	-2650
nai	-2651
rem	-2652
▁Hy	-2653
▁Ali	-2654
▁Ban	-2655
▁Sum	-2656
▁Tha	-2657
▁foc	-2658
▁neg	-2659
▁pow	-2660
▁wal	-2661
anjam	-2662
ators	-2663
etrol	-2664
icial	-2665
ishra	-2666
ually	-2667
▁Deep	-2668
▁less	-2669
▁rich	-2670
▁turn	-2671
▁Force	-2672
▁Heavy	-2673
▁Sonia	-2674
▁trade	-2675
▁Ganjam	-2676
▁Indust	-2677
▁Mishra	-2678
▁contro	-2679
▁online	-2680
▁Farmers	-2681
▁Special	-2682
▁railway	-2683
▁results	-2684
▁student	-2685
▁represent	-2686
▁environment	-2687
▁International	-2688
▁opportunities	-2689
af	-2690
ley	-2691
▁et	-2692
,000	-2693
abor	-2694
apan	-2695
atra	-2696
ches	-2697
eved	-2698
pper	-2699
▁Das	-2700
▁ang	-2701
after	-2702
aster	-2703
▁Vice	-2704
▁army	-2705
▁cere	-2706
▁pros	-2707
▁sold	-2708
ternal	-2709
▁Offic	-2710
ization	-2711
▁common	-2712
▁letter	-2713
▁Chennai	-2714
▁believe	-2715
▁industry	-2716
▁suffered	-2717
rs	-2718
hib	-2719
hra	-2720
ids	-2721
▁em	-2722
aran	-2723
uted	-2724
▁Bab	-2725
▁dou	-2726
▁ide	-2727
▁mom	-2728
▁nab	-2729
▁rev	-2730
▁sil	-2731
loyed	-2732
▁Bach	-2733
▁jail	-2734
▁laid	-2735
▁Kohli	-2736
▁North	-2737
▁agree	-2738
▁break	-2739
▁innov	-2740
▁langu	-2741
▁small	-2742
▁story	-2743
▁surpr	-2744
▁Senior	-2745
▁anyone	-2746
▁condol	-2747
▁having	-2748
▁period	-2749
attisgarh	-2750
▁rejected	-2751
▁remained	-2752
▁community	-2753
▁necessary	-2754
▁announcement	-2755
ta	-2756
ery	-2757
oon	-2758
▁er	-2759
aled	-2760
ards	-2761
iled	-2762
know	-2763
play	-2764
side	-2765
▁100	-2766
▁Chh	-2767
▁Dav	-2768
▁Sci	-2769
▁bad	-2770
▁bow	-2771
▁low	-2772
▁mis	-2773
▁tri	-2774
ledge	-2775
raman	-2776
▁cash	-2777
action	-2778
itness	-2779
▁Adity	-2780
▁Child	-2781
▁attem	-2782
▁deter	-2783
▁films	-2784
▁ready	-2785
▁talks	-2786
gations	-2787
▁attend	-2788
▁denied	-2789
▁propos	-2790
▁central	-2791
▁popular	-2792
▁sisters	-2793
▁Bachchan	-2794
▁measures	-2795
▁destroyed	-2796
▁celebrated	-2797
▁operations	-2798
▁opposition	-2799
▁institutions	-2800
bs	-2801
had	-2802
int	-2803
▁Sm	-2804
▁Sw	-2805
edic	-2806
fort	-2807
imum	-2808
▁Har	-2809
▁Nab	-2810
▁asp	-2811
▁aud	-2812
▁ess	-2813
▁hol	-2814
ively	-2815
▁conv	-2816
▁plat	-2817
▁wors	-2818
▁group	-2819
▁pract	-2820
▁prime	-2821
▁relig	-2822
▁saith	-2823
▁truth	-2824
▁formed	-2825
▁higher	-2826
▁opened	-2827
▁supply	-2828
▁target	-2829
▁within	-2830
▁challen	-2831
▁conduct	-2832
▁ordered	-2833
▁respond	-2834
▁accompan	-2835
▁electric	-2836
▁agriculture	-2837
▁Chhattisgarh	-2838
▁Commissioner	-2839
ety	-2840
hap	-2841
iah	-2842
rid	-2843
val	-2844
van	-2845
▁es	-2846
▁gl	-2847
utes	-2848
vind	-2849
▁Nit	-2850
▁Sit	-2851
▁som	-2852
▁deep	-2853
▁fear	-2854
▁rese	-2855
▁week	-2856
▁Where	-2857
▁block	-2858
▁examp	-2859
▁exist	-2860
▁space	-2861
▁wrong	-2862
▁Invest	-2863
▁friend	-2864
▁months	-2865
▁neighb	-2866
▁review	-2867
▁England	-2868
▁actress	-2869
▁appreci	-2870
▁carried	-2871
▁culture	-2872
▁largest	-2873
▁addition	-2874
▁ceremony	-2875
▁thousand	-2876
▁terrorism	-2877
IC	-2878
IS	-2879
ems	-2880
gar	-2881
hab	-2882
ize	-2883
let	-2884
ogn	-2885
rim	-2886
▁13	-2887
▁Az	-2888
ogra	-2889
opsy	-2890
▁Chr	-2891
▁Gaj	-2892
▁Lal	-2893
▁Let	-2894
▁Vir	-2895
▁cam	-2896
▁dra	-2897
▁etc	-2898
▁fis	-2899
▁nor	-2900
▁sat	-2901
ource	-2902
▁Cont	-2903
▁hope	-2904
▁kept	-2905
▁Japan	-2906
▁Moham	-2907
▁Patel	-2908
▁Three	-2909
▁Youth	-2910
▁forth	-2911
▁minor	-2912
▁river	-2913
▁roles	-2914
▁cities	-2915
▁ground	-2916
▁member	-2917
▁turned	-2918
▁autopsy	-2919
▁biggest	-2920
▁receiving	-2921
▁suspected	-2922
▁assistance	-2923
▁competition	-2924
▁inaugurated	-2925
.5	-2926
AN	-2927
DP	-2928
ban	-2929
his	-2930
ini	-2931
ocu	-2932
ser	-2933
tle	-2934
apur	-2935
hest	-2936
▁Bus	-2937
▁Int	-2938
▁Now	-2939
▁Sat	-2940
▁ant	-2941
▁don	-2942
▁hal	-2943
▁wis	-2944
inary	-2945
▁Also	-2946
▁defe	-2947
▁reve	-2948
▁risk	-2949
▁song	-2950
▁stri	-2951
▁tell	-2952
▁term	-2953
inated	-2954
mittee	-2955
▁Rajya	-2956
▁judge	-2957
▁medic	-2958
▁resol	-2959
▁urged	-2960
▁Americ	-2961
▁Andhra	-2962
▁border	-2963
▁consum	-2964
▁honour	-2965
▁income	-2966
▁sports	-2967
▁Mission	-2968
▁dispute	-2969
▁release	-2970
▁deployed	-2971
▁maintain	-2972
▁platform	-2973
▁prepared	-2974
▁companies	-2975
▁ministers	-2976
▁challenges	-2977
▁everything	-2978
▁ascertained	-2979
▁construction	-2980
▁congratulated	-2981
dom	-2982
erc	-2983
rad	-2984
uda	-2985
▁11	-2986
▁Ge	-2987
▁Gu	-2988
▁Se	-2989
ayan	-2990
road	-2991
▁Kan	-2992
▁Nob	-2993
▁Pol	-2994
▁cal	-2995
▁lim	-2996
▁rup	-2997
rance	-2998
ufact	-2999
▁2017	-3000
▁Sena	-3001
▁bike	-3002
▁expl	-3003
▁fast	-3004
▁mass	-3005
▁port	-3006
▁rate	-3007
▁spec	-3008
▁tele	-3009
angana	-3010
▁David	-3011
▁Hyder	-3012
▁Whats	-3013
▁helps	-3014
▁integ	-3015
▁named	-3016
▁rally	-3017
▁wants	-3018
▁appeal	-3019
▁nearby	-3020
▁object	-3021
▁promot	-3022
esperson	-3023
▁prosper	-3024
▁receive	-3025
▁stopped	-3026
▁violence	-3027
▁Hyderabad	-3028
▁bilateral	-3029
▁direction	-3030
▁establish	-3031
▁presented	-3032
▁conference	-3033
▁controvers	-3034
▁programmes	-3035
lu	-3036
▁,	-3037
CTV	-3038
dul	-3039
elt	-3040
oni	-3041
udd	-3042
▁25	-3043
▁Ac	-3044
adha	-3045
aily	-3046
oned	-3047
▁Cup	-3048
▁Dis	-3049
▁Fil	-3050
▁Jes	-3051
▁Kal	-3052
▁Mar	-3053
▁Soc	-3054
▁bul	-3055
achal	-3056
alled	-3057
craft	-3058
igade	-3059
ports	-3060
rated	-3061
▁CCTV	-3062
▁Russ	-3063
▁coun	-3064
atural	-3065
▁bench	-3066
▁democ	-3067
▁hands	-3068
▁skill	-3069
▁staff	-3070
▁super	-3071
▁Africa	-3072
▁Forest	-3073
▁amount	-3074
▁living	-3075
▁moment	-3076
▁Further	-3077
▁certain	-3078
▁changes	-3079
▁neither	-3080
▁colleges	-3081
▁festival	-3082
▁independ	-3083
▁personal	-3084
▁Committee	-3085
▁developed	-3086
▁hospitals	-3087
▁residents	-3088
▁leadership	-3089
▁management	-3090
▁allegations	-3091
▁partnership	-3092
TI	-3093
mo	-3094
cial	-3095
harm	-3096
iers	-3097
ties	-3098
▁Jaj	-3099
▁Jud	-3100
▁hur	-3101
▁nom	-3102
ately	-3103
▁Road	-3104
▁cant	-3105
▁norm	-3106
▁reli	-3107
▁Other	-3108
▁daily	-3109
▁dedic	-3110
▁misha	-3111
▁voice	-3112
▁words	-3113
ability	-3114
▁Donald	-3115
▁Janata	-3116
▁Kendra	-3117
▁charge	-3118
▁create	-3119
▁doesnt	-3120
▁vision	-3121
▁foreign	-3122
▁hearing	-3123
▁opposed	-3124
▁playing	-3125
▁product	-3126
▁session	-3127
▁tweeted	-3128
▁involved	-3129
▁manufact	-3130
▁proposed	-3131
▁knowledge	-3132
▁experience	-3133
▁foundation	-3134
▁population	-3135
▁z	-3136
ilt	-3137
ows	-3138
rif	-3139
yal	-3140
▁14	-3141
ager	-3142
aker	-3143
anda	-3144
cast	-3145
ghan	-3146
ians	-3147
most	-3148
▁Mus	-3149
▁abs	-3150
▁net	-3151
▁suc	-3152
▁sum	-3153
asant	-3154
▁Even	-3155
▁fled	-3156
▁pand	-3157
▁vote	-3158
ically	-3159
lished	-3160
▁Award	-3161
▁comes	-3162
▁grant	-3163
▁Jajpur	-3164
▁Sanjay	-3165
▁accept	-3166
▁answer	-3167
▁couple	-3168
▁diesel	-3169
▁prepar	-3170
▁scient	-3171
▁Amitabh	-3172
▁College	-3173
▁capital	-3174
▁disease	-3175
▁journey	-3176
▁mention	-3177
▁prevent	-3178
▁thought	-3179
▁positive	-3180
▁Principal	-3181
▁activities	-3182
▁facilities	-3183
▁postmortem	-3184
CB	-3185
wa	-3186
ela	-3187
sel	-3188
▁UP	-3189
▁kn	-3190
▁po	-3191
ator	-3192
mend	-3193
prit	-3194
▁cut	-3195
▁gas	-3196
▁gun	-3197
▁lay	-3198
▁sac	-3199
▁ste	-3200
ining	-3201
▁Nirm	-3202
▁Sund	-3203
▁anim	-3204
▁fine	-3205
angpur	-3206
ealand	-3207
▁Ahmed	-3208
▁Super	-3209
▁close	-3210
▁panic	-3211
▁rural	-3212
▁shoot	-3213
▁sleep	-3214
▁speed	-3215
ecially	-3216
▁Action	-3217
▁Afghan	-3218
▁Nobody	-3219
▁Theres	-3220
▁caught	-3221
▁centre	-3222
iversary	-3223
▁Chinese	-3224
▁Railway	-3225
▁million	-3226
▁witness	-3227
formation	-3228
▁constitu	-3229
▁movement	-3230
▁pandemic	-3231
▁employees	-3232
▁happiness	-3233
▁immediate	-3234
▁employment	-3235
▁Agriculture	-3236
▁accompanied	-3237
▁implemented	-3238
▁Headquarters	-3239
Ind	-3240
uel	-3241
▁18	-3242
▁Sr	-3243
akes	-3244
ilot	-3245
mosp	-3246
ored	-3247
well	-3248
▁...	-3249
▁MoU	-3250
▁Pul	-3251
▁Sim	-3252
▁ear	-3253
▁sit	-3254
apati	-3255
earch	-3256
▁Bill	-3257
▁Dont	-3258
▁cred	-3259
▁data	-3260
▁fact	-3261
▁mess	-3262
▁sens	-3263
▁vent	-3264
espite	-3265
esters	-3266
▁Apart	-3267
▁Dhoni	-3268
▁Rajiv	-3269
▁Sitha	-3270
▁Vijay	-3271
▁creat	-3272
▁crime	-3273
▁rules	-3274
▁tried	-3275
▁atmosp	-3276
▁critic	-3277
▁modern	-3278
▁rupees	-3279
▁strict	-3280
▁charges	-3281
▁college	-3282
▁succeed	-3283
▁visited	-3284
▁worried	-3285
▁Republic	-3286
▁features	-3287
▁research	-3288
▁Institute	-3289
▁essential	-3290
▁questions	-3291
▁Sitharaman	-3292
▁continuing	-3293
JD	-3294
bo	-3295
ara	-3296
ici	-3297
ius	-3298
▁Sy	-3299
▁ji	-3300
racy	-3301
▁Aks	-3302
▁Set	-3303
▁Sur	-3304
▁hot	-3305
▁ran	-3306
acted	-3307
atory	-3308
enced	-3309
ights	-3310
▁East	-3311
▁Iran	-3312
▁Khur	-3313
▁bill	-3314
▁clos	-3315
▁fulf	-3316
▁pain	-3317
▁salt	-3318
▁shar	-3319
▁toss	-3320
igence	-3321
urance	-3322
▁Abdul	-3323
▁Ashok	-3324
▁ahead	-3325
▁bless	-3326
▁leave	-3327
▁mount	-3328
▁north	-3329
▁Christ	-3330
▁access	-3331
▁launch	-3332
▁legisl	-3333
▁mishap	-3334
▁attempt	-3335
▁brigade	-3336
▁digital	-3337
▁remains	-3338
▁Business	-3339
▁assembly	-3340
▁signific	-3341
▁attention	-3342
▁suffering	-3343
▁atmosphere	-3344
▁production	-3345
▁spokesperson	-3346
-2	-3347
ji	-3348
oo	-3349
CCI	-3350
ali	-3351
aut	-3352
enc	-3353
ton	-3354
yer	-3355
▁30	-3356
drak	-3357
▁Are	-3358
▁Exp	-3359
▁mus	-3360
vious	-3361
▁Inst	-3362
▁Sche	-3363
▁Team	-3364
▁card	-3365
▁game	-3366
▁rape	-3367
▁safe	-3368
anchay	-3369
▁Jesus	-3370
▁begin	-3371
▁cover	-3372
▁cross	-3373
▁front	-3374
▁lakhs	-3375
▁photo	-3376
▁reply	-3377
▁share	-3378
▁stone	-3379
▁tourn	-3380
▁using	-3381
▁condem	-3382
▁either	-3383
▁fourth	-3384
▁manner	-3385
▁powder	-3386
▁really	-3387
▁single	-3388
▁travel	-3389
▁Nirmala	-3390
▁chaired	-3391
▁damaged	-3392
▁victory	-3393
▁weather	-3394
▁murdered	-3395
▁completely	-3396
▁anniversary	-3397
▁examination	-3398
.2	-3399
RO	-3400
ti	-3401
to	-3402
aby	-3403
aps	-3404
lam	-3405
oms	-3406
oud	-3407
rab	-3408
ron	-3409
ury	-3410
▁IS	-3411
▁wa	-3412
etro	-3413
kash	-3414
rodu	-3415
▁GST	-3416
▁Rec	-3417
▁Roy	-3418
▁dom	-3419
▁lin	-3420
▁non	-3421
▁ord	-3422
▁saw	-3423
▁tab	-3424
▁wid	-3425
acity	-3426
attle	-3427
itude	-3428
khand	-3429
▁Priy	-3430
▁Yoga	-3431
▁comb	-3432
▁docu	-3433
▁doub	-3434
▁half	-3435
▁lock	-3436
▁oath	-3437
▁toll	-3438
ething	-3439
hermen	-3440
inagar	-3441
riving	-3442
selves	-3443
▁Water	-3444
▁alert	-3445
▁alone	-3446
▁blast	-3447
▁coast	-3448
▁seven	-3449
chnical	-3450
▁Econom	-3451
▁Summit	-3452
▁extrem	-3453
▁intens	-3454
▁ticket	-3455
▁Bhadrak	-3456
▁Rajnath	-3457
▁display	-3458
▁leading	-3459
▁schemes	-3460
▁Gajapati	-3461
▁followed	-3462
▁selected	-3463
▁soldiers	-3464
▁upcoming	-3465
ricultural	-3466
▁Pakistani	-3467
▁concerned	-3468
▁terrorist	-3469
▁tournament	-3470
▁subsequently	-3471
ME	-3472
PF	-3473
ev	-3474
asi	-3475
ier	-3476
ras	-3477
ris	-3478
yan	-3479
▁21	-3480
▁Cl	-3481
▁UN	-3482
▁ri	-3483
amin	-3484
irst	-3485
▁Jay	-3486
▁Jos	-3487
▁Kul	-3488
▁Tal	-3489
▁Yoj	-3490
harge	-3491
known	-3492
ockey	-3493
▁Grou	-3494
▁Prot	-3495
▁bail	-3496
▁capt	-3497
▁laws	-3498
▁line	-3499
▁town	-3500
▁vice	-3501
uished	-3502
▁Board	-3503
▁Trans	-3504
▁broke	-3505
ousands	-3506
▁Deputy	-3507
▁Public	-3508
▁Rajput	-3509
▁crores	-3510
▁exchan	-3511
▁histor	-3512
▁rights	-3513
▁signed	-3514
standing	-3515
▁Welfare	-3516
▁elected	-3517
▁monitor	-3518
▁tension	-3519
▁whether	-3520
▁attacked	-3521
▁interrog	-3522
▁proposal	-3523
▁daughters	-3524
▁providing	-3525
▁discussion	-3526
▁resignation	-3527
Mo	-3528
iy	-3529
vt	-3530
eed	-3531
iab	-3532
sug	-3533
▁Ur	-3534
roud	-3535
wama	-3536
▁Ben	-3537
▁Due	-3538
▁Jer	-3539
▁die	-3540
▁ill	-3541
▁mas	-3542
▁mer	-3543
▁red	-3544
hanty	-3545
irmed	-3546
oured	-3547
▁Best	-3548
▁Film	-3549
▁Lead	-3550
▁Only	-3551
▁Prof	-3552
▁dele	-3553
▁eyes	-3554
▁mark	-3555
▁whom	-3556
balpur	-3557
encies	-3558
person	-3559
suguda	-3560
▁Assam	-3561
▁Hindu	-3562
▁Imran	-3563
▁Virat	-3564
▁apply	-3565
▁faith	-3566
▁focus	-3567
▁offer	-3568
▁thine	-3569
▁wasnt	-3570
▁worth	-3571
atsingh	-3572
ruption	-3573
▁France	-3574
▁Locals	-3575
▁Scheme	-3576
▁agreed	-3577
▁looked	-3578
▁posted	-3579
▁relief	-3580
▁spirit	-3581
▁wicket	-3582
▁Another	-3583
▁English	-3584
▁Hundred	-3585
▁Mohanty	-3586
▁Pulwama	-3587
▁advised	-3588
▁blocked	-3589
▁defence	-3590
▁picture	-3591
▁similar	-3592
▁victims	-3593
▁Balangir	-3594
▁Chairman	-3595
▁aircraft	-3596
▁complete	-3597
▁villages	-3598
atsinghpur	-3599
▁Sambalpur	-3600
▁Thousands	-3601
▁allegedly	-3602
▁democracy	-3603
▁sustained	-3604
▁Coronavirus	-3605
▁application	-3606
▁Jagatsinghpur	-3607
SS	-3608
sp	-3609
bir	-3610
kan	-3611
mad	-3612
uit	-3613
▁16	-3614
▁sn	-3615
▁ut	-3616
ring	-3617
rive	-3618
▁Hon	-3619
▁esp	-3620
▁exc	-3621
▁gar	-3622
▁rap	-3623
▁san	-3624
estic	-3625
mohan	-3626
ories	-3627
ulted	-3628
▁Asia	-3629
▁Prog	-3630
▁baby	-3631
▁conc	-3632
▁duty	-3633
▁hair	-3634
▁hast	-3635
▁hear	-3636
▁repl	-3637
▁site	-3638
▁Krish	-3639
▁Local	-3640
▁Those	-3641
▁earth	-3642
▁enter	-3643
▁escap	-3644
▁means	-3645
▁polls	-3646
▁proud	-3647
▁raped	-3648
▁smart	-3649
vention	-3650
▁Akshay	-3651
▁Ranjan	-3652
▁Social	-3653
▁belong	-3654
▁handed	-3655
▁screen	-3656
▁though	-3657
▁wishes	-3658
▁compens	-3659
▁highest	-3660
▁looking	-3661
▁brothers	-3662
▁includes	-3663
▁presence	-3664
▁resources	-3665
▁therefore	-3666
▁additional	-3667
▁commitment	-3668
▁Afghanistan	-3669
▁appreciated	-3670
▁discussions	-3671
▁connectivity	-3672
▁investigated	-3673
aks	-3674
jit	-3675
jri	-3676
osh	-3677
▁Ba	-3678
▁Ka	-3679
▁Ph	-3680
▁Ve	-3681
▁hy	-3682
▁Cur	-3683
▁Him	-3684
▁Nav	-3685
▁Sol	-3686
▁arg	-3687
▁pen	-3688
ourse	-3689
riage	-3690
▁Brah	-3691
▁born	-3692
▁fans	-3693
▁purp	-3694
▁surv	-3695
jriwal	-3696
▁Aries	-3697
▁Group	-3698
▁Since	-3699
▁boost	-3700
▁girls	-3701
▁greet	-3702
▁grief	-3703
▁loans	-3704
▁moved	-3705
▁phase	-3706
▁separ	-3707
▁trust	-3708
▁Sundar	-3709
▁active	-3710
▁cancer	-3711
▁inside	-3712
▁priest	-3713
▁trains	-3714
▁Project	-3715
▁Whether	-3716
▁missing	-3717
▁tourism	-3718
▁Kejriwal	-3719
▁approved	-3720
▁pictures	-3721
▁strength	-3722
▁Bengaluru	-3723
▁extremely	-3724
▁Additional	-3725
▁Subsequently	-3726
.1	-3727
DI	-3728
RF	-3729
jun	-3730
ots	-3731
ugu	-3732
vis	-3733
▁Ak	-3734
▁ir	-3735
ames	-3736
care	-3737
dict	-3738
hips	-3739
oses	-3740
oted	-3741
rage	-3742
▁Che	-3743
▁Mam	-3744
▁imm	-3745
▁log	-3746
aging	-3747
agram	-3748
hatma	-3749
light	-3750
ricke	-3751
▁BCCI	-3752
▁Chop	-3753
▁Mand	-3754
▁easy	-3755
▁ment	-3756
▁none	-3757
▁ties	-3758
▁wish	-3759
edding	-3760
vision	-3761
▁quite	-3762
▁south	-3763
▁spoke	-3764
▁storm	-3765
▁works	-3766
▁Ambani	-3767
▁Secret	-3768
▁Yojana	-3769
▁effort	-3770
▁emphas	-3771
▁fields	-3772
▁recogn	-3773
▁safety	-3774
▁sought	-3775
▁Bharati	-3776
▁Mahatma	-3777
▁players	-3778
▁Hundreds	-3779
▁accounts	-3780
▁facility	-3781
▁peaceful	-3782
▁training	-3783
▁Instagram	-3784
▁decisions	-3785
▁mentioned	-3786
▁potential	-3787
▁regarding	-3788
▁something	-3789
▁tradition	-3790
▁Jharsuguda	-3791
▁Technology	-3792
▁conditions	-3793
▁considered	-3794
▁electricity	-3795
▁implementation	-3796
bar	-3797
bul	-3798
law	-3799
une	-3800
▁Bl	-3801
▁Nu	-3802
iter	-3803
year	-3804
yers	-3805
▁Dil	-3806
▁Kar	-3807
▁NCP	-3808
▁Sud	-3809
▁Ter	-3810
▁War	-3811
▁pun	-3812
▁sad	-3813
apada	-3814
erjee	-3815
erted	-3816
handi	-3817
phone	-3818
uresh	-3819
▁Anil	-3820
▁From	-3821
▁Fund	-3822
▁Life	-3823
▁Most	-3824
▁Take	-3825
▁beat	-3826
▁lack	-3827
▁pack	-3828
▁plea	-3829
▁send	-3830
▁vacc	-3831
icious	-3832
orters	-3833
randed	-3834
ularly	-3835
▁Balas	-3836
▁Dharm	-3837
▁banks	-3838
▁check	-3839
▁loved	-3840
▁takes	-3841
▁virus	-3842
▁watch	-3843
hapatra	-3844
▁Arvind	-3845
▁Corpor	-3846
▁Mukesh	-3847
▁Sports	-3848
▁Suresh	-3849
▁Telugu	-3850
▁little	-3851
ological	-3852
▁contain	-3853
▁distrib	-3854
▁example	-3855
▁treated	-3856
▁wedding	-3857
▁Priyanka	-3858
▁capacity	-3859
▁resolved	-3860
▁revealed	-3861
▁Telangana	-3862
▁militants	-3863
▁especially	-3864
▁prosperity	-3865
▁significant	-3866
▁Constitution	-3867
EO	-3868
ju	-3869
ze	-3870
▁i	-3871
▁Mu	-3872
▁Up	-3873
ault	-3874
crib	-3875
dden	-3876
gypt	-3877
iber	-3878
rate	-3879
reak	-3880
▁Dal	-3881
▁Dha	-3882
▁Nag	-3883
▁Tri	-3884
▁fru	-3885
▁pat	-3886
▁ten	-3887
ashed	-3888
bsite	-3889
ening	-3890
inent	-3891
oming	-3892
orrow	-3893
▁Ajay	-3894
▁Mahe	-3895
▁Make	-3896
▁Such	-3897
▁Tour	-3898
▁Wash	-3899
▁coal	-3900
▁gain	-3901
▁heav	-3902
▁mean	-3903
▁quar	-3904
▁save	-3905
▁shut	-3906
▁user	-3907
reedom	-3908
▁Nabar	-3909
▁above	-3910
▁influ	-3911
ourable	-3912
▁Budget	-3913
▁camera	-3914
▁course	-3915
▁petrol	-3916
▁photos	-3917
ervation	-3918
▁Similar	-3919
▁entered	-3920
▁facilit	-3921
▁footage	-3922
▁polling	-3923
▁promote	-3924
▁sectors	-3925
▁sources	-3926
▁thanked	-3927
▁welfare	-3928
▁Banerjee	-3929
▁Manmohan	-3930
▁Mohammed	-3931
▁approval	-3932
▁carrying	-3933
▁language	-3934
▁surprised	-3935
▁transport	-3936
▁Nabarangpur	-3937
▁educational	-3938
▁initiatives	-3939
AI	-3940
IM	-3941
vo	-3942
▁:	-3943
ays	-3944
ift	-3945
unt	-3946
vey	-3947
▁CP	-3948
▁Of	-3949
▁Sk	-3950
▁ow	-3951
aput	-3952
book	-3953
khar	-3954
lled	-3955
ming	-3956
oure	-3957
▁Min	-3958
▁Net	-3959
▁Reg	-3960
▁Sin	-3961
▁Tem	-3962
▁aim	-3963
▁cul	-3964
▁deg	-3965
▁opt	-3966
▁tou	-3967
asons	-3968
hered	-3969
ialog	-3970
idamb	-3971
imate	-3972
izing	-3973
nergy	-3974
▁2014	-3975
▁Chan	-3976
▁Gang	-3977
▁Over	-3978
▁bowl	-3979
▁cris	-3980
▁feet	-3981
▁prim	-3982
▁ways	-3983
mpions	-3984
▁Civil	-3985
▁First	-3986
▁obser	-3987
▁prior	-3988
▁recom	-3989
▁round	-3990
▁sched	-3991
▁serve	-3992
aranasi	-3993
▁Chopra	-3994
▁actors	-3995
▁colour	-3996
▁cricke	-3997
▁damage	-3998
▁distan	-3999
▁learnt	-4000
▁nobody	-4001
▁status	-4002
▁Cricket	-4003
▁Prakash	-4004
▁enhance	-4005
▁massive	-4006
▁outside	-4007
idambaram	-4008
▁accepted	-4009
▁alliance	-4010
▁audience	-4011
▁existing	-4012
▁extended	-4013
▁lockdown	-4014
▁previous	-4015
▁referred	-4016
▁regional	-4017
▁stranded	-4018
▁Jharkhand	-4019
▁pollution	-4020
▁associated	-4021
▁commission	-4022
▁importance	-4023
▁protesters	-4024
▁questioned	-4025
▁condolences	-4026
▁departments	-4027
▁established	-4028
▁responsible	-4029
▁contribution	-4030
AT	-4031
MC	-4032
bit	-4033
hik	-4034
jan	-4035
ott	-4036
ray	-4037
rop	-4038
▁NE	-4039
▁Op	-4040
igil	-4041
uled	-4042
▁Dem	-4043
▁Gur	-4044
▁IPL	-4045
▁Kor	-4046
▁Leg	-4047
▁San	-4048
▁ago	-4049
▁bra	-4050
▁eld	-4051
▁squ	-4052
achin	-4053
inder	-4054
lined	-4055
ought	-4056
ushan	-4057
▁2019	-4058
▁Kala	-4059
▁Maha	-4060
▁Prat	-4061
▁Rain	-4062
▁Swar	-4063
▁bear	-4064
▁hurt	-4065
▁sure	-4066
▁trou	-4067
▁warm	-4068
endent	-4069
ograph	-4070
▁Sinha	-4071
▁compr	-4072
▁grand	-4073
▁homes	-4074
▁least	-4075
mission	-4076
▁Jaipur	-4077
▁crisis	-4078
▁delive	-4079
▁expens	-4080
▁experi	-4081
▁firing	-4082
▁gather	-4083
▁itself	-4084
▁resent	-4085
▁ruling	-4086
▁strike	-4087
▁sudden	-4088
▁transf	-4089
▁weight	-4090
▁Bargarh	-4091
▁network	-4092
▁partner	-4093
▁running	-4094
▁science	-4095
▁verdict	-4096
▁website	-4097
▁Balasore	-4098
▁External	-4099
▁Mahendra	-4100
▁deterior	-4101
▁drinking	-4102
▁included	-4103
▁majority	-4104
▁marriage	-4105
▁products	-4106
▁resigned	-4107
▁Bharatiya	-4108
▁confirmed	-4109
▁continues	-4110
▁fishermen	-4111
▁Dharmendra	-4112
▁distancing	-4113
▁Chidambaram	-4114
▁Governments	-4115
▁controversy	-4116
▁investigate	-4117
▁agricultural	-4118
▁compensation	-4119
▁preparations	-4120
.3	-4121
We	-4122
aly	-4123
for	-4124
joy	-4125
ona	-4126
rel	-4127
rep	-4128
udi	-4129
▁40	-4130
▁Pa	-4131
▁SP	-4132
▁km	-4133
athy	-4134
eddy	-4135
lear	-4136
load	-4137
rote	-4138
▁Ang	-4139
▁Met	-4140
▁Pan	-4141
▁bri	-4142
▁fif	-4143
▁mag	-4144
apsed	-4145
ishan	-4146
pping	-4147
▁Face	-4148
▁Kart	-4149
▁Pass	-4150
▁Plan	-4151
▁Show	-4152
▁Thus	-4153
▁caus	-4154
▁dign	-4155
▁dism	-4156
▁else	-4157
▁sett	-4158
▁weap	-4159
ighter	-4160
rupted	-4161
▁Actor	-4162
▁Arjun	-4163
▁Lanka	-4164
▁Rayag	-4165
▁built	-4166
▁knows	-4167
▁motor	-4168
▁music	-4169
▁Energy	-4170
▁Russia	-4171
▁almost	-4172
▁appear	-4173
▁custom	-4174
▁headed	-4175
▁levels	-4176
▁multip	-4177
▁reduce	-4178
inations	-4179
▁Krishna	-4180
▁Science	-4181
▁Service	-4182
▁attacks	-4183
▁contact	-4184
▁justice	-4185
▁natural	-4186
▁protect	-4187
▁resolve	-4188
▁Rayagada	-4189
▁Research	-4190
▁approach	-4191
▁chairman	-4192
▁consider	-4193
▁awareness	-4194
▁challenge	-4195
▁delivered	-4196
▁happening	-4197
▁thousands	-4198
▁throughout	-4199
▁Environment	-4200
▁Information	-4201
▁manufacturing	-4202
JP	-4203
SC	-4204
SE	-4205
aya	-4206
ukh	-4207
uro	-4208
▁Er	-4209
▁Je	-4210
""."	-4211
ayak	-4212
cept	-4213
eech	-4214
hera	-4215
idst	-4216
ilty	-4217
lect	-4218
ohar	-4219
otal	-4220
ract	-4221
rant	-4222
uter	-4223
▁200	-4224
▁Nep	-4225
▁Nir	-4226
▁Ple	-4227
▁joy	-4228
▁mig	-4229
▁sug	-4230
India	-4231
anger	-4232
merce	-4233
▁Atal	-4234
▁Malk	-4235
▁Port	-4236
▁Yogi	-4237
▁cold	-4238
▁crim	-4239
▁didn	-4240
▁goes	-4241
▁link	-4242
▁repe	-4243
ardhan	-4244
itamin	-4245
▁Brahm	-4246
▁Citiz	-4247
▁Egypt	-4248
▁Sunil	-4249
▁categ	-4250
▁early	-4251
▁enjoy	-4252
▁legal	-4253
▁rates	-4254
▁stood	-4255
▁uncle	-4256
▁begins	-4257
▁discip	-4258
▁expand	-4259
▁explos	-4260
▁guilty	-4261
▁needed	-4262
▁sacrif	-4263
▁temper	-4264
▁Foreign	-4265
▁Koraput	-4266
▁Nuapada	-4267
▁Various	-4268
▁assured	-4269
▁billion	-4270
▁citizen	-4271
▁culprit	-4272
▁fathers	-4273
▁growing	-4274
▁ongoing	-4275
▁prevail	-4276
▁reasons	-4277
▁require	-4278
▁suggest	-4279
▁Facebook	-4280
▁Varanasi	-4281
▁judicial	-4282
▁pressure	-4283
▁protests	-4284
▁stations	-4285
▁effective	-4286
▁technical	-4287
▁initiative	-4288
▁parliament	-4289
▁themselves	-4290
▁threatened	-4291
▁notification	-4292
'.	-4293
IT	-4294
RC	-4295
eds	-4296
isf	-4297
ode	-4298
omb	-4299
ume	-4300
▁CR	-4301
▁TV	-4302
aced	-4303
deep	-4304
hary	-4305
ores	-4306
rene	-4307
resh	-4308
rown	-4309
rugg	-4310
tery	-4311
usal	-4312
▁Deb	-4313
▁Eff	-4314
▁Lad	-4315
▁Pal	-4316
▁Sad	-4317
▁Yet	-4318
▁bar	-4319
▁box	-4320
▁cas	-4321
▁pul	-4322
▁ski	-4323
▁vol	-4324
adium	-4325
anath	-4326
lling	-4327
otees	-4328
▁2020	-4329
▁BJPs	-4330
▁Comp	-4331
▁Sahu	-4332
▁Sing	-4333
▁bats	-4334
▁exec	-4335
▁jobs	-4336
▁phys	-4337
▁qual	-4338
▁upro	-4339
fortun	-4340
ground	-4341
ounter	-4342
▁Memor	-4343
▁Power	-4344
▁brief	-4345
▁broad	-4346
▁coord	-4347
▁demon	-4348
▁image	-4349
▁names	-4350
▁shops	-4351
▁study	-4352
▁value	-4353
▁wrote	-4354
aborate	-4355
▁Cancer	-4356
▁Mamata	-4357
▁abroad	-4358
▁career	-4359
▁claims	-4360
▁dialog	-4361
▁giving	-4362
▁source	-4363
▁territ	-4364
▁welcom	-4365
▁Control	-4366
▁Deepika	-4367
▁Program	-4368
▁Tourism	-4369
▁careful	-4370
▁comment	-4371
▁introdu	-4372
▁nations	-4373
▁unknown	-4374
▁venture	-4375
▁visible	-4376
▁welcome	-4377
▁Children	-4378
▁Independ	-4379
▁Speaking	-4380
▁birthday	-4381
▁produced	-4382
▁recorded	-4383
▁Kalahandi	-4384
▁collapsed	-4385
▁constitut	-4386
▁dedicated	-4387
▁insurance	-4388
▁neighbour	-4389
▁requested	-4390
▁submitted	-4391
▁transform	-4392
▁Thereafter	-4393
▁resentment	-4394
▁participate	-4395
NG	-4396
ne	-4397
BJP	-4398
che	-4399
een	-4400
eor	-4401
ils	-4402
ken	-4403
roc	-4404
the	-4405
▁Ta	-4406
arsh	-4407
aste	-4408
bing	-4409
issa	-4410
ocks	-4411
reet	-4412
rial	-4413
riya	-4414
uary	-4415
▁Bec	-4416
▁Cov	-4417
▁Gup	-4418
▁Imp	-4419
▁NDA	-4420
▁Rem	-4421
▁gat	-4422
▁nut	-4423
▁rid	-4424
▁tro	-4425
ariat	-4426
ented	-4427
icked	-4428
iddle	-4429
igarh	-4430
usion	-4431
utive	-4432
▁Cons	-4433
▁Good	-4434
▁Hard	-4435
▁Kore	-4436
▁MLAs	-4437
▁acqu	-4438
▁argu	-4439
▁draw	-4440
▁flag	-4441
▁flow	-4442
▁gets	-4443
▁goal	-4444
▁holy	-4445
▁mand	-4446
▁ones	-4447
▁rout	-4448
▁rule	-4449
▁unve	-4450
angiri	-4451
ulated	-4452
urbhan	-4453
▁Ayush	-4454
▁Saudi	-4455
▁debut	-4456
▁delay	-4457
▁ended	-4458
▁medal	-4459
▁point	-4460
▁shock	-4461
▁solar	-4462
▁spend	-4463
▁terms	-4464
▁thats	-4465
▁trees	-4466
▁users	-4467
mercial	-4468
reprene	-4469
viation	-4470
▁Father	-4471
▁Please	-4472
▁Pratap	-4473
▁Ranbir	-4474
▁credit	-4475
▁danger	-4476
▁normal	-4477
▁notice	-4478
▁rising	-4479
▁stones	-4480
▁youths	-4481
▁cancell	-4482
▁counter	-4483
▁driving	-4484
▁finance	-4485
▁invited	-4486
▁message	-4487
▁mission	-4488
▁offered	-4489
▁percent	-4490
▁purpose	-4491
▁sustain	-4492
▁winners	-4493
▁withdra	-4494
▁Srinagar	-4495
▁communic	-4496
▁identity	-4497
▁property	-4498
▁remember	-4499
▁disrupted	-4500
▁religious	-4501
▁Industries	-4502
▁Malkangiri	-4503
▁allegation	-4504
▁possession	-4505
▁Corporation	-4506
▁constituted	-4507
▁questioning	-4508
▁deteriorated	-4509
▁organisation	-4510
AP	-4511
EL	-4512
He	-4513
bh	-4514
ead	-4515
goi	-4516
kur	-4517
leg	-4518
off	-4519
pay	-4520
rac	-4521
▁Di	-4522
▁Lo	-4523
ades	-4524
iler	-4525
leum	-4526
para	-4527
ping	-4528
veer	-4529
▁Aam	-4530
▁Art	-4531
▁Des	-4532
▁Glo	-4533
▁ICC	-4534
▁Per	-4535
▁Rao	-4536
▁Use	-4537
▁bag	-4538
▁cru	-4539
▁mut	-4540
▁pac	-4541
▁tit	-4542
▁try	-4543
▁tur	-4544
▁via	-4545
ables	-4546
antly	-4547
ashes	-4548
ester	-4549
gency	-4550
older	-4551
opped	-4552
▁CRPF	-4553
▁Here	-4554
▁NDRF	-4555
▁Part	-4556
▁Post	-4557
▁Than	-4558
▁Trip	-4559
▁brid	-4560
▁fail	-4561
▁isnt	-4562
▁leav	-4563
▁wash	-4564
▁wear	-4565
ategic	-4566
eshwar	-4567
▁Gogoi	-4568
▁Jaish	-4569
▁Woman	-4570
▁board	-4571
▁carry	-4572
▁coach	-4573
▁douse	-4574
▁exerc	-4575
▁fully	-4576
▁gives	-4577
▁makes	-4578
▁shows	-4579
▁trave	-4580
ayagarh	-4581
▁Aditya	-4582
▁Associ	-4583
▁Behera	-4584
▁Dhawan	-4585
▁Khurda	-4586
▁Muslim	-4587
▁Pandya	-4588
▁engine	-4589
▁excell	-4590
▁favour	-4591
▁instru	-4592
▁moving	-4593
▁phones	-4594
▁placed	-4595
▁recent	-4596
▁strugg	-4597
▁Capital	-4598
▁Efforts	-4599
▁Ranveer	-4600
▁concern	-4601
▁deliver	-4602
▁empower	-4603
▁freedom	-4604
▁happens	-4605
▁removed	-4606
▁shocked	-4607
▁skipper	-4608
▁spiritu	-4609
▁suspect	-4610
▁Citizens	-4611
▁Services	-4612
▁culprits	-4613
▁directly	-4614
▁domestic	-4615
▁evidence	-4616
▁exchange	-4617
▁welcomed	-4618
▁Arunachal	-4619
▁Mayurbhan	-4620
▁Mohapatra	-4621
▁Transport	-4622
▁addressed	-4623
▁household	-4624
▁residence	-4625
eorological	-4626
▁Adityanath	-4627
▁Everything	-4628
▁Sundargarh	-4629
▁innovation	-4630
▁profession	-4631
▁properties	-4632
▁constituency	-4633
▁understanding	-4634
50	-4635
HI	-4636
ga	-4637
sc	-4638
agh	-4639
ane	-4640
ato	-4641
ikh	-4642
ima	-4643
wat	-4644
yle	-4645
zes	-4646
▁24	-4647
▁Cy	-4648
▁El	-4649
▁IC	-4650
▁NI	-4651
▁UK	-4652
▁ec	-4653
▁ty	-4654
,...	-4655
anta	-4656
eder	-4657
ires	-4658
ishn	-4659
ison	-4660
opal	-4661
word	-4662
▁Ant	-4663
▁Bro	-4664
▁CEO	-4665
▁Emp	-4666
▁Jac	-4667
▁Val	-4668
▁flo	-4669
▁mil	-4670
▁wat	-4671
antri	-4672
enger	-4673
ifest	-4674
itage	-4675
level	-4676
ology	-4677
ondon	-4678
ushka	-4679
where	-4680
▁Arab	-4681
▁King	-4682
▁Lets	-4683
▁Open	-4684
▁Play	-4685
▁Work	-4686
▁cord	-4687
▁dark	-4688
▁diet	-4689
▁liqu	-4690
▁proc	-4691
▁skin	-4692
▁surf	-4693
usalem	-4694
▁Bhatt	-4695
▁Covid	-4696
▁Goyal	-4697
▁Islam	-4698
▁burnt	-4699
▁crops	-4700
▁dwell	-4701
▁exhib	-4702
▁griev	-4703
▁pilot	-4704
▁plans	-4705
▁spake	-4706
▁stage	-4707
▁battle	-4708
▁defeat	-4709
▁design	-4710
▁exting	-4711
▁forget	-4712
▁govern	-4713
▁groups	-4714
▁middle	-4715
▁nature	-4716
▁player	-4717
▁silver	-4718
etroleum	-4719
irperson	-4720
▁America	-4721
▁Anushka	-4722
▁Because	-4723
▁centres	-4724
▁demands	-4725
▁dismiss	-4726
▁encoura	-4727
▁express	-4728
▁granted	-4729
▁journal	-4730
▁laboure	-4731
▁proceed	-4732
▁spotted	-4733
▁subject	-4734
ferencing	-4735
▁Ayushman	-4736
▁Nayagarh	-4737
▁Officers	-4738
▁believed	-4739
▁benefici	-4740
▁devotees	-4741
▁diseases	-4742
▁provides	-4743
▁Jerusalem	-4744
▁agreement	-4745
▁condemned	-4746
▁continued	-4747
▁incidents	-4748
▁supported	-4749
▁Kendrapara	-4750
▁addressing	-4751
▁corruption	-4752
▁healthcare	-4753
▁monitoring	-4754
▁Secretariat	-4755
▁headquarters	-4756
▁hospitalised	-4757
▁independence	-4758
▁strengthening	-4759
▁representatives	-4760
22	-4761
EC	-4762
IP	-4763
hy	-4764
lip	-4765
nav	-4766
oke	-4767
rav	-4768
set	-4769
▁80	-4770
▁IA	-4771
▁JD	-4772
▁Na	-4773
▁Pe	-4774
ague	-4775
cher	-4776
jhar	-4777
ooth	-4778
void	-4779
▁Aar	-4780
▁Bad	-4781
▁Car	-4782
▁Kat	-4783
▁Lak	-4784
▁Maj	-4785
▁Mot	-4786
▁ODI	-4787
▁bit	-4788
▁rob	-4789
▁upd	-4790
based	-4791
cious	-4792
gnant	-4793
iabet	-4794
ially	-4795
istol	-4796
iture	-4797
osing	-4798
teran	-4799
venue	-4800
▁Dhan	-4801
▁Jait	-4802
▁arms	-4803
▁runs	-4804
▁soul	-4805
▁spar	-4806
▁unit	-4807
nected	-4808
ounded	-4809
▁Enter	-4810
▁Modis	-4811
▁Nepal	-4812
▁Organ	-4813
▁Which	-4814
▁aspir	-4815
▁black	-4816
▁crash	-4817
▁fired	-4818
▁goods	-4819
▁learn	-4820
▁marty	-4821
▁often	-4822
▁plays	-4823
▁saved	-4824
▁stake	-4825
▁track	-4826
▁whose	-4827
ertific	-4828
loyment	-4829
ocation	-4830
▁Mantri	-4831
▁Orissa	-4832
▁Swaraj	-4833
▁deaths	-4834
▁debate	-4835
▁demise	-4836
▁device	-4837
▁disapp	-4838
▁lawyer	-4839
▁satisf	-4840
▁served	-4841
▁solved	-4842
▁speech	-4843
▁values	-4844
anchayat	-4845
▁Brother	-4846
▁Speaker	-4847
▁becomes	-4848
▁couldnt	-4849
▁offices	-4850
▁primary	-4851
▁reality	-4852
president	-4853
▁Baleswar	-4854
▁Economic	-4855
▁becoming	-4856
▁contains	-4857
▁creating	-4858
▁criminal	-4859
▁expenses	-4860
▁gathered	-4861
▁historic	-4862
▁locality	-4863
▁military	-4864
▁resulted	-4865
▁severely	-4866
▁shooting	-4867
▁strongly	-4868
▁tourists	-4869
▁tributes	-4870
▁unfortun	-4871
repreneurs	-4872
▁Ahmedabad	-4873
▁explosion	-4874
▁increases	-4875
▁commercial	-4876
▁contesting	-4877
▁television	-4878
▁thereafter	-4879
▁extinguished	-4880
.4	-4881
AD	-4882
As	-4883
DF	-4884
ER	-4885
SH	-4886
kt	-4887
bha	-4888
cha	-4889
hel	-4890
nce	-4891
ora	-4892
uff	-4893
yas	-4894
▁17	-4895
▁22	-4896
▁70	-4897
▁MS	-4898
▁SC	-4899
▁ap	-4900
▁ce	-4901
ably	-4902
aper	-4903
ashi	-4904
enty	-4905
icit	-4906
iles	-4907
umer	-4908
▁Bob	-4909
▁Has	-4910
▁Inc	-4911
▁Jas	-4912
▁Out	-4913
▁Saf	-4914
▁Tom	-4915
▁Yes	-4916
▁adj	-4917
▁arm	-4918
▁buy	-4919
▁reb	-4920
alore	-4921
eared	-4922
ector	-4923
eless	-4924
icted	-4925
iling	-4926
ional	-4927
riate	-4928
▁Kand	-4929
▁Luck	-4930
▁Read	-4931
▁Sush	-4932
▁Time	-4933
▁busy	-4934
▁crop	-4935
▁cycl	-4936
▁forg	-4937
▁mill	-4938
▁negl	-4939
▁pred	-4940
▁room	-4941
▁slog	-4942
▁trad	-4943
▁tree	-4944
charge	-4945
▁Drink	-4946
▁Earth	-4947
▁Elect	-4948
▁Error	-4949
▁Human	-4950
▁Joint	-4951
▁Kings	-4952
▁estim	-4953
▁files	-4954
▁gradu	-4955
▁leads	-4956
▁overt	-4957
▁thank	-4958
▁vigil	-4959
▁Global	-4960
▁Legisl	-4961
▁London	-4962
▁Nitish	-4963
▁Ramesh	-4964
▁Thakur	-4965
▁behold	-4966
▁compet	-4967
▁decide	-4968
▁deputy	-4969
▁expect	-4970
▁factor	-4971
▁injury	-4972
▁linked	-4973
▁profit	-4974
▁reform	-4975
▁season	-4976
▁string	-4977
▁suffer	-4978
▁videos	-4979
▁worlds	-4980
▁Doctors	-4981
▁Narayan	-4982
▁appoint	-4983
▁awarded	-4984
▁circuit	-4985
▁instead	-4986
▁matters	-4987
▁organis	-4988
▁outrage	-4989
▁politic	-4990
▁sitting	-4991
▁ministry	-4992
▁practice	-4993
▁solution	-4994
▁stronger	-4995
▁Programme	-4996
▁cancelled	-4997
▁encounter	-4998
▁medicines	-4999
▁responded	-5000
▁beneficial	-5001
▁generation	-5002
▁institution	-5003
▁congratulate	-5004
▁interrogated	-5005
▁Meteorological	-5006
0.	-5007
AC	-5008
GP	-5009
IR	-5010
ba	-5011
uv	-5012
acy	-5013
aze	-5014
emp	-5015
equ	-5016
sec	-5017
▁'%	-5018
▁By	-5019
▁IT	-5020
▁Ji	-5021
▁ep	-5022
adem	-5023
alse	-5024
atic	-5025
ayal	-5026
eous	-5027
hara	-5028
iger	-5029
mber	-5030
unal	-5031
vant	-5032
yaan	-5033
▁Lab	-5034
▁Mah	-5035
▁Mon	-5036
▁Mor	-5037
▁NEW	-5038
▁Piy	-5039
▁RBI	-5040
▁Raf	-5041
▁Rat	-5042
▁Sag	-5043
▁Tax	-5044
▁Ven	-5045
▁Vis	-5046
▁god	-5047
▁kid	-5048
▁max	-5049
▁tas	-5050
adnav	-5051
arpur	-5052
ethod	-5053
inate	-5054
inion	-5055
oused	-5056
overy	-5057
phant	-5058
▁Abhi	-5059
▁Agar	-5060
▁Char	-5061
▁Keon	-5062
▁Shan	-5063
▁Sidd	-5064
▁Vill	-5065
▁bond	-5066
▁boys	-5067
▁enem	-5068
▁fuel	-5069
▁kids	-5070
▁purc	-5071
▁quit	-5072
▁seek	-5073
▁toil	-5074
▁walk	-5075
▁wall	-5076
▁wise	-5077
cribed	-5078
embers	-5079
▁Anand	-5080
▁Could	-5081
▁Jagan	-5082
▁Mohan	-5083
▁Moses	-5084
▁Skill	-5085
▁basic	-5086
▁below	-5087
▁chill	-5088
▁clash	-5089
▁cyber	-5090
▁doesn	-5091
▁drive	-5092
▁funds	-5093
▁green	-5094
▁ideas	-5095
▁songs	-5096
▁spent	-5097
▁stock	-5098
▁table	-5099
▁union	-5100
▁until	-5101
▁votes	-5102
▁worry	-5103
adnavis	-5104
olution	-5105
ressing	-5106
▁Leader	-5107
▁Piyush	-5108
▁Sachin	-5109
▁Temple	-5110
▁acting	-5111
▁advant	-5112
▁degree	-5113
▁diabet	-5114
▁enough	-5115
▁inspir	-5116
▁mortem	-5117
▁pistol	-5118
▁spoken	-5119
▁undert	-5120
▁wished	-5121
▁wonder	-5122
▁channel	-5123
▁dischar	-5124
▁emerged	-5125
▁engaged	-5126
▁fighter	-5127
▁keeping	-5128
▁managed	-5129
▁numbers	-5130
▁patient	-5131
▁pending	-5132
▁prepare	-5133
▁weapons	-5134
▁wickets	-5135
▁winning	-5136
▁Industry	-5137
▁Keonjhar	-5138
▁Niranjan	-5139
▁heritage	-5140
▁repeated	-5141
▁separate	-5142
▁Similarly	-5143
▁installed	-5144
▁relatives	-5145
▁remaining	-5146
▁technolog	-5147
▁Mayurbhanj	-5148
▁exhibition	-5149
▁facilitate	-5150
▁favourable	-5151
▁constructed	-5152
▁intensified	-5153
▁Investigation	-5154
It	-5155
ex	-5156
xy	-5157
-16	-5158
aji	-5159
eel	-5160
eks	-5161
ext	-5162
lah	-5163
mun	-5164
▁27	-5165
▁Ir	-5166
ELHI	-5167
chol	-5168
ield	-5169
ique	-5170
irty	-5171
lict	-5172
wami	-5173
▁BSP	-5174
▁Dig	-5175
▁Eli	-5176
▁Gar	-5177
▁Hes	-5178
▁Lim	-5179
▁MPs	-5180
▁Mas	-5181
▁Vik	-5182
▁bal	-5183
▁dro	-5184
▁dry	-5185
▁fat	-5186
▁lat	-5187
▁pit	-5188
▁thr	-5189
▁tom	-5190
andum	-5191
break	-5192
icies	-5193
inger	-5194
ittar	-5195
place	-5196
▁2016	-5197
▁Ajit	-5198
▁Budd	-5199
▁ISRO	-5200
▁Keep	-5201
▁Last	-5202
▁Once	-5203
▁Saty	-5204
▁Tata	-5205
▁Trib	-5206
▁Vide	-5207
▁crow	-5208
▁drug	-5209
▁fill	-5210
▁guid	-5211
▁hits	-5212
▁load	-5213
▁note	-5214
▁pers	-5215
▁shop	-5216
▁slow	-5217
▁talk	-5218
▁vast	-5219
▁weak	-5220
▁wont	-5221
ington	-5222
ishing	-5223
manent	-5224
othing	-5225
uclear	-5226
utions	-5227
▁Angul	-5228
▁DELHI	-5229
▁Dilip	-5230
▁Gupta	-5231
▁Judge	-5232
▁Kapil	-5233
▁angry	-5234
▁arriv	-5235
▁holds	-5236
▁limit	-5237
▁mouth	-5238
▁oppos	-5239
▁raise	-5240
▁squad	-5241
▁trial	-5242
▁twice	-5243
endment	-5244
ensions	-5245
ighters	-5246
ishment	-5247
reement	-5248
▁Basant	-5249
▁Petrol	-5250
▁Sushma	-5251
▁agency	-5252
▁bridge	-5253
▁courts	-5254
▁enable	-5255
▁events	-5256
▁filled	-5257
▁flight	-5258
▁liquor	-5259
▁movies	-5260
▁passes	-5261
▁prizes	-5262
ittarius	-5263
rigation	-5264
▁Command	-5265
▁Culture	-5266
▁Current	-5267
▁Despite	-5268
▁Jaitley	-5269
▁Schools	-5270
▁collect	-5271
▁conclud	-5272
▁jointly	-5273
▁maximum	-5274
▁sharing	-5275
▁sparked	-5276
▁studies	-5277
▁younger	-5278
▁Brothers	-5279
▁Fadnavis	-5280
▁creation	-5281
▁elephant	-5282
▁exercise	-5283
▁physical	-5284
▁pleasant	-5285
▁register	-5286
▁servants	-5287
▁Financial	-5288
▁accidents	-5289
▁agitation	-5290
▁emergency	-5291
▁provision	-5292
▁scheduled	-5293
▁stability	-5294
▁Conference	-5295
▁challenged	-5296
▁conducting	-5297
▁delegation	-5298
▁Sagittarius	-5299
▁performance	-5300
▁temperature	-5301
▁particularly	-5302
▁Parliamentary	-5303
▁participation	-5304
5.	-5305
DA	-5306
ES	-5307
hl	-5308
ams	-5309
fra	-5310
het	-5311
ida	-5312
mpt	-5313
ony	-5314
ppa	-5315
ull	-5316
▁CA	-5317
▁HC	-5318
▁Ju	-5319
▁il	-5320
anna	-5321
hens	-5322
icro	-5323
ivid	-5324
olen	-5325
rees	-5326
rore	-5327
wadi	-5328
wise	-5329
▁Any	-5330
▁Bra	-5331
▁Joh	-5332
▁Kam	-5333
▁Law	-5334
▁Miz	-5335
▁RJD	-5336
▁Red	-5337
▁Sav	-5338
▁Ver	-5339
▁ask	-5340
▁fre	-5341
Moham	-5342
ajpay	-5343
enant	-5344
gment	-5345
kanal	-5346
ogarh	-5347
quake	-5348
storm	-5349
ureau	-5350
▁Bhag	-5351
▁Food	-5352
▁Phil	-5353
▁Sain	-5354
▁Sind	-5355
▁caut	-5356
▁cook	-5357
▁felt	-5358
▁fram	-5359
▁gate	-5360
▁grat	-5361
▁heat	-5362
▁loan	-5363
▁pace	-5364
▁poin	-5365
▁pray	-5366
▁soft	-5367
atever	-5368
ifying	-5369
ighted	-5370
overty	-5371
▁Ganga	-5372
▁Inter	-5373
▁Rural	-5374
▁Swach	-5375
▁anger	-5376
▁bound	-5377
▁depos	-5378
▁illeg	-5379
▁items	-5380
▁lands	-5381
▁lines	-5382
▁masks	-5383
▁mater	-5384
▁noted	-5385
▁panel	-5386
▁rapid	-5387
▁scale	-5388
▁sugar	-5389
▁urban	-5390
▁veget	-5391
ication	-5392
itaries	-5393
▁Author	-5394
▁Strict	-5395
▁System	-5396
▁Though	-5397
▁animal	-5398
▁approp	-5399
▁banned	-5400
▁booked	-5401
▁doused	-5402
▁export	-5403
▁guests	-5404
▁labour	-5405
▁mental	-5406
▁myself	-5407
▁seeing	-5408
▁smooth	-5409
▁transp	-5410
▁warned	-5411
henkanal	-5412
▁Actress	-5413
▁Deogarh	-5414
▁Kandham	-5415
▁Kuldeep	-5416
▁Manipur	-5417
▁Members	-5418
▁aspects	-5419
▁cabinet	-5420
▁consult	-5421
▁joining	-5422
▁reduced	-5423
▁seeking	-5424
▁systems	-5425
▁tribute	-5426
▁trouble	-5427
elligence	-5428
▁Commerce	-5429
▁Himachal	-5430
▁argument	-5431
▁cautious	-5432
▁meetings	-5433
▁outbreak	-5434
▁policies	-5435
▁speaking	-5436
▁suddenly	-5437
▁Relations	-5438
▁commanded	-5439
▁cricketer	-5440
▁dismissed	-5441
▁documents	-5442
▁gathering	-5443
▁interview	-5444
▁sacrifice	-5445
▁Chandigarh	-5446
▁complaints	-5447
▁confidence	-5448
▁inaugurate	-5449
▁neighbours	-5450
▁scientific	-5451
▁smartphone	-5452
▁supporting	-5453
▁Association	-5454
▁dignitaries	-5455
▁Independence	-5456
▁competitions	-5457
▁beneficiaries	-5458
DM	-5459
NA	-5460
ni	-5461
▁?	-5462
RIC	-5463
dha	-5464
fit	-5465
hit	-5466
hus	-5467
igg	-5468
ila	-5469
ipl	-5470
ips	-5471
opy	-5472
use	-5473
▁Ti	-5474
This	-5475
acle	-5476
angi	-5477
eful	-5478
iful	-5479
keep	-5480
lets	-5481
lied	-5482
rina	-5483
▁150	-5484
▁Aug	-5485
▁Bis	-5486
▁Gan	-5487
▁Gas	-5488
▁Mur	-5489
▁Tur	-5490
▁emb	-5491
▁fam	-5492
▁hum	-5493
▁jaw	-5494
▁mix	-5495
▁ren	-5496
▁swe	-5497
aches	-5498
apore	-5499
elled	-5500
ertil	-5501
inals	-5502
lying	-5503
obile	-5504
odhya	-5505
oting	-5506
ratic	-5507
upted	-5508
ystem	-5509
▁Alia	-5510
▁Have	-5511
▁Init	-5512
▁Jain	-5513
▁Jena	-5514
▁Kaif	-5515
▁Naid	-5516
▁Sele	-5517
▁Viet	-5518
▁anti	-5519
▁dram	-5520
▁evil	-5521
▁firm	-5522
▁govt	-5523
▁knew	-5524
▁luck	-5525
▁mine	-5526
▁mour	-5527
▁neck	-5528
▁prem	-5529
▁rank	-5530
▁subs	-5531
▁text	-5532
▁thus	-5533
▁util	-5534
adhaar	-5535
akhand	-5536
anguly	-5537
elines	-5538
mptoms	-5539
ousing	-5540
verage	-5541
▁2018.	-5542
▁Class	-5543
▁Found	-5544
▁Harsh	-5545
▁Jacob	-5546
▁Joshi	-5547
▁Khord	-5548
▁Nayak	-5549
▁Padma	-5550
▁Paduk	-5551
▁Reddy	-5552
▁Royal	-5553
▁conve	-5554
▁defin	-5555
▁elder	-5556
▁false	-5557
▁fifth	-5558
▁hotel	-5559
▁indig	-5560
▁liter	-5561
▁quick	-5562
▁retal	-5563
▁route	-5564
▁sense	-5565
▁sharp	-5566
captain	-5567
ception	-5568
ossible	-5569
ruction	-5570
▁Arabia	-5571
▁Deepak	-5572
▁Forces	-5573
▁Hardik	-5574
▁Income	-5575
▁Indira	-5576
▁Jayant	-5577
▁Policy	-5578
▁buried	-5579
▁casual	-5580
▁dreams	-5581
▁easily	-5582
▁helped	-5583
▁offers	-5584
▁reiter	-5585
▁secret	-5586
▁sevent	-5587
▁staged	-5588
▁wanted	-5589
▁widely	-5590
▁Aadhaar	-5591
▁Ayodhya	-5592
▁Ganguly	-5593
▁Katrina	-5594
▁Nothing	-5595
▁Stadium	-5596
▁Station	-5597
▁Traffic	-5598
▁anybody	-5599
▁chances	-5600
▁climate	-5601
▁coastal	-5602
▁consist	-5603
▁content	-5604
▁context	-5605
▁demonst	-5606
▁despite	-5607
▁enquiry	-5608
▁erupted	-5609
▁feeling	-5610
▁greeted	-5611
▁highway	-5612
▁individ	-5613
▁killing	-5614
▁motorcy	-5615
▁opening	-5616
▁passing	-5617
▁payment	-5618
▁promise	-5619
▁regular	-5620
▁starred	-5621
▁thereof	-5622
▁trailer	-5623
▁worship	-5624
intendent	-5625
▁Justices	-5626
▁appealed	-5627
▁category	-5628
▁certific	-5629
▁collabor	-5630
▁diabetes	-5631
▁document	-5632
▁enhanced	-5633
▁friendly	-5634
▁governor	-5635
▁humanity	-5636
▁hundreds	-5637
▁multiple	-5638
▁offering	-5639
▁presided	-5640
▁promised	-5641
▁recovery	-5642
iversities	-5643
▁Bangalore	-5644
▁Dhenkanal	-5645
▁fulfilled	-5646
▁languages	-5647
▁objective	-5648
▁promoting	-5649
▁strategic	-5650
▁approached	-5651
▁industrial	-5652
▁maintained	-5653
▁protesting	-5654
▁scientists	-5655
▁Uttarakhand	-5656
▁outstanding	-5657
▁unfortunate	-5658
▁organisations	-5659
.0	-5660
In	-5661
ja	-5662
ny	-5663
za	-5664
cal	-5665
eav	-5666
ero	-5667
ler	-5668
ols	-5669
pex	-5670
rew	-5671
▁--	-5672
▁Gh	-5673
▁IN	-5674
▁bi	-5675
▁du	-5676
RICS	-5677
back	-5678
cked	-5679
erve	-5680
ishi	-5681
nsic	-5682
oram	-5683
resp	-5684
wali	-5685
▁Adv	-5686
▁Bef	-5687
▁Gad	-5688
▁Kha	-5689
▁Meh	-5690
▁Neh	-5691
▁Put	-5692
▁Rah	-5693
▁Rai	-5694
▁SCB	-5695
▁Sah	-5696
▁See	-5697
▁Sil	-5698
▁USA	-5699
▁era	-5700
abled	-5701
astic	-5702
board	-5703
ender	-5704
ients	-5705
igure	-5706
omach	-5707
under	-5708
▁Brit	-5709
▁Conf	-5710
▁Gold	-5711
▁Govt	-5712
▁Rath	-5713
▁Sard	-5714
▁Stay	-5715
▁adop	-5716
▁base	-5717
▁blue	-5718
▁farm	-5719
▁hour	-5720
▁loot	-5721
▁mode	-5722
▁page	-5723
▁sell	-5724
▁shew	-5725
ellect	-5726
herjee	-5727
istant	-5728
rative	-5729
urning	-5730
▁About	-5731
▁Armed	-5732
▁Nadda	-5733
▁Naidu	-5734
▁Padhi	-5735
▁Polit	-5736
▁Produ	-5737
▁Shami	-5738
▁Vehic	-5739
▁adequ	-5740
▁ammun	-5741
▁beaut	-5742
▁discl	-5743
▁fresh	-5744
▁hasnt	-5745
▁heads	-5746
▁lived	-5747
▁showc	-5748
▁subst	-5749
▁sworn	-5750
▁taste	-5751
▁teach	-5752
▁trace	-5753
▁trigg	-5754
▁vital	-5755
▁weeks	-5756
ajpayee	-5757
casting	-5758
ertiliz	-5759
▁Before	-5760
▁Behold	-5761
▁Hockey	-5762
▁Import	-5763
▁Manish	-5764
▁Shahid	-5765
▁breath	-5766
▁charac	-5767
▁determ	-5768
▁escape	-5769
▁filing	-5770
▁harass	-5771
▁locked	-5772
▁mutual	-5773
▁points	-5774
▁rememb	-5775
▁rivers	-5776
▁scared	-5777
▁simple	-5778
▁skills	-5779
▁statue	-5780
▁twenty	-5781
▁unable	-5782
▁unique	-5783
▁waters	-5784
▁youngs	-5785
enditure	-5786
liminary	-5787
▁Bhushan	-5788
▁Express	-5789
▁Husband	-5790
▁Officer	-5791
▁animals	-5792
▁charged	-5793
▁convers	-5794
▁council	-5795
▁enemies	-5796
▁indigen	-5797
▁pension	-5798
▁planned	-5799
▁totally	-5800
▁vaccine	-5801
▁vitamin	-5802
ibilities	-5803
▁Administ	-5804
▁Padukone	-5805
▁Reliance	-5806
▁defeated	-5807
▁learning	-5808
▁millions	-5809
▁planning	-5810
▁religion	-5811
▁standing	-5812
▁suspects	-5813
▁symptoms	-5814
▁Agreement	-5815
▁Currently	-5816
▁Kandhamal	-5817
▁Mukherjee	-5818
▁Pakistans	-5819
▁advantage	-5820
▁demanding	-5821
▁labourers	-5822
▁operating	-5823
▁organized	-5824
▁policemen	-5825
▁prevailed	-5826
▁sensitive	-5827
▁succeeded	-5828
▁territory	-5829
▁Washington	-5830
▁ammunition	-5831
▁critically	-5832
▁criticised	-5833
▁discharged	-5834
▁negligence	-5835
▁Citizenship	-5836
▁Cooperation	-5837
▁appropriate	-5838
▁association	-5839
▁celebrating	-5840
▁citizenship	-5841
▁experiences	-5842
▁generations	-5843
▁independent	-5844
▁possibility	-5845
▁conferencing	-5846
▁constitution	-5847
▁intervention	-5848
▁successfully	-5849
.7	-5850
ED	-5851
NI	-5852
RI	-5853
▁0	-5854
ahe	-5855
ama	-5856
eta	-5857
gic	-5858
hot	-5859
ilg	-5860
log	-5861
oda	-5862
oli	-5863
ube	-5864
▁28	-5865
▁33	-5866
▁KL	-5867
▁Lt	-5868
▁ic	-5869
aked	-5870
ball	-5871
gent	-5872
hans	-5873
mbol	-5874
more	-5875
ogle	-5876
omet	-5877
onic	-5878
onom	-5879
poll	-5880
pril	-5881
riot	-5882
star	-5883
utan	-5884
wide	-5885
▁500	-5886
▁Bas	-5887
▁Bik	-5888
▁Dec	-5889
▁Gir	-5890
▁Hel	-5891
▁Ira	-5892
▁Jeh	-5893
▁Lib	-5894
▁Mir	-5895
▁Mit	-5896
▁SBI	-5897
▁bed	-5898
▁cho	-5899
▁cin	-5900
▁cry	-5901
▁ign	-5902
▁nar	-5903
▁rum	-5904
▁sem	-5905
▁sex	-5906
▁sin	-5907
▁unc	-5908
ching	-5909
hases	-5910
iplom	-5911
lands	-5912
reets	-5913
thren	-5914
ulate	-5915
▁2022	-5916
▁Biju	-5917
▁City	-5918
▁Each	-5919
▁Hist	-5920
▁Meet	-5921
▁Resp	-5922
▁Thou	-5923
▁Wind	-5924
▁apex	-5925
▁ausp	-5926
▁bott	-5927
▁glad	-5928
▁harm	-5929
▁lies	-5930
▁path	-5931
▁poet	-5932
▁seem	-5933
ctoral	-5934
ewable	-5935
ilgrim	-5936
prises	-5937
▁Aaron	-5938
▁BRICS	-5939
▁Based	-5940
▁Check	-5941
▁Judah	-5942
▁Korea	-5943
▁Media	-5944
▁Rasht	-5945
▁Rawat	-5946
▁absol	-5947
▁begat	-5948
▁crowd	-5949
▁diver	-5950
▁faced	-5951
▁fruit	-5952
▁glory	-5953
▁lower	-5954
▁penal	-5955
▁postp	-5956
▁raids	-5957
▁seems	-5958
▁sixth	-5959
▁sweet	-5960
▁tests	-5961
▁tight	-5962
holders	-5963
urement	-5964
▁August	-5965
▁Awards	-5966
▁Bihari	-5967
▁Bureau	-5968
▁Candid	-5969
▁Excell	-5970
▁Google	-5971
▁Ladakh	-5972
▁Member	-5973
▁Sardar	-5974
▁affect	-5975
▁apolog	-5976
▁broken	-5977
▁causes	-5978
▁cooper	-5979
▁endeav	-5980
▁flames	-5981
▁indeed	-5982
▁longer	-5983
▁please	-5984
▁singer	-5985
▁stable	-5986
▁tribal	-5987
▁Indones	-5988
▁Lucknow	-5989
▁Manohar	-5990
▁Shikhar	-5991
▁Vietnam	-5992
▁amongst	-5993
▁blessed	-5994
▁comfort	-5995
▁destroy	-5996
▁escaped	-5997
▁fielded	-5998
▁matches	-5999
▁minimum	-6000
▁opinion	-6001
▁probing	-6002
▁servant	-6003
▁slogans	-6004
▁someone	-6005
▁veteran	-6006
▁Moreover	-6007
▁Sciences	-6008
▁comments	-6009
▁computer	-6010
▁cordoned	-6011
▁fighting	-6012
▁infected	-6013
▁integral	-6014
▁internet	-6015
▁observed	-6016
▁pregnant	-6017
▁reviewed	-6018
▁struggle	-6019
▁surround	-6020
▁survived	-6021
▁unveiled	-6022
▁Authority	-6023
▁Brahmapur	-6024
▁Champions	-6025
▁Rashtriya	-6026
▁collision	-6027
▁confident	-6028
▁connected	-6029
▁elaborate	-6030
▁estimated	-6031
▁formation	-6032
▁highlight	-6033
▁improving	-6034
▁mandatory	-6035
▁passenger	-6036
▁performed	-6037
▁returning	-6038
▁righteous	-6039
▁selection	-6040
▁spiritual	-6041
▁triggered	-6042
▁Australian	-6043
▁Candidates	-6044
▁Foundation	-6045
▁auspicious	-6046
▁complained	-6047
▁completion	-6048
▁comprising	-6049
▁developing	-6050
▁governance	-6051
▁impossible	-6052
▁reiterated	-6053
▁remembered	-6054
▁travelling	-6055
▁university	-6056
▁vegetables	-6057
▁aspirations	-6058
▁proceedings	-6059
▁sustainable	-6060
AR	-6061
BC	-6062
CA	-6063
HO	-6064
NU	-6065
oi	-6066
uz	-6067
-20	-6068
chi	-6069
eev	-6070
gra	-6071
ief	-6072
low	-6073
nes	-6074
que	-6075
uja	-6076
xim	-6077
yot	-6078
▁(1	-6079
▁31	-6080
▁BS	-6081
▁Ob	-6082
IIMS	-6083
aken	-6084
ends	-6085
half	-6086
ials	-6087
icle	-6088
kela	-6089
ktop	-6090
ober	-6091
ples	-6092
rain	-6093
rect	-6094
urus	-6095
▁Aad	-6096
▁Aay	-6097
▁Ann	-6098
▁Bay	-6099
▁Bir	-6100
▁Bum	-6101
▁CPI	-6102
▁Gen	-6103
▁Goa	-6104
▁Haz	-6105
▁Oct	-6106
▁Rak	-6107
▁Sid	-6108
▁Sik	-6109
▁aid	-6110
▁eye	-6111
▁fel	-6112
▁fem	-6113
▁fle	-6114
▁fra	-6115
▁hor	-6116
▁lie	-6117
▁lov	-6118
▁piv	-6119
▁sup	-6120
▁van	-6121
arius	-6122
eding	-6123
essor	-6124
harma	-6125
igned	-6126
ocate	-6127
orted	-6128
rench	-6129
uddin	-6130
utely	-6131
▁Ashw	-6132
▁Book	-6133
▁Dutt	-6134
▁Find	-6135
▁Happ	-6136
▁Kann	-6137
▁Kare	-6138
▁Mang	-6139
▁Mass	-6140
▁Maur	-6141
▁Navy	-6142
▁Park	-6143
▁Pram	-6144
▁Rukh	-6145
▁Very	-6146
▁amaz	-6147
▁fair	-6148
▁nurs	-6149
▁purs	-6150
▁sick	-6151
▁tack	-6152
▁trem	-6153
▁vine	-6154
▁west	-6155
nowned	-6156
orough	-6157
▁April	-6158
▁Crore	-6159
▁Death	-6160
▁Devgn	-6161
▁Integ	-6162
▁Majhi	-6163
▁Staff	-6164
▁Still	-6165
▁Video	-6166
▁alive	-6167
▁blaze	-6168
▁chest	-6169
▁error	-6170
▁faces	-6171
▁floor	-6172
▁incon	-6173
▁indic	-6174
▁liked	-6175
▁midst	-6176
▁plant	-6177
▁pride	-6178
▁ruled	-6179
▁schol	-6180
▁sight	-6181
▁theme	-6182
▁worse	-6183
▁write	-6184
actions	-6185
asingha	-6186
ourkela	-6187
uration	-6188
▁Bhutan	-6189
▁Bumrah	-6190
▁Canada	-6191
▁Failed	-6192
▁Mobile	-6193
▁Nation	-6194
▁Pandey	-6195
▁Rafale	-6196
▁Rajesh	-6197
▁awards	-6198
▁campus	-6199
▁chilli	-6200
▁enthus	-6201
▁folder	-6202
▁fought	-6203
▁hockey	-6204
▁leaves	-6205
▁lights	-6206
▁mainly	-6207
▁medium	-6208
▁orders	-6209
▁partys	-6210
▁phases	-6211
▁satell	-6212
▁stands	-6213
▁stolen	-6214
▁symbol	-6215
▁talent	-6216
▁window	-6217
venience	-6218
▁Agarwal	-6219
▁Airport	-6220
▁Kareena	-6221
▁Khordha	-6222
▁Meeting	-6223
▁Mizoram	-6224
▁Protest	-6225
▁affairs	-6226
▁batsman	-6227
▁century	-6228
▁convict	-6229
▁crucial	-6230
▁finally	-6231
▁harmony	-6232
▁innings	-6233
▁limited	-6234
▁nuclear	-6235
▁package	-6236
▁poverty	-6237
▁regions	-6238
▁revenue	-6239
▁stomach	-6240
▁testing	-6241
▁unclear	-6242
▁waiting	-6243
▁warning	-6244
▁American	-6245
▁Devendra	-6246
▁Recently	-6247
▁achieved	-6248
▁announce	-6249
▁asserted	-6250
▁brethren	-6251
▁captured	-6252
▁conveyed	-6253
▁countrys	-6254
▁dialogue	-6255
▁distance	-6256
▁examples	-6257
▁ordinary	-6258
▁premises	-6259
▁producer	-6260
▁relevant	-6261
▁restrict	-6262
▁studying	-6263
▁transfer	-6264
▁uprooted	-6265
▁visiting	-6266
▁Jagannath	-6267
▁Singapore	-6268
▁beautiful	-6269
▁childhood	-6270
▁intellect	-6271
▁principal	-6272
▁recommend	-6273
▁Addressing	-6274
▁Memorandum	-6275
▁applicable	-6276
▁background	-6277
▁engagement	-6278
▁photograph	-6279
▁entrepreneurs	-6280
▁interrogation	-6281
▁parliamentary	-6282
.6	-6283
99	-6284
CG	-6285
Ch	-6286
OD	-6287
PM	-6288
RA	-6289
cks	-6290
coh	-6291
ema	-6292
hav	-6293
haz	-6294
hek	-6295
hew	-6296
hta	-6297
lal	-6298
odh	-6299
ola	-6300
pre	-6301
reg	-6302
sha	-6303
umn	-6304
unk	-6305
▁26	-6306
▁60	-6307
▁AP	-6308
▁Cr	-6309
▁MK	-6310
▁SA	-6311
araj	-6312
arks	-6313
auty	-6314
eral	-6315
fast	-6316
hlot	-6317
mark	-6318
owed	-6319
pati	-6320
time	-6321
uhan	-6322
wala	-6323
▁197	-6324
▁AAP	-6325
▁Bel	-6326
▁Bul	-6327
▁Dan	-6328
▁Din	-6329
▁Fis	-6330
▁Get	-6331
▁Hig	-6332
▁Jai	-6333
▁Jav	-6334
▁Jit	-6335
▁PAN	-6336
▁Smt	-6337
▁Vid	-6338
▁agg	-6339
▁pip	-6340
▁pub	-6341
▁rad	-6342
▁ram	-6343
▁ric	-6344
▁unf	-6345
anced	-6346
anmar	-6347
arity	-6348
aysia	-6349
cohol	-6350
eline	-6351
harya	-6352
ilder	-6353
india	-6354
istic	-6355
ivery	-6356
ograp	-6357
olate	-6358
orter	-6359
raham	-6360
rific	-6361
▁2015	-6362
▁Chou	-6363
▁Devi	-6364
▁Euro	-6365
▁MSME	-6366
▁Mala	-6367
▁Miss	-6368
▁Odia	-6369
▁Phot	-6370
▁Pran	-6371
▁Soon	-6372
▁Tele	-6373
▁Vive	-6374
▁aims	-6375
▁east	-6376
▁empt	-6377
▁evac	-6378
▁iron	-6379
▁lord	-6380
▁marg	-6381
▁rose	-6382
▁sale	-6383
▁size	-6384
▁stab	-6385
▁type	-6386
ancing	-6387
antine	-6388
astern	-6389
hishek	-6390
keeper	-6391
liness	-6392
ounced	-6393
▁AIIMS	-6394
▁Aamir	-6395
▁Aayog	-6396
▁Balak	-6397
▁Being	-6398
▁Broad	-6399
▁Const	-6400
▁Italy	-6401
▁Manoj	-6402
▁Nehru	-6403
▁Samaj	-6404
▁Spend	-6405
▁Urban	-6406
▁alter	-6407
▁ambul	-6408
▁books	-6409
▁chain	-6410
▁color	-6411
▁couns	-6412
▁entry	-6413
▁holid	-6414
▁memor	-6415
▁notes	-6416
▁occup	-6417
▁owner	-6418
▁posts	-6419
▁quiet	-6420
▁range	-6421
▁sheep	-6422
▁shown	-6423
▁solid	-6424
▁solve	-6425
▁sword	-6426
▁tribe	-6427
▁units	-6428
▁winds	-6429
▁worst	-6430
ression	-6431
▁Bhavan	-6432
▁Engine	-6433
▁Gehlot	-6434
▁Indies	-6435
▁Mother	-6436
▁Second	-6437
▁Taurus	-6438
▁afford	-6439
▁beauty	-6440
▁bullet	-6441
▁corpor	-6442
▁digest	-6443
▁diplom	-6444
▁female	-6445
▁fruits	-6446
▁havent	-6447
▁method	-6448
▁nabbed	-6449
▁prison	-6450
▁retire	-6451
▁safely	-6452
▁troops	-6453
Pakistan	-6454
fighters	-6455
▁Abhiyan	-6456
▁Abraham	-6457
▁Digital	-6458
▁January	-6459
▁Limited	-6460
▁Myanmar	-6461
▁Nations	-6462
▁Russian	-6463
▁Tension	-6464
▁Vardhan	-6465
▁actions	-6466
▁arrives	-6467
▁closely	-6468
▁delayed	-6469
▁disturb	-6470
▁dropped	-6471
▁failure	-6472
▁greater	-6473
▁imposed	-6474
▁pivotal	-6475
▁shortly	-6476
▁talking	-6477
▁tremend	-6478
inistries	-6479
▁Abdullah	-6480
▁Abhishek	-6481
▁Disaster	-6482
▁Electric	-6483
▁Jitendra	-6484
▁Rourkela	-6485
▁Vajpayee	-6486
▁adequate	-6487
▁airports	-6488
▁declined	-6489
▁emphasis	-6490
▁identify	-6491
▁obtained	-6492
▁powerful	-6493
▁renowned	-6494
▁shoulder	-6495
▁specific	-6496
▁thorough	-6497
▁turmeric	-6498
employment	-6499
▁Elections	-6500
▁Petroleum	-6501
▁beginning	-6502
▁coalition	-6503
▁customers	-6504
▁disciples	-6505
▁gratitude	-6506
▁infection	-6507
▁meanwhile	-6508
▁practices	-6509
▁searching	-6510
▁stringent	-6511
▁Narasingha	-6512
▁interacted	-6513
▁overturned	-6514
▁traditions	-6515
▁distributed	-6516
▁traditional	-6517
▁celebrations	-6518
▁Understanding	-6519
▁establishment	-6520
▁constituencies	-6521
-0	-6522
.8	-6523
2,	-6524
AE	-6525
CS	-6526
MP	-6527
gg	-6528
gi	-6529
eum	-6530
fan	-6531
hai	-6532
irt	-6533
mat	-6534
meg	-6535
met	-6536
ney	-6537
uls	-6538
ups	-6539
was	-6540
▁%1	-6541
▁(%	-6542
▁90	-6543
▁Ed	-6544
▁Ek	-6545
▁Ga	-6546
▁IM	-6547
▁Jo	-6548
▁KV	-6549
▁Ml	-6550
▁Ms	-6551
▁ju	-6552
-19.	-6553
Cong	-6554
alls	-6555
aman	-6556
anth	-6557
free	-6558
held	-6559
hent	-6560
igra	-6561
inar	-6562
itya	-6563
iven	-6564
orry	-6565
pada	-6566
rack	-6567
rary	-6568
uals	-6569
uded	-6570
uram	-6571
vert	-6572
wari	-6573
▁Aqu	-6574
▁Bai	-6575
▁DGP	-6576
▁Div	-6577
▁Gem	-6578
▁Gor	-6579
▁IAF	-6580
▁Leo	-6581
▁Mat	-6582
▁Muj	-6583
▁Rab	-6584
▁Ser	-6585
▁TMC	-6586
▁Var	-6587
▁hom	-6588
▁hop	-6589
▁kil	-6590
▁kin	-6591
▁lif	-6592
▁tim	-6593
▁ton	-6594
adhav	-6595
cient	-6596
erman	-6597
fight	-6598
habad	-6599
heast	-6600
iracy	-6601
order	-6602
rates	-6603
ridor	-6604
uable	-6605
uated	-6606
uries	-6607
▁Bhup	-6608
▁Four	-6609
▁July	-6610
▁Land	-6611
▁Main	-6612
▁Mald	-6613
▁Name	-6614
▁Poll	-6615
▁Rana	-6616
▁Sant	-6617
▁Sara	-6618
▁Save	-6619
▁Stat	-6620
▁Year	-6621
▁blam	-6622
▁bomb	-6623
▁cops	-6624
▁cult	-6625
▁idea	-6626
▁imag	-6627
▁milk	-6628
▁mist	-6629
▁moon	-6630
▁nine	-6631
▁nort	-6632
▁prin	-6633
▁scam	-6634
▁semi	-6635
▁sort	-6636
▁stor	-6637
ayalam	-6638
eoples	-6639
estern	-6640
hipped	-6641
igible	-6642
illing	-6643
istics	-6644
lihood	-6645
ndered	-6646
ounder	-6647
urappa	-6648
▁Advis	-6649
▁Arora	-6650
▁Feder	-6651
▁Gopal	-6652
▁Karan	-6653
▁March	-6654
▁Nitin	-6655
▁Patra	-6656
▁Steel	-6657
▁advis	-6658
▁calls	-6659
▁catch	-6660
▁empty	-6661
▁globe	-6662
▁guard	-6663
▁invol	-6664
▁looks	-6665
▁marks	-6666
▁meets	-6667
▁score	-6668
▁scuff	-6669
▁slain	-6670
▁tense	-6671
▁trend	-6672
▁views	-6673
▁white	-6674
oration	-6675
related	-6676
umerous	-6677
▁2014-1	-6678
▁Bharti	-6679
▁Europe	-6680
▁Higher	-6681
▁Jadhav	-6682
▁Nagpur	-6683
▁Relief	-6684
▁Safety	-6685
▁affair	-6686
▁artist	-6687
▁beaten	-6688
▁behalf	-6689
▁bright	-6690
▁brings	-6691
▁chance	-6692
▁compon	-6693
▁desire	-6694
▁garlic	-6695
▁hearts	-6696
▁heaven	-6697
▁listen	-6698
▁losses	-6699
▁mining	-6700
▁nearly	-6701
▁nurses	-6702
▁remand	-6703
▁remove	-6704
▁select	-6705
▁spouse	-6706
▁summit	-6707
▁tackle	-6708
▁thanks	-6709
▁thirty	-6710
▁tragic	-6711
▁African	-6712
▁Captain	-6713
▁Jasprit	-6714
▁October	-6715
▁Rashtra	-6716
▁balance	-6717
▁borders	-6718
▁chopped	-6719
▁decades	-6720
▁discrim	-6721
▁falling	-6722
▁feature	-6723
▁flights	-6724
▁greatly	-6725
▁markets	-6726
▁meaning	-6727
▁produce	-6728
▁replace	-6729
▁section	-6730
▁setting	-6731
abilities	-6732
▁Alliance	-6733
▁Aviation	-6734
▁Communic	-6735
▁Institut	-6736
▁Mohammad	-6737
▁Training	-6738
▁actually	-6739
▁appeared	-6740
▁conflict	-6741
▁external	-6742
▁forecast	-6743
▁forensic	-6744
▁interact	-6745
▁internal	-6746
▁manifest	-6747
▁priority	-6748
▁starting	-6749
▁whatever	-6750
▁Amendment	-6751
▁Indonesia	-6752
▁Malayalam	-6753
▁Panchayat	-6754
▁Samajwadi	-6755
▁announces	-6756
▁authority	-6757
▁champions	-6758
▁conductor	-6759
▁disclosed	-6760
▁exception	-6761
▁influence	-6762
▁interests	-6763
▁permanent	-6764
▁prominent	-6765
▁violating	-6766
▁witnessed	-6767
▁wonderful	-6768
▁workplace	-6769
▁constantly	-6770
▁introduced	-6771
▁irrigation	-6772
▁permission	-6773
▁protection	-6774
▁provisions	-6775
▁punishment	-6776
▁quarantine	-6777
▁retaliated	-6778
▁supporters	-6779
▁youngsters	-6780
▁destination	-6781
▁empowerment	-6782
▁inspiration	-6783
▁procurement	-6784
▁transferred	-6785
▁participants	-6786
▁technologies	-6787
▁universities	-6788
▁interrogating	-6789
CO	-6790
GB	-6791
NO	-6792
PC	-6793
SA	-6794
SL	-6795
VM	-6796
dy	-6797
eb	-6798
jj	-6799
rd	-6800
sy	-6801
"",	-6802
.25	-6803
abu	-6804
apt	-6805
bur	-6806
cri	-6807
iri	-6808
lay	-6809
map	-6810
mod	-6811
oba	-6812
pro	-6813
ses	-6814
xid	-6815
yag	-6816
zil	-6817
▁23	-6818
▁AI	-6819
▁AT	-6820
▁Aj	-6821
▁Br	-6822
▁Bu	-6823
▁DD	-6824
▁Fa	-6825
▁Om	-6826
▁RD	-6827
▁dw	-6828
▁vs	-6829
SEAN	-6830
ache	-6831
arge	-6832
bers	-6833
born	-6834
dess	-6835
gred	-6836
hend	-6837
hern	-6838
iced	-6839
inda	-6840
ixel	-6841
lymp	-6842
orge	-6843
osop	-6844
oudh	-6845
oval	-6846
riti	-6847
ruit	-6848
soon	-6849
vene	-6850
wamy	-6851
wara	-6852
west	-6853
▁Bag	-6854
▁Bah	-6855
▁Ber	-6856
▁Bid	-6857
▁Ent	-6858
▁Jon	-6859
▁Leh	-6860
▁Mel	-6861
▁Muz	-6862
▁Nam	-6863
▁Oil	-6864
▁Ren	-6865
▁SMS	-6866
▁alt	-6867
▁anx	-6868
▁bes	-6869
▁dog	-6870
▁dow	-6871
▁duo	-6872
▁fit	-6873
▁mak	-6874
▁pel	-6875
▁sav	-6876
▁sky	-6877
▁tru	-6878
▁und	-6879
▁var	-6880
▁vul	-6881
There	-6882
akshi	-6883
aling	-6884
arant	-6885
arian	-6886
atern	-6887
atoes	-6888
erate	-6889
erved	-6890
essed	-6891
etime	-6892
fraid	-6893
oever	-6894
rants	-6895
usive	-6896
verse	-6897
▁Azad	-6898
▁Band	-6899
▁Care	-6900
▁Deol	-6901
▁Jyot	-6902
▁Kant	-6903
▁Know	-6904
▁Mars	-6905
▁Omar	-6906
▁Oper	-6907
▁Pune	-6908
▁Resc	-6909
▁Sand	-6910
▁Shas	-6911
▁Were	-6912
▁York	-6913
▁bath	-6914
▁cars	-6915
▁cart	-6916
▁decl	-6917
▁door	-6918
▁elim	-6919
▁fort	-6920
▁hung	-6921
▁incl	-6922
▁jump	-6923
▁legs	-6924
▁mach	-6925
▁mant	-6926
▁mort	-6927
▁obst	-6928
▁phil	-6929
▁roll	-6930
▁seed	-6931
▁teen	-6932
▁vess	-6933
arathi	-6934
arnath	-6935
hampur	-6936
icient	-6937
piracy	-6938
rities	-6939
▁ASEAN	-6940
▁Anant	-6941
▁Bobde	-6942
▁Count	-6943
▁Kashi	-6944
▁Light	-6945
▁Olymp	-6946
▁Tomar	-6947
▁Watch	-6948
▁apart	-6949
▁blame	-6950
▁bones	-6951
▁bread	-6952
▁buses	-6953
▁camer	-6954
▁caste	-6955
▁costs	-6956
▁exams	-6957
▁falls	-6958
▁flesh	-6959
▁goals	-6960
▁hosts	-6961
▁hours	-6962
▁keeps	-6963
▁kings	-6964
▁model	-6965
▁newly	-6966
▁plane	-6967
▁pleas	-6968
▁reaff	-6969
▁rider	-6970
▁steel	-6971
▁tough	-6972
hensive	-6973
inating	-6974
utation	-6975
▁Brazil	-6976
▁Gemini	-6977
▁German	-6978
▁Hindus	-6979
▁Honble	-6980
▁Pramod	-6981
▁Prepar	-6982
▁Prince	-6983
▁Proper	-6984
▁Rahman	-6985
▁Swachh	-6986
▁Terror	-6987
▁acknow	-6988
▁advice	-6989
▁afraid	-6990
▁burden	-6991
▁double	-6992
▁farmer	-6993
▁festiv	-6994
▁forgot	-6995
▁ginger	-6996
▁judges	-6997
▁latest	-6998
▁legend	-6999
▁listed	-7000
▁magist	-7001
▁mechan	-7002
▁motion	-7003
▁option	-7004
▁paying	-7005
▁plants	-7006
▁praise	-7007
▁proced	-7008
▁scream	-7009
▁silent	-7010
▁transl	-7011
▁voters	-7012
▁walked	-7013
▁wealth	-7014
▁Connect	-7015
▁Kangana	-7016
▁Manager	-7017
▁alcohol	-7018
▁alerted	-7019
▁ancient	-7020
▁assault	-7021
▁commits	-7022
▁covered	-7023
▁eastern	-7024
▁experts	-7025
▁felicit	-7026
▁illegal	-7027
▁illness	-7028
▁install	-7029
▁kingdom	-7030
▁outcome	-7031
▁pilgrim	-7032
▁prayers	-7033
▁scuffle	-7034
▁stories	-7035
▁streets	-7036
▁tickets	-7037
▁writing	-7038
gredients	-7039
inguished	-7040
▁Aquarius	-7041
▁Internet	-7042
▁Malaysia	-7043
▁answered	-7044
▁changing	-7045
▁compared	-7046
▁concerns	-7047
▁condoled	-7048
▁delivery	-7049
▁departed	-7050
▁distress	-7051
▁featured	-7052
▁honoured	-7053
▁improved	-7054
▁password	-7055
▁philosop	-7056
▁software	-7057
▁targeted	-7058
▁waterlog	-7059
▁Collector	-7060
▁Villagers	-7061
▁addresses	-7062
▁celebrate	-7063
▁conferred	-7064
▁dangerous	-7065
▁gradually	-7066
▁locations	-7067
▁platforms	-7068
▁promotion	-7069
▁protested	-7070
▁withdrawn	-7071
▁Investment	-7072
▁Management	-7073
▁Presidents	-7074
▁absolutely	-7075
▁guidelines	-7076
▁industries	-7077
▁innovative	-7078
▁processing	-7079
▁repeatedly	-7080
▁resolution	-7081
▁respective	-7082
▁revolution	-7083
▁tremendous	-7084
▁chairperson	-7085
▁cleanliness	-7086
▁engineering	-7087
▁expenditure	-7088
▁legislature	-7089
▁preliminary	-7090
▁Broadcasting	-7091
▁achievements	-7092
▁continuously	-7093
▁conversation	-7094
▁destinations	-7095
▁difficulties	-7096
▁inauguration	-7097
▁respectively	-7098
▁restrictions	-7099
▁collaboration	-7100
▁inconvenience	-7101
▁participating	-7102
▁administrative	-7103
,5	-7104
.)	-7105
7.	-7106
AL	-7107
DS	-7108
NB	-7109
RE	-7110
SU	-7111
co	-7112
yl	-7113
-18	-7114
App	-7115
ami	-7116
cel	-7117
cre	-7118
fti	-7119
hak	-7120
imb	-7121
mal	-7122
nag	-7123
thi	-7124
uma	-7125
wor	-7126
▁75	-7127
▁Em	-7128
▁Ki	-7129
▁ox	-7130
NOME	-7131
apse	-7132
asha	-7133
ayam	-7134
enda	-7135
fect	-7136
hesh	-7137
ibre	-7138
kari	-7139
ksha	-7140
mier	-7141
noon	-7142
oked	-7143
pany	-7144
ront	-7145
stri	-7146
udge	-7147
ulty	-7148
umed	-7149
umin	-7150
▁1.5	-7151
▁125	-7152
▁Aut	-7153
▁Bip	-7154
▁Cal	-7155
▁Deo	-7156
▁FIR	-7157
▁Han	-7158
▁Jal	-7159
▁Jew	-7160
▁Kab	-7161
▁Kes	-7162
▁Kis	-7163
▁Meg	-7164
▁Mer	-7165
▁PCC	-7166
▁PMs	-7167
▁PTI	-7168
▁RSS	-7169
▁Rag	-7170
▁Saj	-7171
▁Sen	-7172
▁Tim	-7173
▁Top	-7174
▁UAE	-7175
▁Vas	-7176
▁row	-7177
▁whe	-7178
aving	-7179
chers	-7180
ental	-7181
ework	-7182
inner	-7183
itely	-7184
megap	-7185
nagar	-7186
otion	-7187
oward	-7188
ranch	-7189
umber	-7190
▁Agra	-7191
▁Alla	-7192
▁Baba	-7193
▁Back	-7194
▁Bike	-7195
▁Come	-7196
▁Dist	-7197
▁Does	-7198
▁Huss	-7199
▁Iraq	-7200
▁Jail	-7201
▁Lakh	-7202
▁Love	-7203
▁NITI	-7204
▁Naik	-7205
▁Next	-7206
▁Nick	-7207
▁Prov	-7208
▁Sang	-7209
▁Shak	-7210
▁Shre	-7211
▁Step	-7212
▁Sure	-7213
▁Text	-7214
▁Upon	-7215
▁Well	-7216
▁core	-7217
▁fake	-7218
▁feed	-7219
▁gods	-7220
▁hasn	-7221
▁hike	-7222
▁lose	-7223
▁mere	-7224
▁pron	-7225
▁samp	-7226
▁stra	-7227
▁task	-7228
▁tool	-7229
▁upto	-7230
▁urge	-7231
ademic	-7232
ansion	-7233
enders	-7234
itable	-7235
mended	-7236
ocated	-7237
preced	-7238
rators	-7239
▁Azhar	-7240
▁Bahad	-7241
▁Chaud	-7242
▁Democ	-7243
▁GNOME	-7244
▁Laksh	-7245
▁Libra	-7246
▁Mehbo	-7247
▁Mufti	-7248
▁Sahib	-7249
▁Shops	-7250
▁Small	-7251
▁Thank	-7252
▁Total	-7253
▁Train	-7254
▁avoid	-7255
▁cloud	-7256
▁concl	-7257
▁drugs	-7258
▁extra	-7259
▁fraud	-7260
▁grace	-7261
▁kidna	-7262
▁links	-7263
▁lying	-7264
▁marry	-7265
▁mercy	-7266
▁metro	-7267
▁onion	-7268
▁paper	-7269
▁regul	-7270
▁sound	-7271
▁stern	-7272
▁theft	-7273
▁title	-7274
central	-7275
essions	-7276
rations	-7277
taining	-7278
▁Academ	-7279
▁Change	-7280
▁Diwali	-7281
▁French	-7282
▁Rescue	-7283
▁Search	-7284
▁Sector	-7285
▁Sheikh	-7286
▁Sindhu	-7287
▁Territ	-7288
▁altern	-7289
▁annual	-7290
▁assess	-7291
▁compre	-7292
▁format	-7293
▁highly	-7294
▁losing	-7295
▁nomine	-7296
▁proved	-7297
▁regret	-7298
▁remote	-7299
▁secure	-7300
▁speedy	-7301
▁stress	-7302
▁submit	-7303
▁subsid	-7304
▁taught	-7305
▁tested	-7306
▁vulner	-7307
▁wicked	-7308
▁worker	-7309
ishankar	-7310
ximately	-7311
▁Company	-7312
▁Hussain	-7313
▁Kannada	-7314
▁Leaders	-7315
▁Maharaj	-7316
▁Malaika	-7317
▁Natural	-7318
▁Pradeep	-7319
▁Scindia	-7320
▁Shankar	-7321
▁Working	-7322
▁anymore	-7323
▁attract	-7324
▁burning	-7325
▁deliber	-7326
▁exactly	-7327
▁factory	-7328
▁farming	-7329
▁follows	-7330
▁holiday	-7331
▁manager	-7332
▁options	-7333
▁overall	-7334
▁quarter	-7335
▁recover	-7336
▁remarks	-7337
▁updates	-7338
megapixel	-7339
▁Maldives	-7340
▁Resident	-7341
▁agencies	-7342
▁anywhere	-7343
▁blockade	-7344
▁download	-7345
▁ensuring	-7346
▁entering	-7347
▁examined	-7348
▁gunfight	-7349
▁improves	-7350
▁judgment	-7351
▁location	-7352
▁martyred	-7353
▁medicine	-7354
▁negative	-7355
▁pacified	-7356
▁reaction	-7357
▁reducing	-7358
▁relating	-7359
▁sentence	-7360
▁shortage	-7361
▁spending	-7362
▁substant	-7363
▁surfaced	-7364
▁thoughts	-7365
▁tomorrow	-7366
▁unpreced	-7367
▁vigilant	-7368
▁yourself	-7369
▁Allahabad	-7370
▁afternoon	-7371
▁ambulance	-7372
▁buildings	-7373
▁certainly	-7374
▁concluded	-7375
▁described	-7376
▁displayed	-7377
▁executive	-7378
▁forwarded	-7379
▁initially	-7380
▁judgement	-7381
▁nominated	-7382
▁presently	-7383
▁reporters	-7384
▁satisfied	-7385
▁sentenced	-7386
▁violation	-7387
▁Integrated	-7388
▁Jaishankar	-7389
▁definitely	-7390
▁friendship	-7391
▁livelihood	-7392
▁motorcycle	-7393
▁recognised	-7394
▁Legislative	-7395
▁appointment	-7396
▁celebrities	-7397
▁certificate	-7398
▁challenging	-7399
▁functioning	-7400
▁highlighted	-7401
▁improvement	-7402
▁interaction	-7403
▁recommended	-7404
▁applications	-7405
▁capabilities	-7406
▁requirements	-7407
▁stakeholders	-7408
▁unprecedented	-7409
▁Superintendent	-7410
.,	-7411
1.	-7412
2.	-7413
ET	-7414
MK	-7415
RU	-7416
ua	-7417
IIT	-7418
ady	-7419
arm	-7420
eft	-7421
hah	-7422
key	-7423
oom	-7424
rap	-7425
tes	-7426
▁35	-7427
▁45	-7428
▁65	-7429
▁AK	-7430
▁JP	-7431
▁RA	-7432
▁id	-7433
▁wr	-7434
alys	-7435
ancy	-7436
anis	-7437
ares	-7438
athi	-7439
bhar	-7440
cond	-7441
efed	-7442
grad	-7443
haps	-7444
hash	-7445
iant	-7446
iban	-7447
illy	-7448
inik	-7449
inse	-7450
lies	-7451
odia	-7452
oget	-7453
oons	-7454
opic	-7455
rase	-7456
rine	-7457
room	-7458
ship	-7459
udra	-7460
wary	-7461
yond	-7462
▁198	-7463
▁ATM	-7464
▁Att	-7465
▁Bed	-7466
▁Bij	-7467
▁Bin	-7468
▁Bur	-7469
▁Det	-7470
▁Did	-7471
▁Ext	-7472
▁Gro	-7473
▁Gun	-7474
▁IIT	-7475
▁Ins	-7476
▁Iss	-7477
▁JNU	-7478
▁Jin	-7479
▁Key	-7480
▁Mag	-7481
▁Nat	-7482
▁Nic	-7483
▁Pur	-7484
▁Ray	-7485
▁Ref	-7486
▁Rup	-7487
▁Siv	-7488
▁Ujj	-7489
▁Vad	-7490
▁ath	-7491
▁awa	-7492
▁ble	-7493
▁cat	-7494
▁der	-7495
▁dri	-7496
▁fix	-7497
▁gut	-7498
▁hyd	-7499
▁mid	-7500
▁sli	-7501
▁ult	-7502
▁uns	-7503
▁ven	-7504
aired	-7505
aland	-7506
arily	-7507
askar	-7508
bally	-7509
ellow	-7510
eries	-7511
esman	-7512
herit	-7513
iable	-7514
icion	-7515
idesp	-7516
iment	-7517
incip	-7518
indra	-7519
itary	-7520
jured	-7521
licop	-7522
meful	-7523
oster	-7524
rible	-7525
rison	-7526
▁Benj	-7527
▁Camp	-7528
▁Cond	-7529
▁Heat	-7530
▁June	-7531
▁Left	-7532
▁Math	-7533
▁Moab	-7534
▁News	-7535
▁Page	-7536
▁Pant	-7537
▁Paul	-7538
▁Prab	-7539
▁Same	-7540
▁Saul	-7541
▁Tend	-7542
▁Whos	-7543
▁airl	-7544
▁band	-7545
▁chol	-7546
▁earn	-7547
▁ecos	-7548
▁elev	-7549
▁exem	-7550
▁fool	-7551
▁lamp	-7552
▁meal	-7553
▁park	-7554
▁pled	-7555
▁prec	-7556
▁pump	-7557
▁push	-7558
▁rice	-7559
▁sake	-7560
▁sear	-7561
▁snow	-7562
▁soil	-7563
▁stip	-7564
▁teas	-7565
▁wait	-7566
achers	-7567
anship	-7568
arshan	-7569
cation	-7570
econom	-7571
erving	-7572
handan	-7573
heries	-7574
iction	-7575
igrahi	-7576
lected	-7577
oining	-7578
olence	-7579
racted	-7580
restig	-7581
rition	-7582
▁Anura	-7583
▁Asian	-7584
▁Avoid	-7585
▁Bijay	-7586
▁Bipin	-7587
▁Buddh	-7588
▁Chall	-7589
▁Forum	-7590
▁Ganes	-7591
▁Green	-7592
▁Immed	-7593
▁Large	-7594
▁Madan	-7595
▁Major	-7596
▁Nagar	-7597
▁Pilot	-7598
▁Risha	-7599
▁Roads	-7600
▁Sahoo	-7601
▁Sethi	-7602
▁Varun	-7603
▁badly	-7604
▁booth	-7605
▁borne	-7606
▁brand	-7607
▁cargo	-7608
▁decre	-7609
▁doors	-7610
▁dried	-7611
▁eaten	-7612
▁eight	-7613
▁envis	-7614
▁equip	-7615
▁flour	-7616
▁frequ	-7617
▁glass	-7618
▁grave	-7619
▁iniqu	-7620
▁input	-7621
▁micro	-7622
▁proof	-7623
▁prove	-7624
▁quant	-7625
▁sites	-7626
▁store	-7627
▁surre	-7628
▁touch	-7629
▁yield	-7630
amental	-7631
arantee	-7632
istines	-7633
ogether	-7634
▁Advani	-7635
▁Bikram	-7636
▁Gorakh	-7637
▁Mahesh	-7638
▁Maurit	-7639
▁Muzaff	-7640
▁Pathan	-7641
▁Pranab	-7642
▁Rakesh	-7643
▁Rights	-7644
▁Taking	-7645
▁Todays	-7646
▁Tribal	-7647
▁accord	-7648
▁amidst	-7649
▁asking	-7650
▁assail	-7651
▁bagged	-7652
▁beefed	-7653
▁beyond	-7654
▁bigger	-7655
▁blamed	-7656
▁buying	-7657
▁cattle	-7658
▁combat	-7659
▁config	-7660
▁crimes	-7661
▁crying	-7662
▁exceed	-7663
▁extend	-7664
▁floods	-7665
▁forced	-7666
▁height	-7667
▁hosted	-7668
▁integr	-7669
▁mantra	-7670
▁outfit	-7671
▁pepper	-7672
▁picked	-7673
▁poster	-7674
▁probed	-7675
▁receip	-7676
▁reserv	-7677
▁scored	-7678
▁shares	-7679
▁showed	-7680
▁stayed	-7681
▁stores	-7682
▁survey	-7683
▁tabern	-7684
▁tables	-7685
▁talked	-7686
▁upload	-7687
▁valley	-7688
▁volunt	-7689
▁voting	-7690
▁washed	-7691
▁wisdom	-7692
▁womens	-7693
Congress	-7694
fficient	-7695
inikanth	-7696
izations	-7697
regation	-7698
▁Academy	-7699
▁Account	-7700
▁Bahadur	-7701
▁Eastern	-7702
▁Empower	-7703
▁Germany	-7704
▁Goddess	-7705
▁History	-7706
▁Muslims	-7707
▁Network	-7708
▁Shivraj	-7709
▁Student	-7710
▁Support	-7711
▁abscond	-7712
▁accompl	-7713
▁banking	-7714
▁battery	-7715
▁besides	-7716
▁calling	-7717
▁cameras	-7718
▁checked	-7719
▁classes	-7720
▁complex	-7721
▁courage	-7722
▁drivers	-7723
▁equally	-7724
▁faculty	-7725
▁focused	-7726
▁helicop	-7727
▁herself	-7728
▁holding	-7729
▁located	-7730
▁perfect	-7731
▁prophet	-7732
▁reforms	-7733
▁savings	-7734
▁seventh	-7735
▁stepped	-7736
▁storage	-7737
▁toilets	-7738
▁trading	-7739
▁underst	-7740
▁wearing	-7741
idespread	-7742
ilitation	-7743
▁Managing	-7744
▁Mehbooba	-7745
▁Planning	-7746
▁Tripathy	-7747
▁WhatsApp	-7748
▁activity	-7749
▁advocate	-7750
▁attempts	-7751
▁backward	-7752
▁baseless	-7753
▁coverage	-7754
▁crossing	-7755
▁disputes	-7756
▁division	-7757
▁fertiliz	-7758
▁immunity	-7759
▁material	-7760
▁militant	-7761
▁purchase	-7762
▁recalled	-7763
▁scholars	-7764
▁shameful	-7765
▁Community	-7766
▁Congratul	-7767
▁Kartarpur	-7768
▁Panigrahi	-7769
▁Professor	-7770
▁breathing	-7771
▁centuries	-7772
▁colourful	-7773
▁contested	-7774
▁criticism	-7775
▁delighted	-7776
▁dependent	-7777
▁ecosystem	-7778
▁efficient	-7779
▁electoral	-7780
▁encourage	-7781
▁evacuated	-7782
▁excellent	-7783
▁festivals	-7784
▁generated	-7785
▁greetings	-7786
▁objection	-7787
▁postponed	-7788
▁regularly	-7789
▁satellite	-7790
▁specified	-7791
▁spreading	-7792
▁violators	-7793
▁Excellency	-7794
▁casualties	-7795
▁conspiracy	-7796
▁contribute	-7797
▁cricketers	-7798
▁difference	-7799
▁difficulty	-7800
▁excellence	-7801
▁individual	-7802
▁journalist	-7803
▁pronounced	-7804
▁protestors	-7805
▁retirement	-7806
▁violations	-7807
▁vulnerable	-7808
▁worshipped	-7809
▁Chandrayaan	-7810
▁Philistines	-7811
▁Rajinikanth	-7812
▁campaigning	-7813
▁destruction	-7814
▁maintaining	-7815
▁operational	-7816
▁Organisation	-7817
▁coordination	-7818
▁distribution	-7819
▁implementing	-7820
▁satisfaction	-7821
▁strengthened	-7822
▁communication	-7823
▁righteousness	-7824
4.	-7825
HA	-7826
hs	-7827
oz	-7828
va	-7829
MoU	-7830
ais	-7831
bel	-7832
egu	-7833
etu	-7834
hee	-7835
how	-7836
iar	-7837
ili	-7838
kha	-7839
obo	-7840
oes	-7841
oul	-7842
phy	-7843
ria	-7844
son	-7845
tal	-7846
ugh	-7847
yap	-7848
▁5-	-7849
▁56	-7850
▁CB	-7851
▁KB	-7852
▁NH	-7853
▁ST	-7854
▁Ty	-7855
▁Ye	-7856
▁aw	-7857
▁ho	-7858
?"""	-7859
achi	-7860
anga	-7861
aria	-7862
aved	-7863
epur	-7864
foot	-7865
gery	-7866
hana	-7867
hane	-7868
iasm	-7869
lick	-7870
lock	-7871
long	-7872
rete	-7873
rupt	-7874
term	-7875
unar	-7876
uses	-7877
▁120	-7878
▁Aru	-7879
▁Bet	-7880
▁CAA	-7881
▁Cho	-7882
▁DRD	-7883
▁Dar	-7884
▁Dub	-7885
▁EVM	-7886
▁GOD	-7887
▁Gul	-7888
▁Ham	-7889
▁Hiz	-7890
▁ICU	-7891
▁Inf	-7892
▁Inn	-7893
▁Jha	-7894
▁Ken	-7895
▁Lie	-7896
▁Log	-7897
▁Max	-7898
▁Mic	-7899
▁Mil	-7900
▁Mul	-7901
▁Pak	-7902
▁Pay	-7903
▁Sai	-7904
▁Say	-7905
▁Som	-7906
▁Tej	-7907
▁amb	-7908
▁ark	-7909
▁bin	-7910
▁bot	-7911
▁cub	-7912
▁eth	-7913
▁fly	-7914
▁hat	-7915
▁hes	-7916
▁hub	-7917
▁pad	-7918
▁tag	-7919
Amend	-7920
anand	-7921
apers	-7922
ategy	-7923
ength	-7924
erals	-7925
▁	-7926
e	-7927
a	-7928
t	-7929
i	-7930
n	-7931
o	-7932
s	-7933
r	-7934
h	-7935
d	-7936
l	-7937
c	-7938
u	-7939
m	-7940
p	-7941
f	-7942
.	-7943
g	-7944
w	-7945
y	-7946
b	-7947
v	-7948
,	-7949
T	-7950
k	-7951
S	-7952
I	-7953
P	-7954
A	-7955
M	-7956
B	-7957
C	-7958
H	-7959
D	-7960
j	-7961
R	-7962
N	-7963
J	-7964
G	-7965
K	-7966
-	-7967
W	-7968
"	-7969
x	-7970
O	-7971
F	-7972
L	-7973
E	-7974
'	-7975
0	-7976
1	-7977
:	-7978
U	-7979
q	-7980
z	-7981
2	-7982
V	-7983
?	-7984
Y	-7985
)	-7986
(	-7987
5	-7988
3	-7989
9	-7990
4	-7991
8	-7992
7	-7993
6	-7994
%	-7995
