<pad>	0
<unk>	0
<s>	0
</s>	0
▁କ	-0
▁ସ	-1
▁ପ	-2
ାର	-3
୍ର	-4
୍ତ	-5
▁ବ	-6
ରେ	-7
୍ୟ	-8
▁ମ	-9
▁ଏ	-10
୍କ	-11
ାନ	-12
ରି	-13
ଙ୍କ	-14
ହି	-15
▁ନ	-16
ଥି	-17
▁।	-18
ନ୍ତ	-19
▁ଅ	-20
▁ଆ	-21
ାଇ	-22
▁ଦ	-23
ବା	-24
▁ହ	-25
ର୍	-26
ଛି	-27
▁କରି	-28
କୁ	-29
▁ତ	-30
▁ର	-31
▁ପ୍ର	-32
▁ବି	-33
ଲା	-34
▁ଜ	-35
▁ଭ	-36
ିକ	-37
ଲେ	-38
ନ୍	-39
▁ଯ	-40
▁ଗ	-41
ମ୍	-42
▁ସେ	-43
ହା	-44
▁ଉ	-45
ମାନ	-46
ଲି	-47
ନ୍ତି	-48
ବେ	-49
ିତ	-50
ସ୍	-51
୍ଷ	-52
▁କର	-53
ଛନ୍ତି	-54
ଟି	-55
▁ଶ	-56
ନା	-57
ତି	-58
ଷ୍	-59
▁ନି	-60
ୋଇ	-61
▁ଓ	-62
▁ଚ	-63
ଙ୍କୁ	-64
▁ଦେ	-65
▁ହୋଇ	-66
▁ହେ	-67
ଥିଲେ	-68
▁ଏହି	-69
ାରେ	-70
ଧ୍ୟ	-71
୍ରୀ	-72
୍ୱ	-73
କ୍ଷ	-74
ରୁ	-75
ଡ଼	-76
▁ତା	-77
▁ପାଇ	-78
▁ରା	-79
ସି	-80
ାମ	-81
▁ଘ	-82
ଥିଲା	-83
ଣା	-84
ଣ୍	-85
ସ୍ତ	-86
୍ୟା	-87
ନ୍ଦ	-88
▁ସମ	-89
▁ଲ	-90
ାଯ	-91
▁ମଧ୍ୟ	-92
▁କି	-93
ାତ	-94
▁ଏହା	-95
ଥିବା	-96
ୋଗ	-97
▁ପାଇଁ	-98
ବଂ	-99
ଡି	-100
▁ମୁ	-101
▁ଏବଂ	-102
ଲ୍	-103
ଦ୍	-104
ାର୍	-105
ିବ	-106
ହିଁ	-107
ଥା	-108
▁ଖ	-109
କ୍ତ	-110
▁କରାଯ	-111
ତା	-112
▁ଫ	-113
▁ଅନ	-114
କାର	-115
ଷ୍ଟ	-116
୍ଚ	-117
ଭି	-118
ୋଲି	-119
▁ନେ	-120
▁ରହି	-121
▁ନା	-122
▁ପୁ	-123
ଳି	-124
ୋକ	-125
▁ସ୍	-126
ନ୍ତ୍ରୀ	-127
▁କେ	-128
▁ଭାର	-129
ରା	-130
▁ଉପ	-131
▁ଏକ	-132
ାରି	-133
▁ଭାରତ	-134
ନ୍ତୁ	-135
▁ସୁ	-136
ାବ	-137
ଯ୍ୟ	-138
ମ୍ଭ	-139
▁ପରି	-140
ୀୟ	-141
ୃତ	-142
ମାନେ	-143
ାଇଛି	-144
▁ରାଜ	-145
▁ମି	-146
▁କରିବା	-147
▁ପା	-148
▁ଦି	-149
▁କହି	-150
▁ଟ	-151
▁ସଂ	-152
ପି	-153
▁ସହ	-154
▁ବା	-155
▁ଘଟ	-156
ଦେ	-157
ମନ୍ତ୍ରୀ	-158
ଦ୍ଧ	-159
ଙ୍	-160
ବାର	-161
▁ଲୋକ	-162
କା	-163
ଣି	-164
▁ଯେ	-165
ସ୍ଥ	-166
▁ଦୁ	-167
ନି	-168
ଧାନ	-169
ଙ୍ଗ	-170
୍ତି	-171
ମା	-172
୍ରେ	-173
ବର	-174
ମାନଙ୍କ	-175
ଦି	-176
▁ଅଭି	-177
▁ପରେ	-178
ରକାର	-179
▁ଇ	-180
ମେ	-181
ହାର	-182
▁ବ୍ୟ	-183
ଞ୍ଚ	-184
ଡ଼ି	-185
ହୁ	-186
ଳରେ	-187
▁ଜଣ	-188
▁କାର୍	-189
ବି	-190
▁ଅଧ	-191
▁ନାହିଁ	-192
▁ସମ୍	-193
ଖି	-194
▁ମୋ	-195
ଣ୍ଡ	-196
ୂର୍	-197
▁ନେଇ	-198
ଜେ	-199
▁ଲା	-200
▁ସରକାର	-201
▁ତାଙ୍କ	-202
ାୟ	-203
ାସ	-204
▁ତେ	-205
▁ଦେଇ	-206
ନ୍ଦ୍ର	-207
ାଗ	-208
ଯୋଗ	-209
▁ଚା	-210
ୁର	-211
ତ୍	-212
▁ସା	-213
▁କାର୍ଯ୍ୟ	-214
▁କରୁ	-215
ଜି	-216
▁ନିର୍	-217
▁ଧ	-218
▁କରିଛନ୍ତି	-219
ନେ	-220
▁ରେ	-221
▁ଗୁ	-222
▁ପ୍ରତି	-223
▁ଯା	-224
▁ଘଟଣା	-225
କ୍ର	-226
ଥାନ	-227
▁ମୃତ	-228
▁ଡ	-229
▁ସି	-230
ବାକୁ	-231
ଳା	-232
କି	-233
▁କରିଥିଲେ	-234
▁ରହିଛି	-235
ାଲ	-236
ଖ୍ୟ	-237
▁ପୋଲି	-238
କ୍	-239
▁ଏଥି	-240
ଳେ	-241
▁ବୋଲି	-242
ଉଛି	-243
▁ସ୍ୱ	-244
▁ଅଧିକ	-245
ପ୍ର	-246
ବୁ	-247
▁ପ୍ରଧାନ	-248
ଷ୍ଠ	-249
▁ରାଜ୍ୟ	-250
▁ଛ	-251
▁ପୁଲି	-252
ମି	-253
ଟ୍	-254
▁ଅନୁ	-255
▁ବିଶ	-256
ାତ୍ର	-257
ତ୍ର	-258
▁କୋ	-259
▁ବେ	-260
▁ଲାଗ	-261
ଦେଶ	-262
ିଲ୍	-263
▁ଦେଶ	-264
▁ବିଜେ	-265
▁ଭା	-266
▁ମୁଖ୍ୟ	-267
▁ପୋଲିସ	-268
ସା	-269
ହିତ	-270
▁ଅବ	-271
ଚନା	-272
ନ୍ନ	-273
ପା	-274
▁କିନ୍ତୁ	-275
ମାନଙ୍କୁ	-276
ପର	-277
▁ଯୋଗ	-278
ାରଣ	-279
▁କରାଯାଇଛି	-280
..	-281
ାରୁ	-282
▁ପ୍ରଧାନମନ୍ତ୍ରୀ	-283
▁ଆର	-284
▁କୌ	-285
ୀର	-286
୍ୟୁ	-287
ଣସି	-288
▁ପର	-289
▁ହେବ	-290
କ୍ତି	-291
ୋଧ	-292
▁କରିଛି	-293
▁ଆପ	-294
ାରୀ	-295
▁ତେବେ	-296
୍ତ୍ତ	-297
▁କୌଣସି	-298
▁ହୋଇଛି	-299
▁ବ୍ୟବ	-300
ର୍ଷ	-301
ାରା	-302
ନୀ	-303
▁କ୍ଷ	-304
▁ସମସ୍ତ	-305
େକ	-306
▁ମା	-307
କାଶ	-308
ରଣ	-309
▁ଗୋ	-310
ାନ୍	-311
ୋଜ	-312
ୟରେ	-313
▁ଲାଗି	-314
ୀନ	-315
▁ପୂର୍	-316
କ୍ଷା	-317
▁କହିଛନ୍ତି	-318
ହେ	-319
ତ୍ତ	-320
▁ପୁଲିସ	-321
▁ତଦ	-322
▁ସ୍ଥାନ	-323
ାଇଥିଲା	-324
ପରି	-325
▁କିଛି	-326
▁ନିଜ	-327
ବାଦ	-328
ର୍ଟ	-329
▁ମୁଁ	-330
ମୁ	-331
▁ତୁ	-332
ଗୁ	-333
▁କୁ	-334
▁ତଦନ୍ତ	-335
▁ଉପରେ	-336
ପତି	-337
▁ଦୁଇ	-338
▁ମିଳି	-339
▁ମଧ୍ୟରେ	-340
▁ଆସି	-341
▁କା	-342
ିର	-343
ଶ୍	-344
ୁବ	-345
ଷ୍ଟ୍ର	-346
▁ସୂ	-347
▁ହେଲେ	-348
""	-349
କ୍ରମ	-350
▁ବିଜେପି	-351
▁ପହ	-352
▁ଭାବେ	-353
▁ଆରମ୍ଭ	-354
▁ପୂର୍ବ	-355
ସର	-356
▁ଆପଣ	-357
▁ଆମେ	-358
ଆଯ	-359
ଥାଏ	-360
ତେ	-361
ାନ୍ତ	-362
▁ତାଙ୍କୁ	-363
ର୍ମ	-364
ଣ୍ଣ	-365
▁ସହିତ	-366
ଂଗ	-367
ୀବ	-368
▁ଆମ	-369
▁ନୂ	-370
▁ଅନ୍ୟ	-371
ଢ଼	-372
▁ଗ୍ର	-373
ଷ୍ଟି	-374
ସ୍ଥା	-375
ଦା	-376
▁ସବୁ	-377
▁ଜା	-378
ଂଗ୍ରେ	-379
ହତ	-380
ଜ୍	-381
ନ୍ତ୍ର	-382
ୋଷ	-383
ପରେ	-384
ଟେ	-385
ଙ୍କର	-386
ନ୍ଧ	-387
▁କଂଗ୍ରେ	-388
▁ରଖି	-389
ଉଁ	-390
ଞ୍	-391
ଲ୍ଲ	-392
▁ବର୍ଷ	-393
ର୍ଥ	-394
▁(	-395
▁ପି	-396
▁ସୂଚନା	-397
ନରେ	-398
ମିତ	-399
ପୁର	-400
ଯୁ	-401
▁ଯାହା	-402
▁ମାମ	-403
▁ଏହାକୁ	-404
▁ଥିଲେ	-405
ଟର	-406
ଚ୍ଚ	-407
ଶା	-408
ଦାନ	-409
ପର୍କ	-410
ଞ୍ଚି	-411
▁ଡା	-412
▁ବହୁ	-413
▁କେନ୍ଦ୍ର	-414
ଠାରେ	-415
ସ୍ଥି	-416
▁ଗୁରୁ	-417
ୀଙ୍କ	-418
ନାହିଁ	-419
▁ଜଣେ	-420
ିକା	-421
▁ଆଉ	-422
ଚ୍	-423
ଗ୍ର	-424
▁ବିର	-425
▁ହୋଇଥିଲା	-426
▁ଦଳ	-427
ର୍ଶ	-428
▁ଥିବା	-429
▁ଶୁ	-430
ର୍ଯ୍ୟ	-431
▁ଜଣା	-432
▁ତାହା	-433
▁ବିଶ୍ୱ	-434
▁ସାମ	-435
▁କରିବାକୁ	-436
▁ଦ୍ୱ	-437
୍ଯ	-438
ପାରି	-439
ଠାରୁ	-440
▁ମାନ	-441
ପାଇ	-442
▁ପରିବାର	-443
▁କଂଗ୍ରେସ	-444
▁ମୁଖ୍ୟମନ୍ତ୍ରୀ	-445
▁ମୃତ୍ୟୁ	-446
▁ମେ	-447
ତନ	-448
▁ତୁମ୍ଭ	-449
▁ବିରୋଧ	-450
ିତ୍	-451
▁ପହଞ୍ଚି	-452
▁ଅଭିଯୋଗ	-453
▁ପ୍ରଥ	-454
ଭା	-455
ଞ୍ଜ	-456
▁ଏହାର	-457
ପୂର୍	-458
▁ଏଥିରେ	-459
▁ଭି	-460
▁ବୈ	-461
ାନ୍ତି	-462
ଭାଗ	-463
▁କାରଣ	-464
▁ଭାରତୀୟ	-465
▁ପକ୍ଷ	-466
▁ବ୍ୟା	-467
ୋର୍ଟ	-468
▁ଦିନ	-469
▁ଉତ୍ତ	-470
▁ଘଟଣାସ୍ଥ	-471
▁ତାଙ୍କର	-472
ଲ୍ଲୀ	-473
▁ଆଜି	-474
▁ହେଉଛି	-475
▁ନୂଆ	-476
ଳୟ	-477
ପାଇଁ	-478
▁ଏବେ	-479
ଭଳି	-480
ବଳ	-481
▁ରି	-482
▁ଅନେକ	-483
▁ଜିଲ୍	-484
ୃଦ୍ଧ	-485
▁ଘଟି	-486
▁ଗୁରୁତ	-487
▁ୟ	-488
ଟିଏ	-489
ଶ୍ୟ	-490
▁ହେଉ	-491
▁ସେମାନଙ୍କ	-492
ଫଳ	-493
▁ସେହି	-494
ୃଷ୍ଟି	-495
ଙ୍କା	-496
େତ୍ର	-497
▁ଆସ	-498
▁ବେଳେ	-499
ଦୀ	-500
▁ଦିଆଯ	-501
େଷ	-502
▁ମହି	-503
ରୀ	-504
▁ରାଷ୍ଟ୍ର	-505
ତିକ	-506
ଦ୍ୟ	-507
▁ସ୍ୱା	-508
▁ସମୟରେ	-509
▁ଜାରି	-510
▁ଚି	-511
▁କରିବେ	-512
▁ଗା	-513
ଭିନ୍ନ	-514
ଲୋ	-515
▁କଲେ	-516
ଭୟ	-517
ିୟ	-518
▁ଦେଖି	-519
▁ଫିଲ୍	-520
▁ଜୀବ	-521
ଳ୍	-522
▁ଭର	-523
ୟକ	-524
▁ଘଟଣ	-525
▁ଯେଉଁ	-526
ସ୍ତାନ	-527
▁ବିଭିନ୍ନ	-528
ାଉ	-529
...	-530
▁ପଦ	-531
▁କଥା	-532
ହଣ	-533
▁ମହିଳା	-534
ଳନ	-535
▁2	-536
▁ଫିଲ୍ମ	-537
ଆଇ	-538
ପୂର୍ଣ୍ଣ	-539
କ୍ତର	-540
▁ଉଭୟ	-541
ଣୁ	-542
▁ଆଇ	-543
▁ଗିର	-544
▁ଘଟଣାସ୍ଥଳରେ	-545
▁ଶ୍ରୀ	-546
▁ଗିରଫ	-547
ୃଦ୍ଧି	-548
ଚ୍ଛ	-549
ଡିଆ	-550
▁କ୍ଷେତ୍ର	-551
ଭାବ	-552
ତ୍ୟ	-553
ସ୍କ	-554
▁ମିଳ	-555
ଡ଼ା	-556
ିବା	-557
▁ଖବର	-558
ଟା	-559
୍ତ୍ତି	-560
▁ଦୁର୍	-561
ନର	-562
ାବି	-563
▁କରିବ	-564
▁କରୁଛି	-565
▁ପକ୍ଷରୁ	-566
ଜୁ	-567
▁ଶି	-568
ଠି	-569
▁ରୁ	-570
ିକ୍ଷ	-571
▁ସିଂ	-572
ୀତ	-573
ାତ୍ରୀ	-574
▁ମନ୍ତ୍ରୀ	-575
ବାସ	-576
▁ଡାକ୍ତର	-577
ଯୁକ୍ତ	-578
▁ହେବା	-579
ଟରେ	-580
ପାର	-581
▁ଗୋଟିଏ	-582
ଚାର	-583
ମ୍ବ	-584
▁ବୁ	-585
▁ଫଳରେ	-586
ଟକ	-587
▁କାମ	-588
ମ୍ପ	-589
▁ଚିକ	-590
▁ମୋଦି	-591
କିସ୍ତାନ	-592
▁ଥିଲା	-593
▁ଲକ୍ଷ	-594
ାଉଛି	-595
ଶୁ	-596
ଳ୍ପ	-597
ବେଳେ	-598
ବାଚ	-599
ମାଣ	-600
▁ନୁ	-601
▁ବର	-602
▁ପ୍ରଥମ	-603
ତ୍ୟା	-604
▁ବିଭାଗ	-605
▁ଆବ	-606
ଦ୍ଦେଶ	-607
▁ଦେଇଛନ୍ତି	-608
ଡ଼ିକ	-609
▁ଜଣାପ	-610
▁କରାଯିବ	-611
ହେଁ	-612
▁ପ୍ରସ୍ତ	-613
ଧି	-614
ଟାଲ	-615
▁ଆହତ	-616
▁ଦେଖ	-617
▁କର୍ମ	-618
▁କରାଯାଇ	-619
▁ପ୍ରଶ	-620
▁ଚିକିତ୍	-621
▁ହୋଇଥିବା	-622
▁ପାକିସ୍ତାନ	-623
▁ନିକ	-624
ରକ୍ଷା	-625
ବତ	-626
▁କାର୍ଯ୍ୟକ୍ରମ	-627
ନେଇ	-628
▁ଆଗ	-629
ଶ୍ୟକ	-630
ରେନ୍ଦ୍ର	-631
ାପ	-632
▁ଭଲ	-633
▁ଉତ୍	-634
▁କରନ୍ତୁ	-635
▁ସମ୍ପର୍କ	-636
▁ଝ	-637
▁ନିର୍ବାଚ	-638
▁ସୋ	-639
▁କରାଯାଇଥିଲା	-640
▁ତଥା	-641
▁ଅର୍ଥ	-642
▁ମାମଲା	-643
ମୁଖ	-644
▁?	-645
▁୧	-646
ଣୀ	-647
▁ଚାଲି	-648
▁ନେତା	-649
▁ଗ୍ରହଣ	-650
▁ମାତ୍ର	-651
▁ଆୟ	-652
▁ସେମାନେ	-653
ଶ୍ଚ	-654
ସ୍ଥ୍ୟ	-655
ାର୍ଥ	-656
ଦ୍ଧାର	-657
ଦନ	-658
▁‘	-659
ସ୍ଥିତ	-660
ଗତ	-661
▁ଟି	-662
▁ଭାରତର	-663
▁ଆବଶ୍ୟକ	-664
▁ଦେଇଥିଲେ	-665
▁ନରେନ୍ଦ୍ର	-666
▁କହିଥିଲେ	-667
▁ହୋଇଯ	-668
▁ଥ	-669
▁ସର୍	-670
ପ୍	-671
ୁତ	-672
▁ଘର	-673
▁ବୃଦ୍ଧି	-674
ବେଶ	-675
▁ଭାଇ	-676
▁ଅଧିକାରୀ	-677
ମାର	-678
▁ସ୍ଥି	-679
▁ଡି	-680
▁1	-681
▁ଯୁବ	-682
▁ପ୍ରକାଶ	-683
▁ଯୋଜ	-684
ଦ୍ର	-685
▁ତି	-686
କ୍ସ୍	-687
▁ଅଧ୍ୟ	-688
▁ଭର୍ତ୍ତି	-689
▁ଜିଲ୍ଲା	-690
▁ନିୟ	-691
ସେ	-692
▁କରିଥିଲା	-693
ଡିକ	-694
▁ଭୂ	-695
କେ	-696
ଶ୍ୱ	-697
ବର୍ତ୍ତ	-698
▁ସମୟ	-699
ର୍ଯ୍ୟନ୍ତ	-700
▁ଚଳ	-701
କାରୀ	-702
▁ଏଭଳି	-703
େପ	-704
ଣ୍ଟ	-705
ହାନ୍ତି	-706
ମିକ	-707
▁ବିଷ	-708
ୂର	-709
ାଇଥିଲେ	-710
ାଜ	-711
କ୍ସ୍ଟ	-712
▁ଚିକିତ୍ସା	-713
ଜ୍ଞ	-714
ଷ୍ଠାନ	-715
▁ଦେଶର	-716
ାନୁ	-717
ୁଛି	-718
▁ଅସ	-719
▁ଜନ	-720
▁ହି	-721
▁ଅପ	-722
ୋର	-723
ସ୍ୟ	-724
▁ଶିକ୍ଷ	-725
▁ଦ୍ୱାରା	-726
▁ପ୍ରଦାନ	-727
▁ଘୋଷ	-728
▁ଭିତ	-729
▁ବନ୍ଦ	-730
ଶୀ	-731
ପିଟାଲ	-732
▁ଏଥିପାଇଁ	-733
ଘଟ	-734
▁ହାଇ	-735
▁ଛାତ୍ର	-736
▁ପୂର୍ବରୁ	-737
ଠକ	-738
ତ୍ତି	-739
▁କ୍ର	-740
▁ହୋଇଛନ୍ତି	-741
ାଇଛନ୍ତି	-742
▁ଉଦ୍ଧାର	-743
ଗ୍	-744
▁ପଠ	-745
ାଇବା	-746
▁ଏନେଇ	-747
▁ନୁହେଁ	-748
▁ସୃଷ୍ଟି	-749
▁ସଚ	-750
▁ଲୋକେ	-751
▁ଉତ୍ତର	-752
ବାରୁ	-753
▁ଟଙ୍କା	-754
ମକ	-755
ମାନେେ	-756
ଡ୍	-757
ଭୁ	-758
▁ଅଞ୍ଚ	-759
▁ଏପରି	-760
କର	-761
▁ଟ୍ର	-762
▁ମହା	-763
ଶ୍ର	-764
ହ୍	-765
ମିତି	-766
▁ଅବସର	-767
▁ଅଭିଯୁକ୍ତ	-768
▁ଫେ	-769
▁ବୈଠକ	-770
▁କୋଟି	-771
ଛୁ	-772
ୁଲ	-773
▁ସଫଳ	-774
▁ହିଁ	-775
▁ପ୍ରସ	-776
ନାୟକ	-777
▁ସହା	-778
▁କ୍ଷେତ୍ରରେ	-779
ିକେ	-780
▁ବିକାଶ	-781
ିତା	-782
▁ଜେ	-783
▁ସ୍ଥାନୀୟ	-784
▁ନବ	-785
▁ପାର	-786
▁ବ୍ୟକ୍ତି	-787
▁ସ୍ୱାସ୍ଥ୍ୟ	-788
▁ଘୋଷଣା	-789
▁ସେଠାରେ	-790
▁ରାଷ୍ଟ୍ରପତି	-791
▁କୃ	-792
▁ଘଟଣାର	-793
▁ବ୍ୟବସ୍ଥା	-794
ଧାର	-795
▁ଉପସ୍ଥିତ	-796
ପତ୍ତି	-797
▁ଦିଲ୍ଲୀ	-798
ିକ୍	-799
▁""	-800
▁ନିର୍ଦ୍ଦେଶ	-801
ଶି	-802
▁.	-803
▁20	-804
▁ସିଂହ	-805
ତିରେ	-806
କ୍ଷେପ	-807
▁ଜୀବନ	-808
▁ଏହାପରେ	-809
ଚା	-810
▁ଗୁରୁତର	-811
ାସନ	-812
▁ଗାନ୍	-813
ଗୁଡ଼ିକ	-814
▁ଅଛନ୍ତି	-815
▁ଜି	-816
ଜାର	-817
▁ପାଣି	-818
▁ସୁରକ୍ଷା	-819
▁କରୁଛନ୍ତି	-820
ାଏ	-821
୍ଵ	-822
ଖାନ	-823
▁ପ୍ରକ	-824
▁ବହୁତ	-825
▁କହିଲେ	-826
▁ଖେ	-827
ବ୍	-828
▁ଲେ	-829
ତଙ୍କ	-830
▁ଜବତ	-831
ଡା	-832
▁ତେଣୁ	-833
▁ଆଲୋ	-834
▁ନିଜର	-835
▁ସରକାରଙ୍କ	-836
▁କମି	-837
▁ନିଷ୍	-838
▁ବିରୋଧରେ	-839
ଂଶ	-840
ଧିକ	-841
▁ହସ୍	-842
▁କରାଯାଉଛି	-843
▁ଅଛି	-844
▁ପ୍ରା	-845
▁ନାମ	-846
▁ହେଲା	-847
▁ପାଖ	-848
ୀଙ୍କୁ	-849
ଧାରଣ	-850
▁ଦୁର୍ଘଟ	-851
▁ଯୋଜନା	-852
▁:	-853
▁ଆର୍	-854
ୟନ	-855
▁ସେମାନଙ୍କୁ	-856
ସିଆ	-857
▁ଥାନ	-858
▁ଜାଣି	-859
▁ନିର୍ବାଚନ	-860
ଧା	-861
ଦର୍ଶ	-862
▁ଆତଙ୍କ	-863
ସନ	-864
▁ରହିବ	-865
ିଲ	-866
ଂଚ	-867
ଜନ	-868
▁ଅବସରରେ	-869
▁ହସ୍ପିଟାଲ	-870
ଜା	-871
▁ହତ୍ୟା	-872
କ୍ରମଣ	-873
▁ପଡ଼ି	-874
ରରେ	-875
▁ସ୍କ	-876
▁ଚେ	-877
▁ରାସ୍ତ	-878
▁ଶକ୍ତି	-879
ିତ୍ର	-880
▁ଯୋଗୁ	-881
ଜୟ	-882
▁ଠ	-883
▁ଖା	-884
▁କେବଳ	-885
▁ପୁଣି	-886
▁“	-887
ଲୁ	-888
ଦେଇ	-889
▁ବଡ଼	-890
▁ସେଥି	-891
ଟ୍ଟ	-892
▁ଅଫ	-893
▁ପୂ	-894
▁ଓଡ଼ି	-895
▁ମହ	-896
▁ମିଳିଛି	-897
କଙ୍କ	-898
ଖ୍ୟା	-899
▁କରିଥିବା	-900
ଏସ	-901
ମରେ	-902
▁ମନ	-903
▁ଅତି	-904
ମୀର	-905
▁ଭାବ	-906
▁ବର୍ତ୍ତ	-907
ଡିଓ	-908
▁ଦାବି	-909
▁ଅଧ୍ୟକ୍ଷ	-910
▁ଜଳ	-911
▁ନିଷ୍ପତ୍ତି	-912
▁ପଡି	-913
▁ପ୍ରଭାବ	-914
▁ପର୍ଯ୍ୟନ୍ତ	-915
▁ବର୍ତ୍ତମାନ	-916
▁ଇଣ୍	-917
ଯ୍ୟା	-918
▁ଆଲୋଚନା	-919
▁"	-920
ବାହ	-921
ଦ୍ଧା	-922
▁ବର୍ଷା	-923
େଦ	-924
▁ସହଯୋଗ	-925
▁ପୂର୍ବତନ	-926
ଳୀ	-927
▁ସମ୍ଭ	-928
▁କୃଷ	-929
ାନୁଷ୍ଠାନ	-930
▁ପୁଲିସ୍	-931
ଟୋ	-932
ୃହ	-933
ାମୀ	-934
ୋଲ	-935
▁ଯଦି	-936
ାତୀୟ	-937
▁କାର	-938
▁ଚାଷ	-939
▁ସ୍ଥାନରେ	-940
ୂଳ	-941
▁ସ୍ତ	-942
▁ପଦକ୍ଷେପ	-943
ପାରିବ	-944
ୟା	-945
ପୁ	-946
ାୟୀ	-947
ଲାରେ	-948
▁ହୋଇଥିଲେ	-949
▁ଖୁବ	-950
▁ବଢ଼	-951
▁ମିଳିବ	-952
ୂପ	-953
▁ଭିଡିଓ	-954
ଠନ	-955
▁ଶୁଭ	-956
ପୋର୍ଟ	-957
ଂସ	-958
ଆଁ	-959
ୋହ	-960
ପାଳ	-961
ର୍ଗ	-962
ଶ୍ବର	-963
▁ଉଦ୍ୟ	-964
▁ବିଚାର	-965
▁ବିଜେଡି	-966
▁ପର୍	-967
ତୁ	-968
ାକୁ	-969
ପକ୍ଷ	-970
▁ଷ୍ଟ	-971
▁ଡାକ୍ତରଖାନ	-972
▁ରଖ	-973
▁ସ୍ପ	-974
୍ରି	-975
▁ଅନୁସ	-976
▁ଆମେରି	-977
▁ଉଚ	-978
▁ପେ	-979
▁ହୁ	-980
େତ	-981
▁ଗଣ	-982
ପାରେ	-983
▁ନିଆଯ	-984
▁ପ୍ରାର୍ଥ	-985
ିବି	-986
▁ସଦ	-987
▁ପ୍ରମୁଖ	-988
▁ଲୋକଙ୍କ	-989
ୋଟ	-990
ାନି	-991
▁ଆତଙ୍କବାଦ	-992
▁ଲି	-993
▁ମୋଦୀ	-994
ସ୍ଥାରେ	-995
ରିଆ	-996
ାନୀ	-997
▁ଶା	-998
▁ଧରି	-999
▁ଯାଇ	-1000
ର୍ଚ୍ଚ	-1001
▁ଦୃ	-1002
▁ଶେଷ	-1003
ରିଷ୍ଠ	-1004
ଜର	-1005
▁ୱ	-1006
▁ରୁଜୁ	-1007
▁ଅଭିନେ	-1008
▁ଗୁରୁତ୍ୱ	-1009
ଥିକ	-1010
ଦିନ	-1011
ନ୍ତା	-1012
▁ଆହୁ	-1013
▁ନିର୍ମାଣ	-1014
▁ମୁମ୍ବ	-1015
▁ନିକଟରେ	-1016
ବାନ	-1017
ସଭା	-1018
▁ନିମ	-1019
ପ୍ରଭୁ	-1020
▁କୁମାର	-1021
▁ଆକ୍ରମଣ	-1022
▁ଆମର	-1023
▁ଅନ୍ତ	-1024
▁ଦେଖିବାକୁ	-1025
▁ଦେଶରେ	-1026
▁ବିମାନ	-1027
▁ସମ୍ପର୍କରେ	-1028
ପ୍ତ	-1029
▁ଶ୍ର	-1030
ସ୍ଥାନ	-1031
▁ଆହୁରି	-1032
▁ଆର୍ଥିକ	-1033
▁ବନ୍ଧ	-1034
▁ଛାତ୍ରଛ	-1035
େି	-1036
▁କେହି	-1037
▁ସହାୟ	-1038
▁ପ୍ରସଙ୍ଗ	-1039
▁ଏସ	-1040
▁ଅଭିନ	-1041
▁କ୍ୟା	-1042
▁ପଟ୍ଟ	-1043
▁ବରିଷ୍ଠ	-1044
▁ପାରି	-1045
ପାରିବେ	-1046
▁ସାମିଲ	-1047
▁ପୋ	-1048
ସ୍ୟା	-1049
▁ଲାଭ	-1050
▁ସହେି	-1051
▁ଛାତ୍ରଛାତ୍ରୀ	-1052
▁କାର୍ଯ୍ୟାନୁଷ୍ଠାନ	-1053
ଲାର	-1054
▁ଛା	-1055
▁ଟେ	-1056
▁ଘଟିଛି	-1057
ଷ୍କ	-1058
▁ପଟ୍ଟନାୟକ	-1059
ଦେହ	-1060
▁ଦିଆଯାଇଛି	-1061
▁ମୃତଦେହ	-1062
ଚାରୀ	-1063
ଦ୍ୟା	-1064
▁ଦିଗ	-1065
▁ମନ୍ତ୍ର	-1066
▁ସଂପର୍କ	-1067
ବ୍ୟ	-1068
▁ଲଗ	-1069
▁ଆଣି	-1070
▁ଭଳି	-1071
ଦାପ୍ରଭୁ	-1072
▁ମୁମ୍ବାଇ	-1073
▁ସମସ୍ୟା	-1074
▁ବୁଝ	-1075
ଆର	-1076
ଅନ୍ତୁ	-1077
▁ଗାନ୍ଧ	-1078
ମାନଙ୍କର	-1079
ମାନଙ୍କେ	-1080
ଭର	-1081
ସହ	-1082
▁୨	-1083
ଶ୍ୱର	-1084
▁ସଚିବ	-1085
▁ସମାନଙ୍କେ	-1086
▁ପରିବର୍ତ୍ତ	-1087
▁କରୁଥିବା	-1088
▁କର୍ମଚାରୀ	-1089
ୋନା	-1090
ନ୍ତେ	-1091
ଶ୍ମୀର	-1092
ତେବେଳେ	-1093
▁ବିଶେଷ	-1094
▁ଇଣ୍ଡିଆ	-1095
ଭୂ	-1096
▁ଆତ୍	-1097
ଯାଇଛି	-1098
▁ଲାଗିଛି	-1099
ର୍ଣ୍ଣ	-1100
▁ପ୍ରେ	-1101
ିୟା	-1102
ାତା	-1103
▁ନୂଆଦି	-1104
▁ଅଞ୍ଚଳରେ	-1105
▁ପ୍ରସ୍ତୁତ	-1106
▁ଗୃହ	-1107
▁ପରୀ	-1108
▁ମୋର	-1109
▁ଦେବା	-1110
▁ନବୀନ	-1111
▁ରିପୋର୍ଟ	-1112
▁ଲୋକଙ୍କୁ	-1113
▁201	-1114
▁କୋର୍ଟ	-1115
▁ବୈଠକରେ	-1116
▁ଭାରତରେ	-1117
▁ଜଣାପଡ଼ି	-1118
ବାସୀ	-1119
▁ସ୍ଥ	-1120
▁ଦୀ	-1121
▁ଯୁ	-1122
ବେଦନ	-1123
▁ରୋଗ	-1124
୍ରୀୟ	-1125
▁ଦକ୍ଷ	-1126
▁ନୂତନ	-1127
ମେଶ୍ବର	-1128
▁ଜଣାପଡି	-1129
▁ଅବସ୍ଥାରେ	-1130
ବୀ	-1131
ରିକ	-1132
▁ଆଧାର	-1133
▁ସର୍ବ	-1134
▁ଗ୍ରାମ	-1135
▁ଦୁଇଟି	-1136
▁ନିମନ୍ତେ	-1137
ଥିବାରୁ	-1138
▁ଗତ	-1139
▁ଫାଇ	-1140
▁କୁହା	-1141
▁ନିଆଁ	-1142
▁ମ୍ୟା	-1143
▁ପ୍ରକାର	-1144
▁ସାଧାରଣ	-1145
▁ହେଉଛନ୍ତି	-1146
ଫ୍	-1147
▁ମଧ	-1148
▁ୟୁ	-1149
▁ସମ୍ବ	-1150
▁ସମାନେେ	-1151
▁ବ୍ୟବହାର	-1152
ଦାର	-1153
ଦ୍ୱ	-1154
ୟାର	-1155
ମ୍ବା	-1156
ତନ୍ତ୍ର	-1157
▁ନୂଆଦିଲ୍ଲୀ	-1158
ନୀତି	-1159
▁ସଂଖ୍ୟା	-1160
▁ସଦାପ୍ରଭୁ	-1161
ଚଳ	-1162
▁ପ୍ରଶାସନ	-1163
ିମ	-1164
େଲ	-1165
କରଣ	-1166
ପଟେ	-1167
▁ସେବା	-1168
▁ମୂ	-1169
ୈତିକ	-1170
▁ତିନି	-1171
▁ସ୍ଥିତି	-1172
▁ପରମେଶ୍ବର	-1173
ନାଥ	-1174
ରାଜ	-1175
▁ଥର	-1176
ିବାର	-1177
▁ପ୍ରୟ	-1178
▁ସହାୟତା	-1179
▁ସ୍ପଷ୍ଟ	-1180
ୟୁ	-1181
▁ହାତ	-1182
▁ପ୍ରତ୍ୟ	-1183
▁ଅଗ୍	-1184
▁ରେଳ	-1185
▁ତାକୁ	-1186
▁ପରିସ୍ଥି	-1187
ିଅ	-1188
ଜଣ	-1189
ତର	-1190
▁ଅଧି	-1191
▁ରାହୁ	-1192
▁ସୁପ୍ର	-1193
▁ହୋଇଥାଏ	-1194
ଲିଉ	-1195
ଚ୍ଛେଦ	-1196
▁ଆମ୍ଭ	-1197
▁ବ୍ୟବସ	-1198
ଗଣ	-1199
▁ପୁର	-1200
▁ସାରା	-1201
▁ସେହିପରି	-1202
ଷଣ	-1203
ର୍ମା	-1204
▁ଯୋଗୁଁ	-1205
▁କରିବାର	-1206
ଫା	-1207
ଟ୍ର	-1208
▁ଯି	-1209
▁ଜାତୀୟ	-1210
ଧୀନ	-1211
ଲାଇ	-1212
▁ପଚ	-1213
▁ଦୁର୍ଘଟଣା	-1214
ତାର	-1215
▁ଗାଁ	-1216
ଡ଼ିକୁ	-1217
▁କମ୍ପ	-1218
▁ସମେତ	-1219
ରକ୍ଷ	-1220
▁ଉଚ୍ଚ	-1221
▁କେଉଁ	-1222
▁ବନ୍ଧୁ	-1223
▁ବୋ	-1224
ିତୀୟ	-1225
▁ଦୂର	-1226
▁ପିଲା	-1227
▁ରଖିଛି	-1228
▁ଲୋକମାନେ	-1229
ସରେ	-1230
▁ମାସ	-1231
ସ୍କାର	-1232
▁ଦର୍ଶ	-1233
▁ସାମ୍	-1234
ଧ୍ୟମରେ	-1235
ହନ	-1236
▁ଲୁ	-1237
▁ହେବେ	-1238
▁ଆପଣଙ୍କ	-1239
▁ପ୍ରଦର୍ଶ	-1240
େଇ	-1241
ବାଇ	-1242
ଲ୍ୟ	-1243
▁ପରିବର୍ତ୍ତନ	-1244
ପଥ	-1245
▁ଦ୍	-1246
▁ସଭା	-1247
▁ମିଡିଆ	-1248
▁ପ୍ରାର୍ଥୀ	-1249
ଳକୁ	-1250
▁ତୁର	-1251
▁ବାର	-1252
ନୈତିକ	-1253
▁ଆତ୍ମ	-1254
ଯୁକ୍ତି	-1255
▁ଉତ୍ସ	-1256
▁ବିଜୟ	-1257
▁ଘଟଣାରେ	-1258
ାଟ	-1259
▁ପକ	-1260
▁ସୀ	-1261
▁କେତ	-1262
▁ଆୟୋଜ	-1263
▁ମହାର	-1264
ଗର	-1265
▁ଖୁ	-1266
ତ୍ରୀ	-1267
ବାରେ	-1268
▁ଏକା	-1269
▁ବଲିଉ	-1270
▁ଶିଶୁ	-1271
ନାର	-1272
ହୁଁ	-1273
ୃତି	-1274
▁ଖୋ	-1275
▁ନୀ	-1276
▁ବିଧ	-1277
ଡିକାଲ	-1278
▁ଉନ୍ନ	-1279
▁ରାହୁଲ	-1280
▁ରାସ୍ତା	-1281
▁କରିବାରେ	-1282
▁ଭାଗ	-1283
▁ସମା	-1284
▁ଟ୍ରେ	-1285
▁ସୋସିଆ	-1286
▁ଚାଲିଛି	-1287
ଠୁ	-1288
▁ଝିଅ	-1289
▁ନାଗ	-1290
▁ଦାୟ	-1291
▁ହଜାର	-1292
▁ସଦସ୍ୟ	-1293
▁ତୁମ୍ଭେ	-1294
ହଁ	-1295
ଘ୍ର	-1296
ନିଆ	-1297
▁ତୁରନ୍ତ	-1298
▁ରାଜ୍ୟର	-1299
▁ବଢ	-1300
▁ଦଳର	-1301
▁ସଫଳତା	-1302
ଗଲା	-1303
ନ୍ସ	-1304
ର୍ଜ	-1305
▁ଏନ	-1306
▁ବିବାହ	-1307
▁ଦୃଷ୍ଟି	-1308
▁ମେଡିକାଲ	-1309
▁ହସ୍ପିଟାଲରେ	-1310
ାନା	-1311
ୁବନେ	-1312
ସ୍ତ୍ର	-1313
▁ଗସ୍ତ	-1314
▁ପ୍ରଶ୍	-1315
▁ସମ୍ମାନ	-1316
▁ବ୍ୟାଙ୍କ	-1317
ବେେ	-1318
▁ବନ	-1319
ବିଧା	-1320
▁ଆଦି	-1321
▁ପାର୍	-1322
▁ବିଷୟରେ	-1323
▁!	-1324
ାଇଥିବା	-1325
▁କିମ୍ବା	-1326
▁ଅନୁସାରେ	-1327
ୋନ	-1328
ଲୋକ	-1329
ପକ	-1330
ସୁ	-1331
ାୟକ	-1332
▁ଶବ	-1333
▁ଉତ୍ପା	-1334
▁ପୋଲିସ୍	-1335
ଠା	-1336
।""	-1337
ନ୍ମ	-1338
▁ସୁଯୋଗ	-1339
▁ସମସ୍ତେ	-1340
▁ଫଟୋ	-1341
ଦ୍ୟାଳୟ	-1342
▁ରାଜ୍ୟରେ	-1343
▁ମତ	-1344
▁ଖୁବ୍	-1345
▁ଭାବରେ	-1346
▁ଶିକ୍ଷା	-1347
▁ବ୍ୟବସାୟ	-1348
▁ପ୍ରତ୍ୟେକ	-1349
▁ମାଧ୍ୟମରେ	-1350
ଚାଳ	-1351
ଚ୍ଛା	-1352
ନ୍ଦର	-1353
▁କିଏ	-1354
▁ଗୁଳି	-1355
▁ସେନା	-1356
ନ୍ତ୍ରଣ	-1357
▁ସ୍କୁଲ	-1358
ପନ	-1359
ାତ୍	-1360
ୋଟି	-1361
▁ଧନ	-1362
▁ରୋ	-1363
ମ୍ମୁ	-1364
▁ଉଦ୍ୟମ	-1365
▁5	-1366
ନାଲ	-1367
▁ଗଠନ	-1368
▁ମାେ	-1369
▁ଦେଖା	-1370
ପ୍ରଦେଶ	-1371
▁ବାହାର	-1372
▁ଶର୍ମା	-1373
▁ସମ୍ଭାବ	-1374
▁ଆବଶ୍ୟକତା	-1375
▁ପରିସ୍ଥିତି	-1376
▁ଭୟ	-1377
▁ପଡ଼	-1378
▁ଟିମ୍	-1379
▁ମନ୍ଦ	-1380
▁ଭୁବନେ	-1381
▁ବଦ	-1382
▁ଆଇନ	-1383
▁ପୁଅ	-1384
▁ଏମିତି	-1385
ନାହାନ୍ତି	-1386
▁ଆତଙ୍କବାଦୀ	-1387
ଏମ	-1388
ଶତ	-1389
▁ଆନ	-1390
▁କାହା	-1391
▁ମନ୍ତ୍ରଣା	-1392
▁ବ୍ୟବଚ୍ଛେଦ	-1393
ୀରେ	-1394
▁ଅଟକ	-1395
▁କେବେ	-1396
▁ନିକଟ	-1397
▁କ୍ରିକେ	-1398
▁ହେବାକୁ	-1399
00	-1400
▁–	-1401
ରାଲ	-1402
ଣ୍ଡା	-1403
▁ଠାରୁ	-1404
▁ମଧ୍ଯ	-1405
▁ସଙ୍ଗ	-1406
▁ଏଠାରେ	-1407
▁କାହିଁ	-1408
▁ସମଗ୍ର	-1409
▁ସରକାରୀ	-1410
▁ପର୍ଯ୍ୟା	-1411
ଡେ	-1412
▁୫	-1413
▁କଣ	-1414
▁ହର	-1415
ିତ୍ୱ	-1416
▁କଟକ	-1417
କୋର୍ଟ	-1418
▁ପାଳନ	-1419
▁ବିଷୟ	-1420
▁ଖାଦ୍ୟ	-1421
▁ଆମେରିକା	-1422
ିତି	-1423
▁ଆଶା	-1424
▁ପ୍ରଥମେ	-1425
▁ଯାତ୍ରୀ	-1426
ଳର	-1427
ଲେଖ	-1428
▁କୃଷି	-1429
▁ନଥିଲା	-1430
▁ମହାରା	-1431
▁ସମର୍ଥ	-1432
▁ଗାନ୍ଧୀ	-1433
▁ସୁପ୍ରି	-1434
▁3	-1435
ଂସା	-1436
ଥ୍ୟ	-1437
▁ରାମ	-1438
▁ଉଚିତ	-1439
▁ଦେବାକୁ	-1440
▁ହାଇକୋର୍ଟ	-1441
▁ମନ୍ତ୍ରଣାଳୟ	-1442
ବରେ	-1443
ମତା	-1444
▁ଶୀ	-1445
▁ସ୍ଥା	-1446
▁ଆବେଦନ	-1447
▁ପାଖରେ	-1448
▁କାହିଁକି	-1449
ରାପ	-1450
ହାରି	-1451
▁ବ୍ର	-1452
▁ଅମିତ	-1453
▁ଦେଇଛି	-1454
▁ସଭାପତି	-1455
▁ଜଣାପଡ଼ିଛି	-1456
ଗା	-1457
▁ଋ	-1458
▁କଲ	-1459
▁ସର	-1460
୍ୟାସ	-1461
▁ଦିବ	-1462
▁ଦ୍ର	-1463
▁ଯୁବକ	-1464
▁ଶାନ୍ତି	-1465
ଭବ	-1466
ମର	-1467
▁ଅଟ	-1468
▁ଭେ	-1469
ନ୍ଦୁ	-1470
ାତ୍ରା	-1471
▁ନାହାନ୍ତି	-1472
▁ମହାରାଷ୍ଟ୍ର	-1473
ଡର	-1474
ଥର	-1475
ାହ	-1476
ରୀର	-1477
ହ୍ନ	-1478
ଣ୍ଡି	-1479
▁କଲା	-1480
ନଥିଲା	-1481
▁ଚାଷୀ	-1482
▁କରୋନା	-1483
▁ଦିଗରେ	-1484
▁ବିଧାନ	-1485
▁ବିରୋଧୀ	-1486
▁ସୋସିଆଲ	-1487
▁ମିଡିଆରେ	-1488
ସଂ	-1489
ୁତି	-1490
▁ନଜର	-1491
ିବାରେ	-1492
▁ଫେରି	-1493
▁ମୂଲ୍ୟ	-1494
▁କରନ୍ତି	-1495
ଷ୍ଟା	-1496
▁କରେ	-1497
ାନ୍ତର	-1498
▁ଲେଖି	-1499
ଗୁଡ଼ିକୁ	-1500
▁ରହିଥିବା	-1501
▁ସମ୍ପୂର୍ଣ୍ଣ	-1502
ଚି	-1503
ଏସ୍	-1504
▁ଯୋ	-1505
ାଯାଇଛି	-1506
▁ଚାହୁଁ	-1507
▁କାରଣରୁ	-1508
।"	-1509
ପୃ	-1510
ମୀ	-1511
ିଣ	-1512
▁ଯାଉ	-1513
▁ରୂପ	-1514
▁ଓଡ଼ିଶା	-1515
▁ବିଚାରପତି	-1516
▁ସମ୍ଭାବନା	-1517
ଘାତ	-1518
ାଜିକ	-1519
▁ରାୟ	-1520
ଧ୍ୟାନ	-1521
ଶ୍ଚିତ	-1522
▁ତଥ୍ୟ	-1523
▁ସାଂସ	-1524
▁ସିବି	-1525
କ୍ରାନ୍ତ	-1526
▁ଡାକ୍ତରଖାନାରେ	-1527
ଗଡ଼	-1528
▁ପଛ	-1529
▁ଉଲ୍	-1530
▁ଡ୍ର	-1531
▁ଅବସ୍ଥା	-1532
ଖା	-1533
▁ଉଠ	-1534
▁ଦା	-1535
▁ପୀ	-1536
ବାରା	-1537
▁ଓଡି	-1538
ଗୁଡିକ	-1539
▁କେତେକ	-1540
▁ସାଂସଦ	-1541
▁କାର୍ଯ୍ୟକ୍ରମରେ	-1542
ଦୁ	-1543
ତୀତ	-1544
ରକୁ	-1545
ୋଳନ	-1546
▁ଉଦ	-1547
ାପ୍ତ	-1548
▁ସାହା	-1549
୍ଲ	-1550
ସିଂ	-1551
ୁଟି	-1552
ଯାୟୀ	-1553
▁ନାଁ	-1554
▁ଭବି	-1555
▁ହାସ	-1556
▁ଟଙ୍କ	-1557
▁ସନ୍ତ	-1558
▁ପ୍ରବଳ	-1559
▁ଭିତରେ	-1560
▁ଯୋଗାଇ	-1561
▁ହେବାର	-1562
▁ଥାନାରେ	-1563
▁ମାମଲାରେ	-1564
ଳକ	-1565
ଶନ	-1566
ଦରେ	-1567
ମ୍ମ	-1568
▁ହ୍ର	-1569
▁କମିଟି	-1570
▁ଦରକାର	-1571
▁ପୁତ୍ର	-1572
▁ବିବାଦ	-1573
▁ଦକ୍ଷିଣ	-1574
▁ଫିଲ୍ମରେ	-1575
▁ପୁରସ୍କାର	-1576
▁ପ୍ରସ୍ତାବ	-1577
ଯାଏ	-1578
ଷ୍ୟ	-1579
▁ବଡ	-1580
▁ଉପଲ	-1581
▁ଘରେ	-1582
▁ଆଗକୁ	-1583
▁ଇସ୍ତ	-1584
▁ଶ୍ରେ	-1585
▁ସନ୍ଦ	-1586
ମକୋର୍ଟ	-1587
▁ପ୍ରକ୍ର	-1588
▁ସମାଧାନ	-1589
▁ଦ୍ୱିତୀୟ	-1590
▁ସଂପର୍କରେ	-1591
ତୀ	-1592
ସନ୍	-1593
ାମି	-1594
▁ଆଦ	-1595
ଷ୍ଠିତ	-1596
▁ଖୁସି	-1597
▁ହସ୍ତ	-1598
▁ସ୍ଥଳରେ	-1599
▁ପରୀକ୍ଷା	-1600
▁ସାମାଜିକ	-1601
ଗି	-1602
▁ଜ୍	-1603
।"""	-1604
ାନ୍ତୁ	-1605
▁ପୁରୁ	-1606
▁ପରିଚାଳ	-1607
▁ପ୍ରୟାସ	-1608
▁ମନ୍ଦିର	-1609
▁ଗୁରୁତ୍ୱପୂର୍ଣ୍ଣ	-1610
ହାଁ	-1611
▁୧୦	-1612
ଗ୍ରହ	-1613
▁ଶରୀର	-1614
▁ଚିନ୍ତା	-1615
▁ପ୍ରଦେଶ	-1616
▁ପ୍ରଶ୍ନ	-1617
▁ପ୍ରକଳ୍ପ	-1618
▁ସୁପ୍ରିମକୋର୍ଟ	-1619
▁,	-1620
କାଳ	-1621
୍କୁ	-1622
▁ଦର	-1623
ଭାରେ	-1624
▁ଅସୁ	-1625
▁ଦୁଃ	-1626
▁ସ୍ବା	-1627
▁କ୍ଷତି	-1628
▁ରହିଛନ୍ତି	-1629
-1	-1630
ଟିଂ	-1631
ଯାନ	-1632
ସାରି	-1633
୍ୟ୍ଯ	-1634
ାମର୍ଶ	-1635
▁ଉଲ୍ଲେଖ	-1636
▁ଜୟ	-1637
▁ଅର୍	-1638
▁ବିପ	-1639
▁ଦେଲେ	-1640
▁ପରିଚ	-1641
▁ପଶ୍ଚ	-1642
ାଇବାକୁ	-1643
▁ଚନ୍ଦ୍ର	-1644
େହ	-1645
ଣ୍ଡର	-1646
▁ଅଂଶ	-1647
▁ହୁଏ	-1648
ନଥିଲେ	-1649
୍ତ୍ତା	-1650
▁ଆନ୍ଦ	-1651
▁ନୀତି	-1652
▁ସମାଜ	-1653
▁ପାଇଛି	-1654
▁ଲକ୍ଷ୍ୟ	-1655
ନିକ	-1656
ଣାରେ	-1657
ନ୍ଦନ	-1658
▁ଏହାସହ	-1659
▁ବିଜ୍ଞ	-1660
▁ସିବିଆଇ	-1661
▁କରାଯାଇଥିବା	-1662
ପେ	-1663
ାଣ	-1664
▁ଉଦ୍	-1665
▁ଚଳା	-1666
▁ପ୍ରାୟ	-1667
ଷ୍ଟ୍ରୀୟ	-1668
▁ସୁବିଧା	-1669
▁ଜଣାପଡିଛି	-1670
▁କରିପାରିବେ	-1671
▁୩	-1672
ସ୍ୱ	-1673
ଙ୍ଗି	-1674
▁ସଂଗ	-1675
▁ଶୁଣି	-1676
▁ହାସଲ	-1677
▁କେମିତି	-1678
▁ପରାମର୍ଶ	-1679
▁ସେଥିପାଇଁ	-1680
କରି	-1681
ର୍ସ	-1682
▁କମ	-1683
▁ଚୀନ	-1684
▁ସିନେ	-1685
▁ସମ୍ମି	-1686
▁ହ୍ରାସ	-1687
ତମ	-1688
ର୍ଡ	-1689
▁ସୌ	-1690
▁ଅଫି	-1691
ୁଥିବା	-1692
▁କରିଥାଏ	-1693
▁ସମ୍ମୁଖ	-1694
▁ଅନୁଯାୟୀ	-1695
▁ହୋଇଯାଇଛି	-1696
ଲିଆ	-1697
▁ପୃ	-1698
ଳୟରେ	-1699
ୁଦ୍ର	-1700
▁ଜ୍ଞ	-1701
▁ନେତ	-1702
▁ସାଇ	-1703
ପୃକ୍ତ	-1704
▁ଅନୁମ	-1705
ଦ୍ୱାରା	-1706
▁ସବୁଠାରୁ	-1707
▁ପ୍ରଦର୍ଶନ	-1708
ଇେ	-1709
ଦର	-1710
ଶମ	-1711
ଘାଟ	-1712
▁ଭୁ	-1713
▁ଶହ	-1714
▁କମ୍	-1715
▁ଅପରା	-1716
▁ମୋତେ	-1717
▁ଲାଗୁ	-1718
▁ନାଗରିକ	-1719
▁ବିଧାୟକ	-1720
▁ଅଭିନେତା	-1721
▁ଜଣାଇଛନ୍ତି	-1722
ଏଲ	-1723
ବୋ	-1724
▁[	-1725
ବ୍ଧ	-1726
ରାଟ	-1727
ରିଆରେ	-1728
ଷ୍ଟ୍ରେ	-1729
▁ଚର୍ଚ୍ଚ	-1730
▁ମଧ୍ୟରୁ	-1731
▁କରୁଥିଲେ	-1732
▁ବିଜେପିର	-1733
▁ଅନୁଷ୍ଠିତ	-1734
▁ଅଭିନେତ୍ରୀ	-1735
ସିକ	-1736
▁ଡେ	-1737
ତ୍ନୀ	-1738
ପାରୁ	-1739
▁ସ୍ମ	-1740
ତିକ୍ର	-1741
▁ଦୁଃଖ	-1742
▁ଚିହ୍ନ	-1743
▁ଜଷ୍ଟି	-1744
▁ତାହାର	-1745
▁ବିହାର	-1746
▁ଦିଅନ୍ତୁ	-1747
▁ସ୍ୱତନ୍ତ୍ର	-1748
ଚନ	-1749
କୃତ	-1750
ଗ୍ରୀ	-1751
ମ୍ବର	-1752
▁କଳା	-1753
▁ଦେଉ	-1754
▁ନିର	-1755
▁ପୁନ	-1756
▁ବାଇ	-1757
▁ପଞ୍ଜ	-1758
▁ଅଭିନୟ	-1759
▁ସେମାନଙ୍କର	-1760
▁ଆଫ	-1761
▁ଆଶ	-1762
ଥିଲି	-1763
▁ତାଲ	-1764
▁ସଂଘ	-1765
▁ଇସ୍ତଫା	-1766
▁ଜରିଆରେ	-1767
▁ପଶ୍ଚିମ	-1768
▁ପ୍ରତିଶତ	-1769
▁ବିଶ୍ୱାସ	-1770
▁ରାଜନୈତିକ	-1771
ସବୁ	-1772
କଳ୍ପ	-1773
ପତ୍ର	-1774
▁କପୁର	-1775
▁ମାରି	-1776
▁ଅଗ୍ନି	-1777
▁କହିଛି	-1778
ବର୍ତ୍ତୀ	-1779
▁ବ୍ୟାପକ	-1780
▁ଯାହାକୁ	-1781
▁ରହିଥିଲା	-1782
▁ଲୋକମାନଙ୍କୁ	-1783
ୋପ	-1784
ପାତ	-1785
କ୍ଟର	-1786
▁ଖଣ୍ଡ	-1787
▁ଘରୋଇ	-1788
▁ଜନ୍ମ	-1789
ଥାନ୍ତି	-1790
▁ଭିନ୍ନ	-1791
▁ପ୍ରତିଯୋଗ	-1792
▁ମହିଳାଙ୍କ	-1793
▁ପ୍ରତିରକ୍ଷା	-1794
▁ମୁକ	-1795
▁ଆମକୁ	-1796
▁ପତ୍ନୀ	-1797
ନ୍ଯ	-1798
ତାରେ	-1799
▁ଅଟେ	-1800
▁ଶିବ	-1801
▁ପଠାଇ	-1802
▁ରକ୍ଷା	-1803
▁ଯେତେବେଳେ	-1804
▁ସମସ୍ତଙ୍କୁ	-1805
ଫୋ	-1806
ରାଉ	-1807
ର୍ଘ	-1808
ସେନା	-1809
ୃତୀୟ	-1810
ାରମ୍ଭ	-1811
▁ଭାଇରାଲ	-1812
▁ଦାୟିତ୍ୱ	-1813
▁ହେଉଥିବା	-1814
ୟମ	-1815
...]	-1816
ବିନ୍ଦ	-1817
ୁଛନ୍ତି	-1818
▁[...]	-1819
▁ତୃତୀୟ	-1820
▁ସମର୍ଥନ	-1821
▁ଭୁବନେଶ୍ୱର	-1822
କ୍କ	-1823
ଜୀବ	-1824
୍ଲା	-1825
▁ପବ	-1826
ତିହା	-1827
ଭୂମି	-1828
ାନ୍ସ	-1829
▁ଖେଳ	-1830
▁ସଂସ	-1831
▁ଗାଡି	-1832
▁ଥାନା	-1833
▁ବାପା	-1834
▁ଅନୁଭବ	-1835
▁ଚଳାଚଳ	-1836
▁ମୁକାବି	-1837
▁ଆନ୍ଦୋଳନ	-1838
▁ରାଜସ୍ଥାନ	-1839
୍ୱି	-1840
▁ବସ	-1841
▁ଜରୁ	-1842
▁ବସି	-1843
ହନ୍ତି	-1844
▁ଉକ୍ତ	-1845
▁ଚାରି	-1846
▁ଯାଇଛି	-1847
▁ଦ୍ବାରା	-1848
▁ସ୍ତ୍ରୀ	-1849
▁ହୋଇପାରି	-1850
ଗୋ	-1851
ୋଭ	-1852
୍ବ	-1853
▁ତାର	-1854
▁ଦେବ	-1855
ର୍ଦ୍ଧ	-1856
▁କେତେ	-1857
▁ଦେବେ	-1858
▁ନିୟମ	-1859
▁ପୂରଣ	-1860
▁ନିଜକୁ	-1861
▁ଅଧିକାର	-1862
▁ବିଭାଗର	-1863
▁ଭବିଷ୍ୟ	-1864
▁ମାମଲାର	-1865
▁ସମ୍ମିଳ	-1866
▁ହୋଇନାହିଁ	-1867
▁ନିୟନ୍ତ୍ରଣ	-1868
me	-1869
ପଣ	-1870
▁ବୟ	-1871
କାଲି	-1872
ଙ୍ଗା	-1873
ଣ୍ଟି	-1874
▁ବଜାର	-1875
▁ରାଜା	-1876
ପକ୍ଷରେ	-1877
▁ଦୀର୍ଘ	-1878
▁ପରିମାଣ	-1879
▁ଶ୍ରଦ୍ଧା	-1880
▁ସାହାଯ୍ୟ	-1881
ପର୍ଯ୍ୟନ୍ତ	-1882
ୀଶୁ	-1883
▁ଇଂ	-1884
▁ଜାଣ	-1885
▁ପାଠ	-1886
▁ସମାନ	-1887
▁ଆସିଛି	-1888
▁ଅଭିଯାନ	-1889
▁ଆତ୍ମହତ	-1890
▁ଉଦ୍ଦେଶ	-1891
▁ଆପଣଙ୍କୁ	-1892
▁କାଶ୍ମୀର	-1893
ଡୁ	-1894
▁୪	-1895
ଅଛି	-1896
ଥିବ	-1897
▁ଆସନ	-1898
▁ବାବ	-1899
▁ନେତୃତ	-1900
▁ଉପଲବ୍ଧ	-1901
▁ପ୍ରବେଶ	-1902
▁ଯାଇଥିଲା	-1903
ଫେ	-1904
ଉଣୀ	-1905
ଣିଜ	-1906
▁ଅଲ	-1907
▁ତର	-1908
▁ହୃ	-1909
▁କର୍	-1910
▁ବ୍ଯ	-1911
▁ଲେଖ	-1912
▁ପୋଷ୍ଟ	-1913
▁ସଂସ୍କ	-1914
▁ସହାୟକ	-1915
▁ଟ୍ରମ୍ପ	-1916
▁ସୁଦ୍ଧା	-1917
▁ସମ୍ବନ୍ଧ	-1918
ସୀ	-1919
ୟର	-1920
ଳିକ	-1921
▁ରଣ	-1922
ହିନୀ	-1923
▁ଗର୍	-1924
▁କଲେଜ	-1925
▁ଖାନ୍	-1926
▁ଆଗାମୀ	-1927
▁ଯାଞ୍ଚ	-1928
▁ପର୍ଯ୍ୟ	-1929
▁ଫିଲ୍ମର	-1930
▁ଭିତ୍ତି	-1931
▁ସନ୍ଦେହ	-1932
▁ନିଯୁକ୍ତି	-1933
ହରଣ	-1934
ଟିକୁ	-1935
▁ଓଡ଼ିଶ	-1936
▁ଧ୍ୟାନ	-1937
▁ଭୂମିକ	-1938
▁କଂଗ୍ରେସର	-1939
▁ପରିଚାଳନା	-1940
ଏନ	-1941
▁ସୈ	-1942
ଷ୍ଠା	-1943
ସିସି	-1944
ସ୍ତର	-1945
▁ଜମି	-1946
▁ବିଦ	-1947
▁ରହୁ	-1948
▁ଗୋଷ୍ଠ	-1949
ିଆ	-1950
ବର୍ଗ	-1951
ମିକା	-1952
ାର୍ଜ	-1953
▁ଏସ୍	-1954
▁ଲାଇ	-1955
ଷ୍କର୍ମ	-1956
▁ଆମ୍ଭେ	-1957
▁ଡ୍ରାଇ	-1958
▁ମ୍ୟାଚ	-1959
▁ଟଙ୍କାର	-1960
▁ତୁମ୍ଭର	-1961
▁ଘଟିଥିଲା	-1962
▁ଜିଲ୍ଲାରେ	-1963
▁ମୁକାବିଲା	-1964
▁ସମ୍ମିଳନୀ	-1965
▁ଆତ୍ମହତ୍ୟା	-1966
▁ରାଷ୍ଟ୍ରୀୟ	-1967
▁ତୁମ୍ଭମାନେେ	-1968
ପୀ	-1969
ରିବ	-1970
▁କ୍ୟ	-1971
▁ଜିତି	-1972
▁ମାନେ	-1973
▁ରିଲି	-1974
▁ଶୁଣା	-1975
▁ଜଣଙ୍କ	-1976
▁ପରିଚୟ	-1977
▁ପାଇବା	-1978
▁ଗାନ୍ଧି	-1979
▁ପ୍ରସଙ୍ଗରେ	-1980
▁ଏପର୍ଯ୍ୟନ୍ତ	-1981
ଗେ	-1982
ଥୀ	-1983
▁4	-1984
▁ଢ	-1985
▁ଫି	-1986
ତର୍କ	-1987
ଳିକା	-1988
▁ସାବ	-1989
ସଭାରେ	-1990
▁ଅଗ୍ର	-1991
▁ଦିବସ	-1992
▁ରକ୍ତ	-1993
▁ଆସିବା	-1994
▁ପ୍ରତିନି	-1995
ମଣ	-1996
ଢ଼ି	-1997
ୋଧନ	-1998
ନ୍ଦା	-1999
▁ଜବା	-2000
▁ଦୋଷ	-2001
▁ଫେର	-2002
▁ସ୍ଵ	-2003
▁ମିଳିତ	-2004
▁ସ୍ଥିର	-2005
▁ଚେଷ୍ଟା	-2006
▁ବିଶ୍ୱର	-2007
▁ଅଗ୍ନିଶମ	-2008
▁କରାଯିବା	-2009
▁ପ୍ରଶଂସା	-2010
େଜ	-2011
▁ଅଶ	-2012
▁ଫଳ	-2013
ତିକି	-2014
▁ଛୋଟ	-2015
▁ହରି	-2016
ଣ୍ଡରେ	-2017
▁ଘରକୁ	-2018
▁ଠିକ୍	-2019
ରକ୍ଷିତ	-2020
▁ସୁସ୍ଥ	-2021
▁ଅନ୍ତର୍	-2022
▁ଘଟଣାକୁ	-2023
▁ପରିବେଶ	-2024
▁ଉତ୍ପାଦନ	-2025
▁%	-2026
▁ଗଭ	-2027
▁ଏତେ	-2028
▁କହୁ	-2029
▁ସୁଖ	-2030
▁ପହଂଚ	-2031
▁ସତ୍ୟ	-2032
▁ଛାଡ଼ି	-2033
▁ମିଶ୍ର	-2034
▁ମୋବାଇ	-2035
▁ସେଥିରେ	-2036
▁ପ୍ରକ୍ରିୟା	-2037
କ୍ସ	-2038
ଦ୍ଦ	-2039
ାଗତ	-2040
▁ଆକ	-2041
ଞ୍ଜି	-2042
ାର୍ଟ	-2043
▁ଟ୍ୱି	-2044
▁ନାବା	-2045
▁ପକାଇ	-2046
▁ଭଉଣୀ	-2047
▁ନଥିଲେ	-2048
▁ପାଇବେ	-2049
▁କରିଦେଇ	-2050
▁ହୋଇପାରେ	-2051
▁ଉଦ୍ଦେଶ୍ୟ	-2052
ୋତ୍	-2053
ଣ୍ଣା	-2054
ତ୍ତା	-2055
▁ଗୁଜ	-2056
▁ଭାଷ	-2057
ସ୍କୃତ	-2058
▁କଡ଼ା	-2059
▁ଖେଳି	-2060
▁ଜମ୍ମୁ	-2061
▁ନିବେଶ	-2062
▁ସାକ୍ଷ	-2063
▁ପ୍ରମାଣ	-2064
▁ଯାତ୍ରା	-2065
▁ଅଷ୍ଟ୍ରେ	-2066
▁ଭବିଷ୍ୟତ	-2067
▁କାର୍ଯ୍ୟକାରୀ	-2068
ରର	-2069
▁ଫୁ	-2070
▁"""	-2071
▁ଗତି	-2072
▁ଜୋର	-2073
▁କୋଭି	-2074
▁ଦୃଢ଼	-2075
▁ପତ୍ର	-2076
▁ମାରେ	-2077
▁ଆନନ୍ଦ	-2078
▁କର୍ମୀ	-2079
▁ପଡ଼ିବ	-2080
▁ରଖିବା	-2081
▁ସେପଟେ	-2082
▁ବ୍ୟତୀତ	-2083
▁ସନ୍ତାନ	-2084
ବିଦ୍ୟାଳୟ	-2085
▁ଲୋକମାନଙ୍କ	-2086
▁ସମାନଙ୍କେୁ	-2087
▁ଔ	-2088
▁ଏମ	-2089
▁କନ	-2090
ମାରେ	-2091
ସନ୍ଦ	-2092
▁ଅଂଚ	-2093
▁ସନ୍	-2094
ପାତ୍ର	-2095
▁ଏସବୁ	-2096
▁ନ୍ୟା	-2097
▁ଫାଇଲ	-2098
▁ମାନବ	-2099
▁ଶାସନ	-2100
▁କୁହାଯ	-2101
▁ପେଟ୍ର	-2102
▁ରହିବା	-2103
▁ପାର୍ଟି	-2104
▁ଭୂମିକା	-2105
▁ସେତେବେଳେ	-2106
▁ସରକାରଙ୍କୁ	-2107
ଙ୍ଖ	-2108
ଶୀଳ	-2109
ହ୍ୱ	-2110
▁ଅଭ	-2111
▁ସତ	-2112
▁ୟି	-2113
ମ୍ମଦ	-2114
▁ମୁଖ	-2115
▁ଶୋକ	-2116
▁ଅନ୍ୟାନ	-2117
▁ଖର୍ଚ୍ଚ	-2118
ତିକ୍ରିୟା	-2119
▁ସାମଗ୍ରୀ	-2120
ଧୁ	-2121
▁ଦୂ	-2122
▁ଜଣକ	-2123
▁ଦାସ	-2124
▁ମଣି	-2125
ବସ୍ଥା	-2126
▁ଅଧୀନ	-2127
▁ବ୍ୟୟ	-2128
▁ଚଳଚ୍ଚ	-2129
▁ଟେଷ୍ଟ	-2130
▁ଦିନକୁ	-2131
▁ବିଦେଶ	-2132
▁ଶୀଘ୍ର	-2133
▁କ୍ଷମତା	-2134
▁କମ୍ପାନୀ	-2135
▁ଅଭିନନ୍ଦନ	-2136
▁ଯେଉଁମାନେ	-2137
▁ଚଳଚ୍ଚିତ୍ର	-2138
▁ଦୁର୍ଘଟଣାରେ	-2139
ଏଫ	-2140
ତାକୁ	-2141
ଦ୍ରା	-2142
▁ବଜେ	-2143
▁ଅପରେ	-2144
▁ଟ୍ରା	-2145
▁ଶୁଭେ	-2146
▁ଜରୁରୀ	-2147
▁ଭାଙ୍ଗି	-2148
▁ଭାରତକୁ	-2149
▁ବିଧାନସଭା	-2150
▁ପ୍ରତିକ୍ରିୟା	-2151
ଦବ	-2152
ମୟ	-2153
ସାଇ	-2154
ାଂଶ	-2155
▁ଋଣ	-2156
ସହିତ	-2157
▁ମାଲ	-2158
ନଥିବା	-2159
▁କ୍ରୀ	-2160
▁ଗରିବ	-2161
▁ଚଳିତ	-2162
▁ଚାକି	-2163
▁ଧର୍ମ	-2164
▁ରଙ୍ଗ	-2165
▁ଆୟୋଜନ	-2166
▁ଚଳାଇଛି	-2167
▁ସୁନ୍ଦର	-2168
▁ଡ୍ରାଇଭର	-2169
▁ରାଜ୍ୟପାଳ	-2170
ମନ	-2171
ଲର	-2172
▁ଟୁ	-2173
▁ଫୋ	-2174
▁ବୃ	-2175
▁ହୋ	-2176
▁ଥାଏ	-2177
▁କୃଷକ	-2178
▁ତାମି	-2179
▁ଧନ୍ୟ	-2180
▁ପଞ୍ଚ	-2181
▁ବିନା	-2182
▁ଯୀଶୁ	-2183
▁ସୀମା	-2184
▁ଅପରାଧ	-2185
▁ବାହାରି	-2186
▁ସ୍ୱାଧୀନ	-2187
▁ଅନ୍ୟାନ୍ୟ	-2188
▁ପରବର୍ତ୍ତୀ	-2189
▁ହୋଇଯାଇଥିଲା	-2190
ୂଳକ	-2191
କ୍ଷମ	-2192
ନାରେ	-2193
ରାଉଚ	-2194
ିଷ୍ଟ	-2195
▁ବାତ	-2196
▁ହବେ	-2197
▁ବଢ଼ି	-2198
▁ଭେଟି	-2199
▁ସପ୍ତ	-2200
▁ଗାଡ଼ି	-2201
▁ଯୁଦ୍ଧ	-2202
▁ସତର୍କ	-2203
▁ଉତ୍ତେଜ	-2204
▁କର୍ତ୍ତ	-2205
▁କଶ୍ମୀର	-2206
▁ଯାହାକି	-2207
▁ଯେଉଁଥି	-2208
▁ନେଇଥିଲେ	-2209
▁ଜଣାଇଥିଲେ	-2210
▁ଭୂମିକାରେ	-2211
▁ପ୍ରସ୍ତୁତି	-2212
େର	-2213
ଦୀପ	-2214
ବେଷ	-2215
୍ରା	-2216
▁ଫା	-2217
୍ୟାଣ	-2218
▁ଶପଥ	-2219
▁ଶାହ	-2220
ଣିଜ୍ୟ	-2221
ହ୍ୱାନ	-2222
▁ଅତ୍ୟ	-2223
▁ପୂରା	-2224
▁ଉଚିତ୍	-2225
▁ପଚରାଉଚ	-2226
▁ଘଟିଥିବା	-2227
▁ମୋଦିଙ୍କ	-2228
▁ପ୍ରଭାବିତ	-2229
▁7	-2230
ଓ୍ଵ	-2231
ପିତ	-2232
ାମା	-2233
▁ଚୁ	-2234
ଞ୍ଜନ	-2235
ନାକୁ	-2236
ସିଟି	-2237
▁ଆକା	-2238
▁ମିଶ	-2239
▁ଜାତି	-2240
▁ଜ୍ଞାନ	-2241
▁ସମସ୍ୟ	-2242
ରାଷ୍ଟ୍ର	-2243
▁ଆଧାରରେ	-2244
▁ଜାଣିବା	-2245
▁ସଂସ୍ଥା	-2246
▁ଦେଇଥିବା	-2247
▁ଧନ୍ୟବାଦ	-2248
▁ନେତୃତ୍ୱ	-2249
▁ରାଜନୀତି	-2250
▁6	-2251
ଭାର	-2252
ନ୍ଦୀ	-2253
ାୟେଲ	-2254
▁ପାଲ	-2255
▁ମାଗ	-2256
▁ସାଂ	-2257
▁ଅନୁର	-2258
▁ଇଶ୍ର	-2259
▁ଖେଳା	-2260
▁ଗଣମା	-2261
▁ଡିଜି	-2262
▁ବର୍ଗ	-2263
▁ବାୟୁ	-2264
▁ଯବାନ	-2265
▁ବଲିଉଡ	-2266
▁ବୁଝାମ	-2267
ପାରନ୍ତି	-2268
▁ଅନୁମତି	-2269
▁ଆୟୋଜିତ	-2270
▁ବିଦ୍ୟୁ	-2271
▁ରଖିଛନ୍ତି	-2272
ଲକ	-2273
ଲୀ	-2274
ଘାଟନ	-2275
୍ୟାନ	-2276
▁ଟିକ	-2277
▁ସହଜ	-2278
▁ସହି	-2279
▁ବେଶ୍	-2280
▁ମୁହଁ	-2281
▁ହାଇେ	-2282
▁ଓଡିଶା	-2283
▁ତଥାପି	-2284
▁ଦୁଇଜଣ	-2285
▁ପାରିବ	-2286
▁ମାେତେ	-2287
▁ଆହ୍ୱାନ	-2288
▁ଗୋଷ୍ଠୀ	-2289
▁ଜୀବନରେ	-2290
▁ପ୍ରକୃତ	-2291
▁ବାଣିଜ୍ୟ	-2292
▁ମୃତକଙ୍କ	-2293
▁ଅଭିଯୁକ୍ତକୁ	-2294
ଖଲ	-2295
ପୋ	-2296
ପାନ	-2297
ାରିଖ	-2298
▁ପରା	-2299
▁ବାସ	-2300
▁ଖୋଲି	-2301
▁ପରିଣ	-2302
▁ବିସ୍	-2303
▁କିପରି	-2304
▁ପସନ୍ଦ	-2305
▁ପ୍ରିୟ	-2306
▁ଯାହାର	-2307
▁ଲୋକସଭା	-2308
▁ଶ୍ରମିକ	-2309
▁ଦେଖାଦେଇ	-2310
▁ଉତ୍ତେଜନା	-2311
▁ପ୍ରତିନିଧି	-2312
20	-2313
ଟନ	-2314
ଯା	-2315
ଟେଲ	-2316
ଥରେ	-2317
▁ବଜ	-2318
▁ବଳ	-2319
▁କେର	-2320
▁ତ୍ର	-2321
▁ହୃଦ	-2322
▁ଗଭୀର	-2323
▁ପାଇବ	-2324
▁ପୀଡ଼	-2325
▁ସାରି	-2326
▁ପ୍ରାଣ	-2327
▁ସବୁଠୁ	-2328
▁ପ୍ରତିବ	-2329
▁ମ୍ୟାଚ୍	-2330
▁ଇଶ୍ରାୟେଲ	-2331
▁ନିର୍ଦ୍ଦେଶକ	-2332
ଥମିକ	-2333
ନିକା	-2334
ପ୍ରେ	-2335
▁ଖୋଜ	-2336
ପ୍ରତି	-2337
ଯୋଗ୍ୟ	-2338
▁କଷ୍ଟ	-2339
▁ବିଶ୍	-2340
ଗ୍ରସ୍ତ	-2341
▁ଶିଳ୍ପ	-2342
▁ଏପରିକି	-2343
▁କରାଯାଉ	-2344
▁ଦିଆଯିବ	-2345
▁ପ୍ରଚାର	-2346
▁ମିଳିପାରି	-2347
▁ଶୁଭେଚ୍ଛା	-2348
▁ସୁରକ୍ଷିତ	-2349
▁କୁହାଯାଇଛି	-2350
),	-2351
ଖର	-2352
▁'	-2353
▁ଐ	-2354
ତ୍କ	-2355
େତନ	-2356
▁(_	-2357
▁ଇନ	-2358
▁ଚୋ	-2359
▁ଭୋ	-2360
ସ୍ପର	-2361
▁ଅପେ	-2362
▁ଯାଜ	-2363
ରିକ୍ତ	-2364
ୃପକ୍ଷ	-2365
▁ଆଘାତ	-2366
▁ଏୟାର	-2367
▁ଜନତା	-2368
▁ବିଫଳ	-2369
▁ମାର୍	-2370
ଗୁଡ଼ିକର	-2371
▁କଲ୍ୟାଣ	-2372
▁ଗତକାଲି	-2373
▁ପଞ୍ଜାବ	-2374
▁ପରସ୍ପର	-2375
▁ଶୁଣାଣି	-2376
▁ପୋଲିସକୁ	-2377
▁ଦିଲ୍ଲୀରେ	-2378
▁ଦୁଷ୍କର୍ମ	-2379
▁ନେଇଛନ୍ତି	-2380
▁ପ୍ରାଥମିକ	-2381
ଦୃ	-2382
ବକ	-2383
ାଳ	-2384
କରେ	-2385
ମ୍ର	-2386
ଷ୍ଯ	-2387
ସିଂହ	-2388
▁ଜଗତ	-2389
▁ମନେ	-2390
▁ଆଶ୍ଚ	-2391
▁ନେବା	-2392
▁ତାରିଖ	-2393
▁ଦ୍ରୁତ	-2394
▁ଉଦ୍ୟୋଗ	-2395
▁ଜଣଙ୍କୁ	-2396
▁ତାହାକୁ	-2397
▁ବାହିନୀ	-2398
▁ଅଧିକାଂଶ	-2399
▁ଅତିରିକ୍ତ	-2400
ଦୂ	-2401
ୁଆ	-2402
▁ଅହ	-2403
▁ରେକ	-2404
ବାଧିକ	-2405
▁ଗବେଷ	-2406
ସାଧାରଣ	-2407
▁ଚିତ୍ର	-2408
▁ନିର୍ମ	-2409
▁ସଂଖ୍ୟ	-2410
▁ସ୍ୱାମୀ	-2411
▁ହିନ୍ଦୁ	-2412
▁ଅଗ୍ନିକା	-2413
▁ନିଶ୍ଚିତ	-2414
▁ବୁଝାମଣା	-2415
▁ଏହାଦ୍ୱାରା	-2416
▁ଅଷ୍ଟ୍ରେଲିଆ	-2417
▁ସ୍ଥାନାନ୍ତର	-2418
ମୋ	-2419
ଏମ୍	-2420
କୂଳ	-2421
ସାଦ	-2422
ହେଲେ	-2423
ାର୍କ	-2424
▁ହାର	-2425
ୋତ୍ସା	-2426
▁ଅକ୍ଷ	-2427
▁ଚାଳକ	-2428
▁ଯାଦବ	-2429
▁ହୋଇପ	-2430
▁ତାମିଲ	-2431
▁ଯାଉଛି	-2432
▁ଯେପରି	-2433
▁ସଂଯୋଗ	-2434
▁ସଚେତନ	-2435
▁ସମ୍ଭବ	-2436
▁ଅଧୀନରେ	-2437
▁ଛାତ୍ରୀ	-2438
▁ନିଆଯିବ	-2439
▁ସ୍ଥାପନ	-2440
▁କାର୍ଯ୍ୟା	-2441
▁ପ୍ରୋତ୍ସା	-2442
▁ସମସ୍ତଙ୍କ	-2443
▁ମେଡିକାଲରେ	-2444
er	-2445
ନୁ	-2446
ଚିତ	-2447
ଜନକ	-2448
ମକୁ	-2449
▁ଅର	-2450
▁ୱେ	-2451
ୃଙ୍ଖ	-2452
▁ଅରୁ	-2453
▁ଦେହ	-2454
▁ମୋଟ	-2455
ଥିବାର	-2456
▁ଟିକେ	-2457
▁ବିନି	-2458
▁ସୁନି	-2459
▁ଏଥିସହ	-2460
▁ବାସ୍ତ	-2461
▁ସଙ୍ଗେ	-2462
▁ଚିହ୍ନଟ	-2463
▁ସଂରକ୍ଷ	-2464
▁ଅଧିନାୟକ	-2465
▁ବିଶିଷ୍ଟ	-2466
▁ସବୁବେଳେ	-2467
▁ପରିବାରକୁ	-2468
▁ପ୍ରତିଦିନ	-2469
▁ମିଳିଥିଲା	-2470
▁ସଂସ୍କୃତି	-2471
▁ସମ୍ମୁଖୀନ	-2472
▁ପ୍ରତିଷ୍ଠା	-2473
▁ବିଶ୍ୱବିଦ୍ୟାଳୟ	-2474
in	-2475
ଭେ	-2476
ଷଧ	-2477
୍ୟତା	-2478
▁ତେଲ	-2479
▁ଦୋକ	-2480
▁ବଦଳ	-2481
▁ଧକ୍କ	-2482
▁ଭାଇର	-2483
▁ସଙ୍କ	-2484
▁କୋଭିଡ	-2485
▁ପରୀକ୍ଷ	-2486
▁ସମୁଦ୍ର	-2487
▁ଆକ୍ରାନ୍ତ	-2488
ୈଳ	-2489
ଫରୁ	-2490
ଖଣ୍ଡ	-2491
▁ଅଫ୍	-2492
▁ସୁଶ	-2493
ନ୍ତୋଷ	-2494
ଶୀଘ୍ର	-2495
▁ଆନ୍ତ	-2496
▁ନିଜେ	-2497
▁ପିଟି	-2498
▁ସକାଶ	-2499
▁ତରଫରୁ	-2500
▁ଅନୁରୋଧ	-2501
▁ଶିକ୍ଷକ	-2502
▁ହେବାରେ	-2503
▁ଅପେକ୍ଷା	-2504
▁ଅସନ୍ତୋଷ	-2505
▁ଦେଇଥିଲା	-2506
▁ପ୍ରଯୁକ୍ତି	-2507
▁ସଂପୂର୍ଣ୍ଣ	-2508
▁ଅଧିକାରୀମାନେ	-2509
ଛା	-2510
ଫି	-2511
ଗତି	-2512
ଗାର	-2513
ନକୁ	-2514
▁ସଲ	-2515
ବଙ୍ଗ	-2516
▁ଗୁଣ	-2517
▁ନଗର	-2518
▁ପାଉ	-2519
▁ବସ୍	-2520
▁ବାଂ	-2521
ଆନ୍ତି	-2522
ିବାକୁ	-2523
▁ପଡିବ	-2524
▁ଷ୍ଟେ	-2525
▁ଇତିହା	-2526
▁ପାଣିପ	-2527
▁ସକାଶେ	-2528
▁ଉନ୍ନତି	-2529
▁ସ୍ୱାଗତ	-2530
▁ଅତ୍ୟନ୍ତ	-2531
▁ତୁମ୍ଭକୁ	-2532
▁ସାକ୍ଷାତ	-2533
▁କରିପାରିବ	-2534
▁ବିଦ୍ୟାଳୟ	-2535
ଦକ	-2536
ବେଦ	-2537
ଳରୁ	-2538
ାଳୟ	-2539
▁ଏନ୍	-2540
▁ଔଷଧ	-2541
▁କୋହ	-2542
▁ଖସି	-2543
ବାଦିକ	-2544
▁ଏଯାଏ	-2545
▁ଦ୍ୱି	-2546
▁ଅତିଥି	-2547
▁ଉପଯୋଗ	-2548
ପ୍ରାପ୍ତ	-2549
ର୍ଜାତୀୟ	-2550
▁ଜଷ୍ଟିସ	-2551
▁ପଚରାଉଚରା	-2552
▁ଲେଖିଛନ୍ତି	-2553
ଖିତ	-2554
ବୀର	-2555
ମୁଁ	-2556
ମ୍ନ	-2557
ଷ୍ଣ	-2558
୍ୟ୍ୟ	-2559
▁ଚତୁ	-2560
▁ତିଆ	-2561
▁ଦଇେ	-2562
▁ରୋକ	-2563
ଗ୍ରହଣ	-2564
▁ଜବାବ	-2565
▁ଦାଖଲ	-2566
▁ନ୍ୟୁ	-2567
▁ଉତ୍ତମ	-2568
▁ରହିବେ	-2569
ସ୍କୃତିକ	-2570
▁ପାଣିପାଗ	-2571
▁ନିର୍ବାଚନରେ	-2572
ରମ	-2573
▁ଅଜ	-2574
▁ଜୈ	-2575
ପନ୍ନ	-2576
ାଇଲେ	-2577
▁ଥରେ	-2578
▁ନଦୀ	-2579
▁କମିଶ	-2580
▁ପରିଷ	-2581
▁ମହାମ	-2582
ାର୍ଯ୍ୟ	-2583
▁କରିବି	-2584
▁କରୁଛୁ	-2585
▁ପୁରୁଷ	-2586
ନ୍ଦ୍ରୀୟ	-2587
▁ଖେଳାଳି	-2588
▁ବର୍ଷରେ	-2589
▁ମାନଙ୍କ	-2590
▁ମାନଙ୍କୁ	-2591
▁ଯାଇଥିଲେ	-2592
▁ପାକିସ୍ତାନର	-2593
▁ସାଂସ୍କୃତିକ	-2594
ଗଡ	-2595
୦୦	-2596
ରିତ	-2597
ସ୍ର	-2598
ସିପି	-2599
▁ଚୟନ	-2600
▁ପୋଷ	-2601
▁ମନା	-2602
▁ବାଲେ	-2603
▁ଆସିବେ	-2604
▁ତିଆରି	-2605
▁ଦୃଶ୍ୟ	-2606
▁ଦୋକାନ	-2607
▁ସଂଗଠନ	-2608
▁ଆଶଙ୍କା	-2609
▁ମୋବାଇଲ	-2610
▁ରହିଥାଏ	-2611
▁ସଂରକ୍ଷଣ	-2612
▁ମୃତଦେହକୁ	-2613
▁ଶୁଭାରମ୍ଭ	-2614
▁ମହିଳାଙ୍କୁ	-2615
▁ସାମ୍ବାଦିକ	-2616
▁ନିର୍ଦ୍ଦେଶନା	-2617
କୋ	-2618
▁P	-2619
ନିଷ	-2620
ରାଦ	-2621
କର୍ମ	-2622
ଙ୍ଗ୍	-2623
ଣ୍ଟର	-2624
ନିର୍	-2625
ବର୍ଷ	-2626
ଶାଳୀ	-2627
ାର୍ଡ	-2628
ିତ୍ୟ	-2629
ୀବ୍ର	-2630
▁ମଣିଷ	-2631
▁ରୂପେ	-2632
ଣ୍ଣାଟକ	-2633
ଧିକାରୀ	-2634
ସ୍ତରୀୟ	-2635
▁ତୀବ୍ର	-2636
▁ବିସ୍ତ	-2637
▁ଶେଷରେ	-2638
▁ସେୟାର	-2639
ଯାଇଥିଲା	-2640
ହାଁନ୍ତି	-2641
▁ଗବେଷଣା	-2642
▁ଗୁଡ଼ିକ	-2643
▁ଚାକିରି	-2644
▁ବ୍ୟାଟିଂ	-2645
▁ବ୍ୟାପାର	-2646
▁ଅଧିକାରୀଙ୍କ	-2647
▁ପଶ୍ଚିମବଙ୍ଗ	-2648
ଡ଼କ	-2649
ାୟତ	-2650
▁ଗୌ	-2651
▁ମଜ	-2652
▁ଉଦା	-2653
▁ଏଣୁ	-2654
▁କଡା	-2655
▁ବିଳ	-2656
ରୁଦ୍ଧ	-2657
▁ଆପଣା	-2658
▁ଆଫ୍ର	-2659
▁ପଛରେ	-2660
▁ସାଥୀ	-2661
କକ୍ସ୍ଟ	-2662
▁ଦିନରେ	-2663
▁ନିରାପ	-2664
▁କାହାକୁ	-2665
▁ଦିଆଯାଇ	-2666
▁ପବିତ୍ର	-2667
▁ସପ୍ତାହ	-2668
▁ଆସିଥିଲେ	-2669
▁ଉତ୍ସବରେ	-2670
▁ଚିକିତ୍ସ	-2671
▁ରଖାଯାଇଛି	-2672
▁କାର୍ଯ୍ୟରେ	-2673
▁ଗ୍ରାମବାସୀ	-2674
ଧନ	-2675
ଷେ	-2676
ବୃତ	-2677
ୀନ୍	-2678
▁ଉଠି	-2679
▁ଖାନ	-2680
କ୍ଷିକ	-2681
ଦିଷ୍ଟ	-2682
▁ଅଭାବ	-2683
▁ଜାମି	-2684
▁ନଷ୍ଟ	-2685
▁ବାଧା	-2686
▁ବିପଦ	-2687
▁ଭୂମି	-2688
▁ମିଶି	-2689
▁ପହଂଚି	-2690
▁ଉଦାହରଣ	-2691
▁ସିନେମା	-2692
▁ଜିଲ୍ଲାର	-2693
▁ବିଜ୍ଞାନ	-2694
▁ସର୍ବାଧିକ	-2695
▁କର୍ଣ୍ଣାଟକ	-2696
▁କେନ୍ଦ୍ରୀୟ	-2697
ଘନ	-2698
ଘର	-2699
ବନ	-2700
ନୀୟ	-2701
ଶାଲ	-2702
ାରଜ	-2703
▁ମୌ	-2704
ଫଳରେ	-2705
ଫୋରଣ	-2706
ଲକ୍ଷ	-2707
▁ଜେଲ	-2708
▁ବେଶ	-2709
▁ବ୍ଲ	-2710
▁ଭ୍ର	-2711
▁ସମୀ	-2712
▁ହେଲ	-2713
ଦେଶିକ	-2714
ପ୍ରିୟ	-2715
ଲାଦେଶ	-2716
▁ଖୋଲା	-2717
▁ପୁରୀ	-2718
▁ସୁଦୃ	-2719
▁ସୁପର	-2720
▁ଅଞ୍ଚଳ	-2721
▁ପ୍ରେମ	-2722
▁ଆସନ୍ତୁ	-2723
▁କାରବାର	-2724
▁ଜାମ୍ମୁ	-2725
▁ତ୍ରୁଟି	-2726
▁ସ୍ୱଚ୍ଛ	-2727
▁ଏମାନଙ୍କ	-2728
▁ଶ୍ରେଷ୍ଠ	-2729
▁ସମସ୍ୟାର	-2730
▁ଅନ୍ତର୍ଗତ	-2731
▁ନାବାଳିକା	-2732
▁ବିସ୍ଫୋରଣ	-2733
ଳୁ	-2734
ୱା	-2735
▁ଷ	-2736
ାଲୋ	-2737
▁ଆଡ	-2738
ଙ୍ଗଲ	-2739
ିକାର	-2740
▁ପହଁ	-2741
▁ବିକ	-2742
▁ସହର	-2743
ହନ୍ତୁ	-2744
▁ଦାୟୀ	-2745
▁ପରିବ	-2746
▁ପାରୁ	-2747
▁ପିତା	-2748
▁ଗାଁରେ	-2749
▁ଚେନ୍ନ	-2750
▁ଦୁହିଁ	-2751
▁ଦୁହେଁ	-2752
୍ୟ୍ଯନ୍ତ	-2753
▁ପୁରୁଣା	-2754
▁ବାବଦରେ	-2755
▁ଆପଣଙ୍କର	-2756
▁ଆପଣମାନେ	-2757
▁କରିପାରି	-2758
▁କୋବିନ୍ଦ	-2759
▁ଗଣମାଧ୍ୟ	-2760
ତଃ	-2761
ୟୀ	-2762
ଦାୟ	-2763
ଲ୍ଡ	-2764
▁ଇର	-2765
▁ରୂ	-2766
▁ଲଢ	-2767
ବିନେ	-2768
ାଯୋଗ	-2769
ୀକାର	-2770
▁ତୈଳ	-2771
▁ମତ୍	-2772
▁ଖରାପ	-2773
▁ଖାରଜ	-2774
▁ଖାଲି	-2775
▁ଚିଠି	-2776
▁ବିଜୁ	-2777
▁ଏକାଠି	-2778
▁ଦେଖାଯ	-2779
▁ଆସନ୍ତା	-2780
▁ଜଣଙ୍କର	-2781
▁ନିଆଁକୁ	-2782
▁ସଂକଳ୍ପ	-2783
▁ବିରୁଦ୍ଧ	-2784
▁ରହିଥିଲେ	-2785
▁ପ୍ରତିବାଦ	-2786
▁ପ୍ରତିଶ୍ର	-2787
▁ସମ୍ପୃକ୍ତ	-2788
▁ହୋଇପାରିବ	-2789
▁ଆଶ୍ଚର୍ଯ୍ୟ	-2790
▁କାର୍ଯ୍ୟାଳୟ	-2791
▁ଦିଆଯାଇଥିଲା	-2792
ic	-2793
ସମ	-2794
▁୬	-2795
ଟିର	-2796
ହେବ	-2797
ାମେ	-2798
▁ଶତ	-2799
ଥିବେ	-2800
▁ଫଳା	-2801
▁ବରଂ	-2802
▁ଯଥା	-2803
କ୍ରିୟ	-2804
ଞ୍ଜଳି	-2805
ନ୍ଧ୍ର	-2806
ବିଧାନ	-2807
▁ନୁହଁ	-2808
▁ପ୍ଲା	-2809
▁ଶାହା	-2810
ସାରିଛି	-2811
▁ପଣ୍ଡା	-2812
▁ପଠାଇଛି	-2813
▁ଚର୍ଚ୍ଚା	-2814
▁ସଂପୃକ୍ତ	-2815
▁ଆମେରିକାର	-2816
▁କ୍ୟାବିନେ	-2817
▁ବାଂଲାଦେଶ	-2818
▁ଯେଉଁଥିରେ	-2819
▁ଅର୍ଥମନ୍ତ୍ରୀ	-2820
▁ଉତ୍ତରପ୍ରଦେଶ	-2821
▁କର୍ତ୍ତୃପକ୍ଷ	-2822
▁କେନ୍ଦ୍ରମନ୍ତ୍ରୀ	-2823
ରୂପ	-2824
▁ଜୋ	-2825
▁ଟା	-2826
▁ହସ	-2827
▁ଦ୍ଵ	-2828
▁ଭୋଟ	-2829
▁ମୂଳ	-2830
ଦୀଙ୍କ	-2831
▁2018	-2832
▁ଅଟକି	-2833
▁ଆକାଉ	-2834
▁ସଞ୍ଜ	-2835
▁ଚିନ୍ତ	-2836
▁ଜିନିଷ	-2837
▁ମୃତ୍ୟ	-2838
▁ଯୋଗାଣ	-2839
▁ଶୃଙ୍ଖ	-2840
▁ଆନ୍ଧ୍ର	-2841
▁ପଡ଼ିଛି	-2842
▁ରାତିରେ	-2843
▁ହେବାରୁ	-2844
▁ହୋଇଯିବ	-2845
▁କ୍ରିକେଟ	-2846
▁ଚେନ୍ନାଇ	-2847
▁ପାରିବାର	-2848
▁ବିଶ୍ୱରେ	-2849
▁ସୁଶାନ୍ତ	-2850
▁ଜନସାଧାରଣ	-2851
▁ପର୍ଯ୍ୟାୟ	-2852
▁ପର୍ୟ୍ଯନ୍ତ	-2853
ସଲ	-2854
▁8	-2855
ତ୍ନ	-2856
▁ଚୌ	-2857
କ୍ତା	-2858
ବାଦୀ	-2859
ଲମ୍ବ	-2860
ସ୍ତି	-2861
ୀକରଣ	-2862
▁ଦୀପ	-2863
▁ଶାସ	-2864
ନ୍ଧାନ	-2865
ବେେଳେ	-2866
▁ଅଲଗା	-2867
▁ଷ୍ଟା	-2868
▁ଅକ୍ଷୟ	-2869
▁ଟ୍ରେନ	-2870
▁ପାଣ୍ଡ	-2871
▁ସମାଲୋ	-2872
ପାକ୍ଷିକ	-2873
▁ତାଲିକା	-2874
▁ବିଭାଗୀୟ	-2875
▁ରାସ୍ତାରେ	-2876
▁ବ୍ୟକ୍ତିଙ୍କ	-2877
▁ଭିତ୍ତିଭୂମି	-2878
▁ପରମେଶ୍ବରଙ୍କ	-2879
▁୮	-2880
-19	-2881
ତିଶ	-2882
ମକଳ	-2883
ଳାପ	-2884
ୃତା	-2885
ୋଜନ	-2886
▁ଅଦ	-2887
▁ଆଣ	-2888
▁ଲୋ	-2889
▁ସଶ	-2890
ସ୍ତୁ	-2891
୍ରାମ	-2892
▁ଉପା	-2893
▁ଠିକ	-2894
▁ତିନ	-2895
▁ସୂଚ	-2896
ଙ୍ଗରେ	-2897
ଧୁନିକ	-2898
ଭାଗ୍ୟ	-2899
▁ଅଭିବ	-2900
▁ଆଇପି	-2901
▁ଦମକଳ	-2902
▁ବ୍ରି	-2903
▁ମଣ୍ଡ	-2904
▁ଯିବା	-2905
▁ରାଜି	-2906
▁ସଂସଦ	-2907
▁ପ୍ରଭୁ	-2908
▁ଫଳାଫଳ	-2909
▁ବନ୍ୟା	-2910
▁ସ୍ୱପ୍	-2911
▁ଗୁରୁତ୍	-2912
▁ପରିଶ୍ର	-2913
▁ପାରିବେ	-2914
▁ବ୍ୟକ୍ତ	-2915
▁ମିଳିବା	-2916
▁ଅନୁସନ୍ଧାନ	-2917
▁ପାରିବାରିକ	-2918
▁ସମାନଙ୍କେର	-2919
▁ଅନ୍ତର୍ଜାତୀୟ	-2920
▁ପ୍ରତିଶ୍ରୁତି	-2921
ଥେ	-2922
ଭ୍	-2923
ହୀନ	-2924
ୋହନ	-2925
ୋହର	-2926
▁ହା	-2927
କ୍ରି	-2928
▁ଆଖି	-2929
▁ତଳେ	-2930
ଜ୍ଞାନ	-2931
ମୁଖ୍ୟ	-2932
ଳନାରେ	-2933
▁ଆସିବ	-2934
▁ଚୀନ୍	-2935
▁ଛତିଶ	-2936
▁ଛାଡି	-2937
▁ବଜାୟ	-2938
▁ଭଦ୍ର	-2939
▁ନଥିବା	-2940
▁ଫେରାର	-2941
▁ରାଜୀବ	-2942
▁ସୋନିଆ	-2943
▁ଅପରେସନ	-2944
▁ଉପସ୍ଥା	-2945
▁ଜଣାଉଛି	-2946
▁ନେବାକୁ	-2947
▁ପ୍ରସାଦ	-2948
▁ରେକର୍ଡ	-2949
▁ରେଳବାଇ	-2950
▁ସ୍ତରରେ	-2951
ବାସୀଙ୍କୁ	-2952
▁ରଖିବାକୁ	-2953
▁କେନ୍ଦ୍ରାପ	-2954
▁ମିଳିନାହିଁ	-2955
st	-2956
ନୋ	-2957
ଏଫ୍	-2958
ଦେବ	-2959
ାଲୁ	-2960
ୁରୀ	-2961
▁ଏଇ	-2962
▁ଜୁ	-2963
▁ଇନ୍	-2964
▁ଦୃଢ	-2965
▁ପଶୁ	-2966
▁ପାନ	-2967
▁ଫ୍ର	-2968
▁ବାହ	-2969
▁ଯାନ	-2970
▁ରାଉ	-2971
▁ଶତା	-2972
▁ଆଜିର	-2973
▁ଆଦେଶ	-2974
▁ଟ୍ରକ	-2975
▁ଧାରଣ	-2976
▁ମହାନ	-2977
ତବେେଳେ	-2978
▁ବିକ୍ଷ	-2979
▁ବିରାଟ	-2980
▁ମୁହାଁ	-2981
▁ସିଦ୍ଧ	-2982
▁ଉଭୟଙ୍କ	-2983
▁ଗସ୍ତରେ	-2984
▁ତିନୋଟି	-2985
▁ମାନସିକ	-2986
▁ସାଥୀଗଣ	-2987
▁ହିନ୍ଦୀ	-2988
▁ପୀଡ଼ିତା	-2989
▁ବାହାରକୁ	-2990
▁ଯୋଗାଯୋଗ	-2991
▁ଆକ୍ରମଣରେ	-2992
▁ଦୃଷ୍ଟିରେ	-2993
▁ନିଆଯାଇଛି	-2994
▁ଲୋକପ୍ରିୟ	-2995
▁ସଂକ୍ରାନ୍ତ	-2996
▁ସୁନିଶ୍ଚିତ	-2997
▁ସ୍ବାସ୍ଥ୍ୟ	-2998
▁ଡାକ୍ତରଖାନା	-2999
▁ପର୍ଯ୍ୟାୟରେ	-3000
▁ମଧ୍ୟପ୍ରଦେଶ	-3001
▁ଅଧ୍ୟକ୍ଷତାରେ	-3002
ଘୁ	-3003
ଟୱ	-3004
କ୍ଟ	-3005
ଜ୍ଜ	-3006
ଲାଣ	-3007
▁ଅଣ	-3008
▁ଗଠ	-3009
▁ଧୋ	-3010
▁ବୀ	-3011
ଣ୍ଟା	-3012
ାଇବେ	-3013
▁ଏଥର	-3014
▁ପଦକ	-3015
▁ସ୍ବ	-3016
ଲ୍ଲୀର	-3017
ିକାରେ	-3018
▁ଅଙ୍ଗ	-3019
▁କାନ୍	-3020
▁ପ୍ରଚ	-3021
▁ମନରେ	-3022
▁ମିଳୁ	-3023
▁ସକାଳ	-3024
▁ଉତ୍ସା	-3025
▁ଉପକରଣ	-3026
▁ଏମାନେ	-3027
▁ପିନ୍ଧ	-3028
▁ରୋହିତ	-3029
▁ସମ୍ପା	-3030
▁ବିଳମ୍ବ	-3031
▁ମତ୍ସ୍ୟ	-3032
▁ମହମ୍ମଦ	-3033
▁ନିର୍ଦେଶ	-3034
▁ପ୍ରକାରର	-3035
▁ବିକ୍ଷୋଭ	-3036
▁ମୋଦୀଙ୍କ	-3037
▁ସାମ୍ନାକୁ	-3038
▁ଶ୍ରଦ୍ଧାଞ୍ଜଳି	-3039
ବୁଲ	-3040
ଶେଷ	-3041
ାପନ	-3042
୍ୱେ	-3043
▁ଅମ	-3044
▁ଦଶ	-3045
▁ପଳ	-3046
ଡ଼ିଆ	-3047
ଡିକୁ	-3048
ନ୍ଦି	-3049
ପାଖି	-3050
ହେରା	-3051
▁ଆମ୍	-3052
▁ଦିଅ	-3053
▁ବଢି	-3054
▁ଯିଏ	-3055
କମାନେ	-3056
ତୁମ୍ଭ	-3057
ଦର୍ଶନ	-3058
ମେଣ୍ଟ	-3059
ଶକ୍ତି	-3060
ାତ୍ମକ	-3061
▁କୋଲକ	-3062
▁ଚାଲୁ	-3063
▁ଦଣ୍ଡ	-3064
▁ପାଖା	-3065
▁ବିବେ	-3066
▁ସହିଦ	-3067
▁ସାହୁ	-3068
▁କହିବା	-3069
▁ଜଙ୍ଗଲ	-3070
▁ନେଇଛି	-3071
▁ବାଧ୍ୟ	-3072
▁ରାଜନୀ	-3073
▁ସଲମାନ	-3074
▁କେଉଁଠି	-3075
▁ମିଳୁଛି	-3076
▁ବୈଦେଶିକ	-3077
▁ମହାନ୍ତି	-3078
▁ସମୀକ୍ଷା	-3079
▁ଅଭିଯୋଗକୁ	-3080
▁ଜିଲ୍ଲାପାଳ	-3081
▁9	-3082
ସାମ	-3083
▁ଝା	-3084
କାଶ୍	-3085
ଜ୍ଞା	-3086
ପ୍ରସ	-3087
ଲ୍ଲା	-3088
ାବରଣ	-3089
ିକରଣ	-3090
▁ଆନୁ	-3091
▁ଇଂଲ	-3092
▁ଜାଗ	-3093
▁ଟୁଇ	-3094
▁ଉଲ୍ଲ	-3095
▁ଓଡିଶ	-3096
▁ବିଲ୍	-3097
▁ମଞ୍ଜ	-3098
▁ସଡ଼କ	-3099
▁ଇଚ୍ଛା	-3100
▁କୋହଲି	-3101
▁ବାରମ୍	-3102
▁ବ୍ରହ୍	-3103
▁ଯୋଡ଼ି	-3104
କାଶ୍ମୀର	-3105
▁ଆଦିତ୍ୟ	-3106
▁ଉନ୍ନୟନ	-3107
▁କମିଶନର	-3108
▁ଚତୁର୍ଥ	-3109
▁ଟ୍ରେନ୍	-3110
▁ଏଥିସହିତ	-3111
▁ପରିବାରର	-3112
▁ପୁଲିସକୁ	-3113
▁ବିଦ୍ୟୁତ	-3114
▁ମୃତ୍ୟୁର	-3115
▁ସେହିଭଳି	-3116
▁ଅଭିଯୋଗରେ	-3117
▁ଆସିଛନ୍ତି	-3118
▁ସମାଲୋଚନା	-3119
▁ସ୍ୱାଧୀନତା	-3120
▁ସମ୍ମିଳନୀରେ	-3121
▁ଛାତ୍ରଛାତ୍ରୀଙ୍କ	-3122
▁ମୁଖ୍ୟମନ୍ତ୍ରୀଙ୍କ	-3123
୍ସ	-3124
▁”	-3125
ଗରେ	-3126
ନ୍ୟ	-3127
ଭ୍ୟ	-3128
ଯୋଜ	-3129
ସ୍ପ	-3130
୍କି	-3131
▁ଶେ	-3132
ଦାନୀ	-3133
▁ଗୀତ	-3134
▁ବହି	-3135
▁ମାଆ	-3136
▁ଅଳ୍ପ	-3137
▁ସିରି	-3138
▁ପଚାରି	-3139
▁ସକ୍ଷମ	-3140
କ୍ଷେତ୍ର	-3141
▁ପରିବହନ	-3142
▁ଯିବାକୁ	-3143
▁ସୁଦୃଢ଼	-3144
▁ହୋଇଗଲା	-3145
▁ବିଜେପିକୁ	-3146
▁ଆହତମାନଙ୍କୁ	-3147
▁ଦ୍ୱିପାକ୍ଷିକ	-3148
ଇଁ	-3149
ରୋ	-3150
▁O	-3151
▁ଗଛ	-3152
▁ଭଗ	-3153
୍ଷିକ	-3154
▁ଅବର	-3155
▁ଯାଏ	-3156
▁ସଂଶ	-3157
ପୁରରେ	-3158
ପୂର୍ବ	-3159
ମ୍ଭୀର	-3160
▁ଇଣ୍ଡ	-3161
▁ଏକଥା	-3162
▁ଟ୍ୟା	-3163
▁ପୁନଃ	-3164
▁ପୂଜା	-3165
▁ବଦଳି	-3166
▁ବାଇକ	-3167
▁ଯୁବତ	-3168
▁ସମର୍	-3169
▁ଅତ୍ୟା	-3170
▁କିଭଳି	-3171
▁ଦିନଟି	-3172
▁ଅଂଚଳରେ	-3173
▁ଅସ୍ତ୍ର	-3174
▁ରାମନାଥ	-3175
▁ସକ୍ରିୟ	-3176
▁ଉଭୟଙ୍କୁ	-3177
▁ଓଡ଼ିଶାର	-3178
▁ତାମିଲନା	-3179
▁ପୁଣିଥରେ	-3180
▁ବାତାବରଣ	-3181
▁ପରିବାରରେ	-3182
▁ପର୍ଯ୍ୟଟନ	-3183
▁ବିଜେପିରେ	-3184
▁ସଂଖ୍ୟାରେ	-3185
▁ଅଭିବୃଦ୍ଧି	-3186
▁କେନ୍ଦ୍ରରେ	-3187
▁ଦେଖାଦେଇଛି	-3188
ାଭ	-3189
▁-	-3190
କେଶ	-3191
ଳିତ	-3192
ୁରା	-3193
▁10	-3194
▁ବୌ	-3195
ଜୀବୀ	-3196
ଟିରେ	-3197
ଥିଲୁ	-3198
ାଯିବ	-3199
▁କୃତ	-3200
▁କୌଶ	-3201
▁ଗଲେ	-3202
▁ଡ଼ା	-3203
▁ଦାଉ	-3204
▁ଲଢ଼	-3205
ଞ୍ଜାମ	-3206
ୋଜଗାର	-3207
▁କ୍ଷୟ	-3208
▁ଟିକସ	-3209
▁ଧୀରେ	-3210
▁ବୁଝି	-3211
ସିଟିଭି	-3212
▁ଅବରୋଧ	-3213
▁ଆସୁଛି	-3214
▁କମିଶନ	-3215
▁କାର୍ଡ	-3216
▁ଜୀବନର	-3217
▁ଧକ୍କା	-3218
▁ବିଶ୍ଵ	-3219
▁ହରିୟା	-3220
▁ଉତ୍ପାଦ	-3221
▁କାହାଣୀ	-3222
▁ନିୟମିତ	-3223
▁ପୋଲିସର	-3224
▁ବାସ୍ତବ	-3225
▁ଯୋଗଦାନ	-3226
▁ସେଠାରୁ	-3227
▁ଡିଜିଟାଲ	-3228
▁ତୁଳନାରେ	-3229
▁ପେଟ୍ରୋଲ	-3230
▁ସଂକ୍ରମଣ	-3231
▁ପାଖାପାଖି	-3232
▁ବାରମ୍ବାର	-3233
▁ମାତ୍ରାରେ	-3234
▁ଯାଉଛନ୍ତି	-3235
▁ସିସିଟିଭି	-3236
▁କୁହାଯାଉଛି	-3237
▁ମନ୍ତ୍ରାଳୟ	-3238
ଜୀ	-3239
ପଦ	-3240
ମତ	-3241
ଗଲେ	-3242
ଡ଼େ	-3243
ାଗର	-3244
ୟିକ	-3245
▁ପ୍	-3246
▁ସଠ	-3247
▁୨୦	-3248
ଗିରି	-3249
ଡ଼ିତ	-3250
ବ୍ୟା	-3251
ରାଲ୍	-3252
ଲାଣି	-3253
ୀତାର	-3254
▁ଉପୁ	-3255
▁ଝାର	-3256
▁ବିଲ	-3257
▁ପୁରା	-3258
▁ଆଣିବା	-3259
▁ଖାଇବା	-3260
▁ନମ୍ବର	-3261
▁ପାଲଟି	-3262
▁ପ୍ରଦୂ	-3263
▁ମୁକ୍ତ	-3264
▁ରଣବୀର	-3265
▁ସ୍ମରଣ	-3266
▁ଦକ୍ଷତା	-3267
▁ପ୍ରୟୋଗ	-3268
▁କୋର୍ଟରେ	-3269
▁କ୍ରୀଡ଼ା	-3270
▁ବାଲେଶ୍ୱର	-3271
▁ପ୍ରୋତ୍ସାହନ	-3272
ଯିବ	-3273
ରହି	-3274
ଶିତ	-3275
▁ଜଗ	-3276
▁ମୟ	-3277
ପରିକ	-3278
ରଙ୍କ	-3279
ଳ୍ପର	-3280
▁କେଶ	-3281
▁ଜିତ	-3282
▁ପିଇ	-3283
▁ଫରେ	-3284
▁ବଳି	-3285
▁ଭୁଲ	-3286
▁ସୌର	-3287
▁ହେଇ	-3288
ଲାଣ୍ଡ	-3289
▁ଅଶୋକ	-3290
▁ବାତି	-3291
▁ଭାଷା	-3292
▁ମାଡ଼	-3293
▁ରାତି	-3294
▁ଉତ୍ସବ	-3295
▁ଜାପାନ	-3296
▁ପହଞ୍ଚ	-3297
▁ପାତ୍ର	-3298
▁ବୌଦ୍ଧ	-3299
▁ଭଦ୍ରକ	-3300
▁ଲିଖିତ	-3301
▁ସଶକ୍ତ	-3302
▁ସୀତାର	-3303
▁ଅଧିବେଶ	-3304
▁ଜୋରଦାର	-3305
▁ନିକଟକୁ	-3306
▁ପ୍ରଗତି	-3307
▁ରାଜଧାନ	-3308
▁ସଂଗ୍ରହ	-3309
▁ଜଷ୍ଟିସ୍	-3310
▁ପ୍ରାପ୍ତ	-3311
▁ମୋଦିଙ୍କୁ	-3312
▁ଚିକିତ୍ସାଳୟରେ	-3313
ଝର	-3314
ଟୁ	-3315
ୋଦ	-3316
ଭାଇ	-3317
ୟୋଗ	-3318
▁ଏତ	-3319
▁ପଢ	-3320
ିକ୍ସ	-3321
▁ଓ୍ଵ	-3322
▁ଗରମ	-3323
▁ନେଉ	-3324
▁ମହେ	-3325
▁ମିଥ	-3326
କାଳୀନ	-3327
କ୍ଷତି	-3328
ଷ୍ଟିକ	-3329
ାଇଥାଏ	-3330
▁ଆଲୋକ	-3331
▁ତୁମେ	-3332
▁ପଟେଲ	-3333
▁ପ୍ରଣ	-3334
▁ବାହା	-3335
▁ସୁନା	-3336
▁ଅସୁବି	-3337
▁ଉପରକୁ	-3338
▁ଏଥିରୁ	-3339
▁କାମନା	-3340
▁ପାଞ୍ଚ	-3341
▁ଭଗବାନ	-3342
▁ମୁଣ୍ଡ	-3343
▁ସହଭାଗ	-3344
ୂର୍ତ୍ତି	-3345
▁ଇଂଲଣ୍ଡ	-3346
▁କହନ୍ତି	-3347
▁ଘଟଣାଟି	-3348
▁ପାଣିରେ	-3349
▁ପୁଞ୍ଜି	-3350
▁ବର୍ଣ୍ଣ	-3351
▁ରାଜନାଥ	-3352
▁ପୂର୍ଣ୍ଣ	-3353
▁ରହିବାକୁ	-3354
▁କ୍ଷୟକ୍ଷତି	-3355
▁ଗାନ୍ଧୀଙ୍କ	-3356
▁ଚିକିତ୍ସିତ	-3357
▁ନିରାପତ୍ତା	-3358
▁ପ୍ରିୟଙ୍କା	-3359
▁ଅନ୍ୟପକ୍ଷରେ	-3360
▁ସଦାପ୍ରଭୁଙ୍କ	-3361
▁ଅଭିଯୁକ୍ତଙ୍କୁ	-3362
କୌ	-3363
େଶ	-3364
▁S	-3365
ପୁଳ	-3366
ଫରେ	-3367
ବରଣ	-3368
ରଣର	-3369
ଟାମି	-3370
ଟ୍ରେ	-3371
ଦାରୀ	-3372
ପ୍ତି	-3373
ମଧ୍ୟ	-3374
ମ୍ପି	-3375
ହାତି	-3376
ାନ୍ଦ	-3377
ୋଜିତ	-3378
▁ଆଫଗ	-3379
▁ଧାର	-3380
▁ନାଇ	-3381
▁ଯାତ	-3382
ଠାକାର	-3383
ଶ୍ୱାସ	-3384
ସ୍ଥାର	-3385
▁2017	-3386
▁ଆକାର	-3387
▁ଉପାୟ	-3388
▁ତ୍ରି	-3389
▁ମମତା	-3390
▁ଶିଖର	-3391
▁ସମାର	-3392
▁ହରାଇ	-3393
ଙ୍ଗପୁର	-3394
େନ୍ଦ୍ର	-3395
▁ଆଗ୍ରହ	-3396
▁ଆୟତ୍ତ	-3397
▁ଇଣ୍ଟର	-3398
▁କାମରେ	-3399
▁ଗୁଡିକ	-3400
▁ନାମରେ	-3401
▁ପରିସର	-3402
▁ବିପୁଳ	-3403
▁ସ୍ଥିତ	-3404
କାରୀଙ୍କ	-3405
ବାସୀଙ୍କ	-3406
ସିଂହପୁର	-3407
▁କଥାବାର	-3408
▁ଗଞ୍ଜାମ	-3409
▁ଯନ୍ତ୍ର	-3410
▁ଯୋଗଦେଇ	-3411
▁ଯୋଜନାର	-3412
▁ରଖନ୍ତୁ	-3413
▁ପାଇଥିଲା	-3414
▁ପ୍ରତ୍ୟା	-3415
▁ବିଶ୍ବାସ	-3416
▁ମହାମାରୀ	-3417
▁ସ୍ୱୀକାର	-3418
▁ହତ୍ୟାକା	-3419
▁ଅଂଶଗ୍ରହଣ	-3420
▁କ୍ରିକେଟ୍	-3421
▁ପ୍ରଶିକ୍ଷ	-3422
▁ପ୍ରତିଯୋଗିତ	-3423
କୀ	-3424
ଠୋର	-3425
ଣାର	-3426
ତ୍ଯ	-3427
ତ୍ୱ	-3428
ରଣା	-3429
ିକି	-3430
▁50	-3431
▁ଛୁ	-3432
▁ଥା	-3433
▁ନର	-3434
▁ଶୋ	-3435
▁ହଠ	-3436
କିଛି	-3437
ଠାକୁ	-3438
ଦାତା	-3439
ନ୍ତୀ	-3440
ସିବି	-3441
ାତିକ	-3442
▁ଟସ୍	-3443
▁ଧୋଇ	-3444
▁ହୁଅ	-3445
ଥେଷ୍ଟ	-3446
ମାନ୍ୟ	-3447
ରିତ୍ର	-3448
ାମୂଳକ	-3449
୍ୟାନ୍	-3450
▁ଅବଗତ	-3451
▁ଆଣ୍ଡ	-3452
▁ଖୋର୍	-3453
▁ଡିଜେ	-3454
▁ମିଶନ	-3455
ନ୍ତବ୍ୟ	-3456
▁କରିଛୁ	-3457
▁ଜଡ଼ିତ	-3458
▁ଟ୍ରାଫ	-3459
▁ନିମ୍ନ	-3460
▁ପରଲୋକ	-3461
▁ପରିଣତ	-3462
▁ମେଣ୍ଟ	-3463
▁ଶୀର୍ଷ	-3464
▁କେନ୍ଦୁ	-3465
▁ଗମ୍ଭୀର	-3466
▁ମହାକାଶ	-3467
▁ଯାଜପୁର	-3468
▁ଆସୁଥିବା	-3469
▁ଦିଲ୍ଲୀର	-3470
▁ପରିଶ୍ରମ	-3471
▁ପ୍ରଦୂଷଣ	-3472
▁ଫିଲ୍ମଟି	-3473
▁ମୁହାଁମୁ	-3474
▁ରାସ୍ତାର	-3475
▁ଗଣତନ୍ତ୍ର	-3476
▁ମୁଖପାତ୍ର	-3477
▁ଯାହାଫଳରେ	-3478
▁ସ୍ଥିତିରେ	-3479
▁ବ୍ୟବସ୍ଥାକୁ	-3480
▁ଡାକ୍ତରଖାନାକୁ	-3481
▁ମହାରାଷ୍ଟ୍ରରେ	-3482
ଳଖ	-3483
▁୭	-3484
ame	-3485
ଆସି	-3486
କାମ	-3487
ଜିଲ	-3488
ପୀଠ	-3489
ବ୍ଦ	-3490
ଭୂତ	-3491
ରାମ	-3492
ରୀଣ	-3493
ଳିଆ	-3494
ୱାଲ	-3495
▁ଆଖ	-3496
▁ପଡ	-3497
ଚ୍ଚନ	-3498
ଚ୍ୟୁ	-3499
ଧାରା	-3500
ବନ୍ଧ	-3501
ୋଗ୍ୟ	-3502
ୋଧିତ	-3503
▁ଆୟୁ	-3504
▁ଧମକ	-3505
▁ପଢ଼	-3506
▁ପାଟ	-3507
▁ପାଦ	-3508
▁ସରି	-3509
▁ସୁଧ	-3510
ଶିକ୍ଷ	-3511
ାର୍ଥୀ	-3512
▁ଆଗରେ	-3513
▁ଗ୍ରୁ	-3514
▁ଠାରେ	-3515
▁ପ୍ୟା	-3516
▁ବଞ୍ଚ	-3517
▁ବିଗତ	-3518
▁ମୃତା	-3519
▁ଶବକୁ	-3520
▁ଅନଲାଇ	-3521
▁ଗତିରେ	-3522
▁ଜାମିନ	-3523
▁ଦର୍ଶନ	-3524
▁ଦେଶକୁ	-3525
▁ବଚ୍ଚନ	-3526
▁ବର୍ଷର	-3527
ର୍ଜାତିକ	-3528
▁ଆମଦାନୀ	-3529
▁ଗୁଜରାଟ	-3530
▁ରୋଜଗାର	-3531
▁ସନ୍ଧ୍ୟ	-3532
▁ଅସୁବିଧା	-3533
▁ତାହାଙ୍କ	-3534
▁ଦୁର୍ନୀତି	-3535
▁ଯାଇଛନ୍ତି	-3536
▁ସମ୍ପତ୍ତି	-3537
▁ଅର୍ଥନୈତିକ	-3538
▁ହସ୍ତାନ୍ତର	-3539
▁ନିଆଯାଇଥିଲା	-3540
▁ମୁହାଁମୁହିଁ	-3541
▁କରାଯାଇପାରିବ	-3542
ଲୱ	-3543
ାକ	-3544
ିବେ	-3545
▁19	-3546
▁ଓଲ	-3547
▁କୈ	-3548
▁ଛି	-3549
▁ହଟ	-3550
▁୧୫	-3551
ଣ୍ଠି	-3552
ନ୍ତର	-3553
ମିଟର	-3554
ମୋହନ	-3555
▁ଏମ୍	-3556
▁କମା	-3557
▁ଦବେ	-3558
▁ଧର୍	-3559
▁ପିଆ	-3560
▁ପୀଡ	-3561
▁ଶୁଣ	-3562
▁ସକା	-3563
▁ଇମ୍ର	-3564
▁କରାଗ	-3565
▁ଗ୍ୟା	-3566
▁ଧାରା	-3567
▁ନେବେ	-3568
▁ଶତ୍ର	-3569
▁ଅଫିସର	-3570
▁ଏତିକି	-3571
▁କାହାର	-3572
▁ପୃଷ୍ଠ	-3573
▁ପ୍ରାଚ	-3574
▁ବାଇକ୍	-3575
▁ମତଦାନ	-3576
▁ମାସରେ	-3577
▁ରୂପରେ	-3578
▁ଲେଖାଏ	-3579
▁ସହରରେ	-3580
ଜ୍ଞାନିକ	-3581
▁ଏହିପରି	-3582
▁ଦେଖିବା	-3583
▁ପ୍ରସାର	-3584
▁ବଲିଉଡ୍	-3585
▁ବିକଶିତ	-3586
▁ବ୍ୟସ୍ତ	-3587
▁ଭିଟାମି	-3588
▁ଖଣ୍ଡପୀଠ	-3589
▁ନେଇଥିଲା	-3590
▁ନେତାଙ୍କ	-3591
▁ପ୍ରେରଣା	-3592
▁ଯୁବକଙ୍କ	-3593
▁ସୀତାରମଣ	-3594
▁ହାଇଦ୍ରା	-3595
▁କେନ୍ଦୁଝର	-3596
▁ତାଲିକାରେ	-3597
▁ପ୍ରାରମ୍ଭ	-3598
▁ବିପର୍ଯ୍ୟ	-3599
▁ସୂଚନାଯୋଗ୍ୟ	-3600
▁କେନ୍ଦ୍ରାପଡ଼ା	-3601
ଫାଇ	-3602
ମାଳ	-3603
ଯାବ	-3604
ରେଇ	-3605
ହାଜ	-3606
▁ନୋ	-3607
▁ହଳ	-3608
କ୍ସି	-3609
ତାବକ	-3610
ତ୍ମକ	-3611
ପ୍ରା	-3612
୍କାର	-3613
▁ଦୟା	-3614
▁ବହନ	-3615
▁ସାଉ	-3616
▁ସେଇ	-3617
ମାତ୍ର	-3618
ାର୍ଜୀ	-3619
▁କରାଇ	-3620
▁କିଣି	-3621
▁ଡୋନା	-3622
▁ଦାଉଦ	-3623
▁ନେଲେ	-3624
▁ବାକି	-3625
ାଉଥିବା	-3626
▁ଆସନରେ	-3627
▁ଚାଲାଣ	-3628
▁ଚାହିଁ	-3629
▁ଦର୍ଶକ	-3630
▁ପ୍ରଫେ	-3631
▁ବୋର୍ଡ	-3632
▁ଲକ୍ଷ୍	-3633
▁ସମ୍ବଳ	-3634
▁ସାଙ୍ଗ	-3635
▁ହିଂସା	-3636
ଦ୍ଧାରିତ	-3637
▁ଅନୁମାନ	-3638
▁ଅମିତାଭ	-3639
▁ଉଦଘାଟନ	-3640
▁ଚୁକ୍ତି	-3641
▁ପ୍ରଶଂସ	-3642
▁ସନ୍ତୋଷ	-3643
▁ସମାରୋହ	-3644
▁ସର୍ବଦା	-3645
▁ଇଣ୍ଡିଆର	-3646
▁ନିର୍ମଳା	-3647
▁ନିର୍ମିତ	-3648
▁ନିୟୋଜିତ	-3649
▁ଭାଇରାଲ୍	-3650
▁ଯୋଜନାରେ	-3651
▁ସ୍ମାର୍ଟ	-3652
▁ଅର୍ଥନୀତି	-3653
▁କ୍ରିକେଟର	-3654
▁ପ୍ରକଳ୍ପର	-3655
▁ମହାପାତ୍ର	-3656
▁ସମ୍ବିଧାନ	-3657
▁ପ୍ରାର୍ଥନା	-3658
▁ବ୍ୟକ୍ତିଗତ	-3659
▁ହାଇଦ୍ରାବାଦ	-3660
▁ଆନ୍ତର୍ଜାତିକ	-3661
▁ଚିକିତ୍ସାଧୀନ	-3662
ହର	-3663
ୀପ	-3664
ଜନୀ	-3665
ତୟନ	-3666
ଧାସ	-3667
ହେି	-3668
ିରେ	-3669
▁15	-3670
▁ଅଥ	-3671
▁ଚୂ	-3672
▁ଫର	-3673
▁୧୨	-3674
ଡିଆର	-3675
▁ଆସୁ	-3676
▁ଟିମ	-3677
▁ନବର	-3678
▁ଫୋନ	-3679
▁ଭୋଗ	-3680
▁ମରି	-3681
ଲାଙ୍ଗ	-3682
▁ଅଦାଲ	-3683
▁ଏସିଆ	-3684
▁ଜନସଂ	-3685
▁ଜନିତ	-3686
▁ଜେନେ	-3687
▁ତବେେ	-3688
▁ଦୋଷୀ	-3689
▁ନିହତ	-3690
▁ରୋଗୀ	-3691
▁ସଞ୍ଚ	-3692
ର୍ଦ୍ଧନ	-3693
ହାଣ୍ଡି	-3694
▁ଆସିଲେ	-3695
▁ଉନ୍ନତ	-3696
▁ନିଶ୍ଚ	-3697
▁ସୁଧାର	-3698
▁ହାତରେ	-3699
କର୍ତ୍ତା	-3700
▁ଅଞ୍ଚଳର	-3701
▁ଆଧାରିତ	-3702
▁ଚରିତ୍ର	-3703
▁ବିକ୍ରି	-3704
▁ବ୍ରହ୍ମ	-3705
▁ମୁତାବକ	-3706
▁ମୃତାହତ	-3707
▁ଯଥେଷ୍ଟ	-3708
▁ସର୍ଚ୍ଚ	-3709
▁ସାବଧାନ	-3710
▁ସ୍ୱପ୍ନ	-3711
ାନିସ୍ତାନ	-3712
▁ଆଫ୍ରିକା	-3713
▁ଉଦ୍ଘାଟନ	-3714
▁କାର୍ୟ୍ୟ	-3715
▁ଯାଇଥିବା	-3716
▁ଶିବସେନା	-3717
▁ଖୁବଶୀଘ୍ର	-3718
▁ଦେଉଛନ୍ତି	-3719
▁ପଡ଼ିଥିଲା	-3720
▁ବାୟୁସେନା	-3721
▁ଲାଗିଥିଲା	-3722
▁କରିଥାନ୍ତି	-3723
▁ବୈଜ୍ଞାନିକ	-3724
▁ଆପଣମାନଙ୍କୁ	-3725
▁ଗୃହମନ୍ତ୍ରୀ	-3726
▁ଘଟଣାସ୍ଥଳରୁ	-3727
▁କଥାବାର୍ତ୍ତା	-3728
▁କର୍ମଚାରୀଙ୍କ	-3729
▁କ୍ଷତିଗ୍ରସ୍ତ	-3730
▁ଛାତ୍ରଛାତ୍ରୀମାନେ	-3731
।'	-3732
ଷା	-3733
ଅରେ	-3734
ଗୁଳ	-3735
ନ୍ୱ	-3736
ାୟଣ	-3737
ୀତା	-3738
▁in	-3739
▁କବ	-3740
▁ଗଜ	-3741
ଏସଟି	-3742
କ୍ଷଣ	-3743
ବଦ୍ଧ	-3744
ଭାବେ	-3745
ଲଙ୍କ	-3746
ଲପୁର	-3747
ଲାନି	-3748
ସେବା	-3749
ସ୍ତା	-3750
େଙ୍କ	-3751
▁ଅଜୟ	-3752
▁ଆପ୍	-3753
▁ଘରୁ	-3754
▁ତାପ	-3755
▁ତ୍ୱ	-3756
▁ପଥର	-3757
▁ପଦା	-3758
▁ବଂଶ	-3759
▁ମତେ	-3760
▁ମନୁ	-3761
▁ମନୋ	-3762
▁ସାହ	-3763
▁ହକି	-3764
▁ଅନ୍ଧ	-3765
▁ଅରୁଣ	-3766
▁ଆଗେଇ	-3767
▁କିଲୋ	-3768
▁କେରଳ	-3769
▁ଗର୍ଭ	-3770
▁ବାଜି	-3771
▁ମଙ୍ଗ	-3772
▁ହାର୍	-3773
୍ରୀଷ୍ଟ	-3774
▁ଆକର୍ଷ	-3775
▁ଦୁନିଆ	-3776
▁ବଞ୍ଚି	-3777
▁ବାତିଲ	-3778
▁ବିଜୟୀ	-3779
▁ବିଦ୍ୟ	-3780
▁ଆଧୁନିକ	-3781
▁କାହାରି	-3782
▁ଜାତିସଂ	-3783
▁ମିଳିଲା	-3784
▁ସଂଶୋଧନ	-3785
▁ନିକଟସ୍ଥ	-3786
▁ବାର୍ଷିକ	-3787
▁ରଖିଥିଲେ	-3788
▁ରୁହନ୍ତୁ	-3789
▁ସାମାନ୍ୟ	-3790
▁ମିଳିଥିବା	-3791
▁ଯେତବେେଳେ	-3792
▁ବିଜ୍ଞପ୍ତି	-3793
▁ଉଦ୍ଦେଶ୍ୟରେ	-3794
▁ଜଗତସିଂହପୁର	-3795
▁ପରିବାରବର୍ଗ	-3796
ଂଘନ	-3797
କାନ	-3798
ନଗର	-3799
ସିଏ	-3800
ାବୁ	-3801
▁ଆଲ	-3802
▁ତୋ	-3803
▁ନକ	-3804
▁ରହ	-3805
ଟାଲ୍	-3806
ତ୍ମା	-3807
ଭାରତ	-3808
ଷ୍ଟର	-3809
▁ଅଣା	-3810
▁କାଗ	-3811
▁ଜମା	-3812
▁ଟାଇ	-3813
▁ଦିଆ	-3814
▁ନିଆ	-3815
▁ପଶି	-3816
▁ଫସଲ	-3817
▁ମସି	-3818
ଣ୍ଟରେ	-3819
ବୃତ୍ତ	-3820
▁ଆକାଶ	-3821
▁ଗଠିତ	-3822
▁ଘଟିବ	-3823
▁ଚ୍ୟା	-3824
▁ଟିଭି	-3825
▁ଟେଲି	-3826
▁ନୋଟି	-3827
▁ପର୍ବ	-3828
▁ଯତ୍ନ	-3829
▁ରପ୍ତ	-3830
▁ସୁଫଳ	-3831
▁ୟୁନି	-3832
କ୍ରମିତ	-3833
▁ଏଯାଏଁ	-3834
▁ଐତିହା	-3835
▁ଗ୍ରାହ	-3836
▁ଡକ୍ଟର	-3837
▁ବନ୍ଦର	-3838
▁ବେଙ୍ଗ	-3839
▁ମୁତୟନ	-3840
▁ଯୋଗଦେ	-3841
▁ଶତ୍ରୁ	-3842
▁ସଞ୍ଜୟ	-3843
▁ସୈନ୍ଯ	-3844
ଦ୍ଦିଷ୍ଟ	-3845
▁ଅଟନ୍ତି	-3846
▁ଆମେରିକ	-3847
▁ଆରୋଗ୍ୟ	-3848
▁କରାଇବା	-3849
▁କରାଯାଏ	-3850
▁ଟ୍ୱିଟ୍	-3851
▁ଥିବାରୁ	-3852
▁ଦୁର୍ବଳ	-3853
▁ଭିତରକୁ	-3854
▁ସଂଘର୍ଷ	-3855
ାଯାଇଥିଲା	-3856
▁ଅରବିନ୍ଦ	-3857
▁ଛତିଶଗଡ଼	-3858
▁ଜାଣନ୍ତୁ	-3859
▁ବନ୍ଧୁଗଣ	-3860
▁ବିଜେଡିର	-3861
▁ସ୍ୱାକ୍ଷ	-3862
▁ଐତିହାସିକ	-3863
▁କ୍ଷେତ୍ରର	-3864
▁ଚାଲିଥିବା	-3865
▁ପ୍ରକ୍ରିୟ	-3866
▁ସଂକ୍ରମିତ	-3867
▁ଇଶ୍ରାୟେଲର	-3868
▁କ୍ୟାବିନେଟ	-3869
▁ପ୍ରଶାସନିକ	-3870
▁ହସ୍ତକ୍ଷେପ	-3871
▁ହାଇକୋର୍ଟର	-3872
▁ପ୍ରତିଷ୍ଠାନ	-3873
▁ତୁମ୍ଭମାନଙ୍କୁ	-3874
ri	-3875
ଂଟ	-3876
ଚେ	-3877
ଝା	-3878
ଠୀ	-3879
ଦଶ	-3880
ଧର	-3881
ଏନ୍	-3882
ଡାଉ	-3883
ଡିଂ	-3884
ମତି	-3885
ମୃତ	-3886
ମେଶ	-3887
ଳନା	-3888
ସଲା	-3889
ାୟା	-3890
▁ଏଲ	-3891
▁ଗି	-3892
▁ରଥ	-3893
ଙ୍ଗୁ	-3894
ଡ଼ାଇ	-3895
ଣ୍ଟ୍	-3896
ଭଞ୍ଜ	-3897
▁ଆଦୌ	-3898
▁ଇସ୍	-3899
▁ଓକି	-3900
▁ଗୌର	-3901
▁ବାଟ	-3902
▁ବାଦ	-3903
▁ମାଇ	-3904
▁ମାତ	-3905
▁ରାଇ	-3906
▁ଲାଲ	-3907
▁ୱେବ	-3908
ଆନ୍ତୁ	-3909
ବେଦନା	-3910
ଭୁକ୍ତ	-3911
ଷ୍କାର	-3912
▁ଇସ୍ର	-3913
▁ଏଯାବ	-3914
▁କଠୋର	-3915
▁କାଟି	-3916
▁କୋରା	-3917
▁ଦଳରେ	-3918
▁ଧାର୍	-3919
▁ବୀମା	-3920
▁ଭାବି	-3921
▁ଭୁଲି	-3922
▁ଭୋଜନ	-3923
ସିସିଆଇ	-3924
୍ୟାଣ୍ଡ	-3925
▁ଦେଉଛି	-3926
▁ଦେବାର	-3927
▁ଧର୍ମେ	-3928
▁ନ୍ୟାୟ	-3929
▁ପରିଷଦ	-3930
▁ଫାଇଦା	-3931
▁ସେନାର	-3932
▁ଅଭିଭାବ	-3933
▁ଅସୁସ୍ଥ	-3934
▁ଇତିହାସ	-3935
▁ଏହିସବୁ	-3936
▁ଚ୍ୟାଲେ	-3937
▁ବଲିଉଡର	-3938
▁ବିକଳ୍ପ	-3939
▁ବିନିମୟ	-3940
▁ବିମାନବ	-3941
▁ବିଶ୍ୱକ	-3942
▁ଯାନବାହ	-3943
▁ରିଲିଜ୍	-3944
ମାନଙ୍କରେ	-3945
▁ଅନ୍ୟପଟେ	-3946
▁ଆହତଙ୍କୁ	-3947
▁କାର୍ୟ୍ଯ	-3948
▁କୋଲକାତା	-3949
▁ଦେଖନ୍ତୁ	-3950
▁ନିଅନ୍ତୁ	-3951
▁ମନ୍ତବ୍ୟ	-3952
▁ମାନ୍ୟତା	-3953
▁ସମ୍ପାଦକ	-3954
▁ପରିମାଣରେ	-3955
▁ପହଞ୍ଚିବା	-3956
▁ପ୍ରଭାବରେ	-3957
▁ବଢ଼ିବାରେ	-3958
▁କରାଯାଇଥାଏ	-3959
▁ପ୍ରତିବଦ୍ଧ	-3960
▁ବ୍ୟବସାୟରେ	-3961
▁ଭବିଷ୍ୟତରେ	-3962
▁ରାଜନୀତିରେ	-3963
▁ସମ୍ବନ୍ଧରେ	-3964
▁ଚାହୁଁଛନ୍ତି	-3965
▁ବ୍ୟକ୍ତିଙ୍କୁ	-3966
):	-3967
ିନ	-3968
▁C	-3969
ice	-3970
ଚରଣ	-3971
ଡିଏ	-3972
ତାପ	-3973
ନିୟ	-3974
ର୍ବ	-3975
ଳତା	-3976
ଶ୍ଵ	-3977
ାଗୁ	-3978
▁କ୍	-3979
▁ଗେ	-3980
▁ଘେ	-3981
▁୫୦	-3982
ଟରରେ	-3983
ଡ଼ରେ	-3984
ଫର୍ମ	-3985
ବରଣୀ	-3986
ମଣ୍ଡ	-3987
▁ଅଟଳ	-3988
▁କେଜ	-3989
▁ଦ୍ବ	-3990
▁ନାର	-3991
▁ପବନ	-3992
▁ପୃଥ	-3993
▁ବାମ	-3994
▁୧୦୦	-3995
କାନ୍ତ	-3996
ାଲୁରୁ	-3997
▁ଚେତା	-3998
▁ପ୍ରଭ	-3999
▁ମୃତକ	-4000
▁ଯୋଗେ	-4001
▁ରାଜପ	-4002
▁ସେତେ	-4003
ଡ଼ିକାଲ	-4004
▁ଆସିଲା	-4005
▁କରିଦେ	-4006
▁କରିବୁ	-4007
▁ଖଣ୍ଡନ	-4008
▁ଗଜପତି	-4009
▁ପର୍ବତ	-4010
▁ପହଁଚି	-4011
▁ପାନୀୟ	-4012
▁ବଜେଟ୍	-4013
▁ବୃଦ୍ଧ	-4014
▁ମଧ୍ୟମ	-4015
▁ମାସ୍କ	-4016
▁ସର୍ବୋ	-4017
▁ସହଜରେ	-4018
▁ସିଧାସ	-4019
୍ୟାସନାଲ	-4020
▁ଅନୁଗୁଳ	-4021
▁କରୁଅଛି	-4022
▁ଫାଇନାଲ	-4023
▁ବଲାଙ୍ଗ	-4024
▁ବିବରଣୀ	-4025
▁ଭାଷାରେ	-4026
▁ଶ୍ରେଣୀ	-4027
▁ସେତିକି	-4028
▁ଅର୍ଥବ୍ୟ	-4029
▁ଜାଣନ୍ତି	-4030
▁ନିରନ୍ତର	-4031
▁ପ୍ରଫେସର	-4032
▁ମହାତ୍ମା	-4033
▁ସବୁକିଛି	-4034
▁ଅନୁଧ୍ୟାନ	-4035
▁ଓଡ଼ିଶାରେ	-4036
▁କାର୍ଯ୍ୟର	-4037
▁ଦୃଷ୍ଟିରୁ	-4038
▁ପଠାଯାଇଛି	-4039
▁ବାର୍ତ୍ତା	-4040
▁ମେଡ଼ିକାଲ	-4041
▁ନେତୃତ୍ୱରେ	-4042
▁ବିରୁଦ୍ଧରେ	-4043
▁ଶକ୍ତିଶାଳୀ	-4044
▁ଧର୍ମେନ୍ଦ୍ର	-4045
▁ଆଫଗାନିସ୍ତାନ	-4046
▁ପଟ୍ଟନାୟକଙ୍କ	-4047
▁ପାକିସ୍ତାନକୁ	-4048
▁ପାକିସ୍ତାନରେ	-4049
▁ବାଧାପ୍ରାପ୍ତ	-4050
▁କର୍ମଚାରୀମାନେ	-4051
▁ମିଳିପାରିନାହିଁ	-4052
▁ରାଷ୍ଟ୍ରପତିଙ୍କ	-4053
nt	-4054
ଯୋ	-4055
ଜରେ	-4056
ଦ୍ମ	-4057
ରେଶ	-4058
୍କଟ	-4059
▁ଚଢ	-4060
▁ଦୌ	-4061
Name	-4062
ଚାଲି	-4063
ଞ୍ଚଳ	-4064
ଡ଼ିଓ	-4065
ପଡ଼ା	-4066
ବହାର	-4067
ବୋଧନ	-4068
ସନରେ	-4069
▁କ୍ୱ	-4070
▁ବିନ	-4071
▁ବୃଷ	-4072
▁ବୈଷ	-4073
▁ମଧି	-4074
▁ଲୁଣ	-4075
▁ସୁବ	-4076
କୌଣସି	-4077
ଗୁଡ଼ା	-4078
ବାହିତ	-4079
ଲମ୍ବନ	-4080
▁ଆଞ୍ଚ	-4081
▁ଆୟୋଗ	-4082
▁ଉନ୍ମ	-4083
▁ପଦରୁ	-4084
▁ପାଇଲ	-4085
▁ଲଗାଇ	-4086
▁ସତ୍ତ	-4087
▁ସାର୍	-4088
ଧ୍ୟକ୍ଷ	-4089
▁ଅଦାଲତ	-4090
▁ଅପମୃତ	-4091
▁ନାଁରେ	-4092
▁ପ୍ରସି	-4093
▁ଭିତରୁ	-4094
▁ମାନ୍ୟ	-4095
▁ସକାଳେ	-4096
▁ସୂତ୍ର	-4097
▁ଆହତଙ୍କ	-4098
▁ଉପସ୍ଥି	-4099
▁ପାଣ୍ଠି	-4100
▁ବେହେରା	-4101
▁ଭୟଙ୍କର	-4102
▁ମଧିଅରେ	-4103
▁ଲାଗୁଛି	-4104
▁ହୋଇପଡି	-4105
▁ଆଦିବାସୀ	-4106
▁ଆସିଥିବା	-4107
▁ଆସିଥିଲା	-4108
▁ଡୋନାଲ୍ଡ	-4109
▁ଧାର୍ମିକ	-4110
▁ପ୍ରଦେଶର	-4111
▁ମ୍ୟାଚରେ	-4112
▁ସଂସ୍କାର	-4113
▁ସଂସ୍ଥାନ	-4114
▁ସିଧାସଳଖ	-4115
▁ସୁପ୍ରିମ	-4116
▁ହସପିଟାଲ	-4117
▁ଅନୁଷ୍ଠାନ	-4118
▁ଅସୁବିଧାର	-4119
▁କିଲୋମିଟର	-4120
▁ଖୋର୍ଦ୍ଧା	-4121
▁ପର୍ଯ୍ୟଟକ	-4122
▁ହୋଇସାରିଛି	-4123
▁ତୁମ୍ଭମାନଙ୍କ	-4124
▁ପରିସ୍ଥିତିରେ	-4125
▁ମନ୍ତ୍ରଣାଳୟର	-4126
▁ଆନ୍ଧ୍ରପ୍ରଦେଶ	-4127
ଣେ	-4128
ଥ୍	-4129
ବୃ	-4130
ଯେ	-4131
୧୯	-4132
ist	-4133
ଏଲ୍	-4134
ଗୋଳ	-4135
ଠାେ	-4136
ଣ୍ତ	-4137
ନାମ	-4138
ପାଖ	-4139
ଲ୍ଯ	-4140
ୁରୋ	-4141
ୋଲର	-4142
୍ରୁ	-4143
▁12	-4144
▁13	-4145
▁ଶୈ	-4146
▁ସବ	-4147
▁ୱି	-4148
ଡିପି	-4149
ନ୍ସି	-4150
ବରାଦ	-4151
ବିଆଇ	-4152
ଯିବା	-4153
ିତ୍ବ	-4154
▁...	-4155
▁କଲି	-4156
▁କୋର	-4157
▁ଖାଇ	-4158
▁ଚଢ଼	-4159
▁ନିଖ	-4160
▁ବାଚ	-4161
▁ବିତ	-4162
▁ଭୟଭ	-4163
▁ସାର	-4164
▁ହାଜ	-4165
କୃତିକ	-4166
▁ଅମ୍ବ	-4167
▁କହେି	-4168
▁କୌଶଳ	-4169
▁ତହିଁ	-4170
▁ଧୋନି	-4171
▁ନେଟୱ	-4172
▁ଫୋନ୍	-4173
ତାମୂଳକ	-4174
▁ଅନନ୍ତ	-4175
▁ଇଞ୍ଜି	-4176
▁ଉପକୂଳ	-4177
▁ଓଡ଼ିଆ	-4178
▁କରିଦି	-4179
▁କର୍କଟ	-4180
▁କ୍ଷମା	-4181
▁ଗୁଜରା	-4182
▁ଟ୍ରକ୍	-4183
▁ଦୂରେଇ	-4184
▁ଦେଖାଇ	-4185
▁ପାଖକୁ	-4186
▁ମୌଳିକ	-4187
▁ରାଜପଥ	-4188
▁ସଂଗ୍ର	-4189
ଣାସ୍ତ୍ର	-4190
▁ନିବେଦନ	-4191
▁ନିର୍ଭର	-4192
▁ନ୍ୟାୟା	-4193
▁ଲେଖାଏଁ	-4194
▁ସୀମାରେ	-4195
▁ଉପଯୁକ୍ତ	-4196
▁ପାଇବାରେ	-4197
▁ସମବେଦନା	-4198
▁ସମୃଦ୍ଧି	-4199
▁ଆସୁଛନ୍ତି	-4200
▁ମହେନ୍ଦ୍ର	-4201
▁କଳାହାଣ୍ଡି	-4202
▁ବର୍ତ୍ତମାନର	-4203
▁ବିଧାନସଭାରେ	-4204
▁ସୁରକ୍ଷାକର୍ମ	-4205
ୋଣ	-4206
▁୯	-4207
ଓ୍ୱ	-4208
କେତ	-4209
ପୁଟ	-4210
ର୍ଭ	-4211
ଶୁର	-4212
ୋଜି	-4213
୍ଯା	-4214
▁ଭବ	-4215
▁ସଜ	-4216
ଜେଡି	-4217
ନଙ୍କ	-4218
ବର୍ତ	-4219
ବେଷଣ	-4220
ଳୀରେ	-4221
ହ୍ନା	-4222
▁ଅପର	-4223
▁ବାନ	-4224
▁ଶୀତ	-4225
▁ଶୋଇ	-4226
▁ସଫା	-4227
ଜ୍ଞତା	-4228
ସ୍ପତି	-4229
ାମେରା	-4230
ାର୍ଗେ	-4231
▁ଅସ୍ପ	-4232
▁ଇରାନ	-4233
▁ଉଠାଇ	-4234
▁କନ୍ଧ	-4235
▁ଖୋଜା	-4236
▁ଗର୍ବ	-4237
▁ଚାହି	-4238
▁ଡଲାର	-4239
▁ଦଳକୁ	-4240
▁ଫୁଟେ	-4241
▁ମଜବୁ	-4242
▁ଯୋଗୀ	-4243
▁ସେମି	-4244
▁ସ୍ତର	-4245
▁ଉନ୍ମୋ	-4246
▁କହିଲା	-4247
▁ତାପରେ	-4248
▁ଧରିବା	-4249
▁ପଡିଛି	-4250
▁ବଢ଼ିବ	-4251
▁ଭାଇରସ	-4252
▁ଏକାଧିକ	-4253
▁ପରିଣାମ	-4254
▁ବୈଷୟିକ	-4255
▁ମନମୋହନ	-4256
▁ଶୁଭକାମ	-4257
▁ବିସ୍ତୃତ	-4258
▁ମାମଲାକୁ	-4259
▁ଯାଉଥିବା	-4260
▁ଚିନ୍ତାରେ	-4261
▁ଜଣାଯାଇଛି	-4262
▁ବର୍ଣ୍ଣନା	-4263
▁ବିସିସିଆଇ	-4264
▁ବ୍ୟୟବରାଦ	-4265
▁ଯୁବକଙ୍କୁ	-4266
▁ରାଜ୍ୟସଭା	-4267
▁ଲୋକସଭାରେ	-4268
▁ନବରଙ୍ଗପୁର	-4269
▁ପ୍ରାକୃତିକ	-4270
▁ଅଗ୍ନିକାଣ୍ଡ	-4271
▁କରିନାହାନ୍ତି	-4272
▁ରାଷ୍ଟ୍ରମନ୍ତ୍ରୀ	-4273
ff	-4274
ଗମ	-4275
ସୋ	-4276
▁G	-4277
ଟେନ	-4278
ଣ୍ଠ	-4279
ଧ୍ଯ	-4280
ବତୀ	-4281
ବିଧ	-4282
ଳାନ	-4283
ହାନ	-4284
▁ଋଷ	-4285
▁ଗ୍	-4286
▁ହଁ	-4287
ର୍ମି	-4288
▁ଅଟୋ	-4289
▁ଉପଭ	-4290
▁ଏଜେ	-4291
▁କଠି	-4292
▁କାଳ	-4293
▁ଧାନ	-4294
▁ବୀର	-4295
▁ମାର	-4296
▁ସଂକ	-4297
ପଟେନ୍	-4298
ର୍ଥ୍ୟ	-4299
ଷ୍ଟାଗ	-4300
▁ଅଫିସ	-4301
▁ଏତଲା	-4302
▁ଓକିଲ	-4303
▁ଛୁଟି	-4304
▁ଜଣାଇ	-4305
▁ଟେକ୍	-4306
▁ଧରଣର	-4307
▁ନାୟକ	-4308
▁ପିଆଜ	-4309
▁ବାକ୍	-4310
▁ବାନ୍	-4311
▁ବ୍ଲକ	-4312
▁ରେଡ୍	-4313
▁ଲଗାତ	-4314
▁ଶବ୍ଦ	-4315
ଗୁଡିକର	-4316
ଗୁଡିକୁ	-4317
▁କଥାକୁ	-4318
▁କହୁଛି	-4319
▁ଗ୍ୟାସ	-4320
▁ଘଟିଲା	-4321
▁ଡିଜେଲ	-4322
▁ନିଷ୍କ	-4323
▁ଶ୍ରୀମ	-4324
▁ହଠାତ୍	-4325
ଯାଇଥିଲେ	-4326
▁ଉତ୍ସାହ	-4327
▁ଟାର୍ଗେ	-4328
▁ଦ୍ଵାରା	-4329
▁ନାରାୟଣ	-4330
▁ବଜାରରେ	-4331
▁ମୁକ୍ତି	-4332
▁ରାଜପୁତ	-4333
▁ସେମିତି	-4334
▁ଅସ୍ପଷ୍ଟ	-4335
▁କନ୍ଧମାଳ	-4336
▁ଦ୍ବିତୀୟ	-4337
▁ଲୋକଙ୍କର	-4338
▁ହୋଇପଡ଼ି	-4339
▁ଅପମୃତ୍ୟୁ	-4340
▁ଉପସ୍ଥାପନ	-4341
▁ଚାଲିଥିଲା	-4342
▁ପ୍ରସିଦ୍ଧ	-4343
▁ଲାଗିଥିବା	-4344
▁ଶୁଭକାମନା	-4345
▁ସିନେମାରେ	-4346
▁ପ୍ରତିବନ୍ଧ	-4347
▁ବ୍ରହ୍ମପୁର	-4348
▁କରିଦେଇଥିଲେ	-4349
▁ଚିକିତ୍ସାଳୟ	-4350
▁ନିର୍ଦ୍ଦିଷ୍ଟ	-4351
▁କାର୍ଯ୍ୟକ୍ରମର	-4352
▁କାର୍ଯ୍ୟକ୍ରମକୁ	-4353
▁ସୁପ୍ରିମକୋର୍ଟରେ	-4354
or	-4355
ଅନ	-4356
ଡକ	-4357
ଫୁ	-4358
▁େ	-4359
ଏହି	-4360
ଜିତ	-4361
ଢ଼ା	-4362
ଥିଲ	-4363
ନୀତ	-4364
ବୋଧ	-4365
ହୃତ	-4366
ିକର	-4367
ୋଶୀ	-4368
▁କଳ	-4369
▁ଝଟ	-4370
▁ଧା	-4371
▁ନୌ	-4372
▁୧୯	-4373
▁ୱା	-4374
ଜାତି	-4375
ତ୍ୟକ	-4376
ମ୍ଭବ	-4377
ାନାଳ	-4378
ାନ୍ୱ	-4379
ିକିଆ	-4380
▁Off	-4381
▁ଅଘଟ	-4382
▁କରା	-4383
▁ଡାକ	-4384
▁ତନା	-4385
▁ଦବୋ	-4386
ନ୍ସିଂ	-4387
ଭାବିକ	-4388
ମ୍ପରା	-4389
ଯୋଜନା	-4390
▁ଏହାଛ	-4391
▁କଠିନ	-4392
▁କାବୁ	-4393
▁ଜିଲା	-4394
▁ତାଲି	-4395
▁ଦେବୀ	-4396
▁ବୃହତ	-4397
▁ମୟୂର	-4398
▁ଯିବେ	-4399
▁ହାରି	-4400
ଟାପନ୍ନ	-4401
▁ଜାହାଜ	-4402
▁ପ୍ରଣା	-4403
▁ବୁଦ୍ଧ	-4404
▁ଭୟଭୀତ	-4405
▁ମୁକେଶ	-4406
▁ଯୁବତୀ	-4407
▁ରଞ୍ଜନ	-4408
▁ସକାଳୁ	-4409
▁ସଭାରେ	-4410
▁ସମନ୍ୱ	-4411
▁ସିନ୍ଧ	-4412
▁ଏଯାବତ୍	-4413
▁କାରଖାନ	-4414
▁ଥାନାକୁ	-4415
▁ଦେଖିଲେ	-4416
▁ପ୍ରତାପ	-4417
▁ପ୍ୟାକେ	-4418
▁ବିକାଶର	-4419
▁ବିଦେଶୀ	-4420
▁ଭିଡ଼ିଓ	-4421
▁ଷ୍ଟାଡି	-4422
▁ସନ୍ଧାନ	-4423
▁ସଫଳତାର	-4424
▁ସୁପାରି	-4425
▁ଆଞ୍ଚଳିକ	-4426
▁ଉତ୍ସର୍ଗ	-4427
▁ଉଲ୍ଲଂଘନ	-4428
▁ପରମ୍ପରା	-4429
▁ପ୍ରଶ୍ନର	-4430
▁ସଚେତନତା	-4431
▁ସମ୍ପ୍ରସ	-4432
▁ଅଧ୍ୟକ୍ଷା	-4433
▁ଏଥିପ୍ରତି	-4434
▁ଜାଣିବାକୁ	-4435
▁ପହଞ୍ଚିଛି	-4436
▁ପ୍ରେତ୍ୟକ	-4437
▁କ୍ୟାପିଟାଲ	-4438
▁ନାହାଁନ୍ତି	-4439
▁ବେଙ୍ଗାଲୁରୁ	-4440
▁ହାଇକୋର୍ଟରେ	-4441
▁ହୋଇଯାଇଥିଲେ	-4442
▁ଅଭିଯୁକ୍ତଙ୍କ	-4443
▁ନିର୍ଦ୍ଧାରିତ	-4444
▁ତୁମ୍ଭମାନଙ୍କର	-4445
▁ପ୍ରତିଯୋଗିତାରେ	-4446
ଉନ	-4447
ଚର	-4448
ଫର	-4449
ହୋ	-4450
ୀମ	-4451
ଆମେ	-4452
ଆର୍	-4453
କକୁ	-4454
ଗୁଆ	-4455
ଘନା	-4456
ବନୀ	-4457
ରିଂ	-4458
ରୁଷ	-4459
ର୍କ	-4460
ଲରେ	-4461
ସାର	-4462
ହାଣ	-4463
ୋଦନ	-4464
▁ଆଜ	-4465
▁କୂ	-4466
▁ଧୂ	-4467
▁ନୟ	-4468
▁ଯୌ	-4469
▁ୟା	-4470
rime	-4471
ଦାୟକ	-4472
ନଥାଏ	-4473
ମାଗତ	-4474
ମୂଳକ	-4475
ାଙ୍କ	-4476
▁ଏଠି	-4477
▁ଓହ୍	-4478
▁କୁଲ	-4479
▁କୋଇ	-4480
▁ନଇେ	-4481
▁ପିତ	-4482
▁ଭରି	-4483
▁ସମୁ	-4484
ister	-4485
ମ୍ବରମ	-4486
ଲଙ୍କା	-4487
ସରକାର	-4488
୍ୟସ୍ତ	-4489
▁ଅବହେ	-4490
▁ଆକଳନ	-4491
▁ଜେନା	-4492
▁ପଦବୀ	-4493
▁ପଦ୍ମ	-4494
▁ପାଠପ	-4495
▁ବୁଲି	-4496
▁ବ୍ରା	-4497
▁ଭାଗି	-4498
▁ଭୂତା	-4499
▁ମଞ୍ଚ	-4500
▁ସର୍ଟ	-4501
▁ସ୍ଵା	-4502
▁ହିତା	-4503
▁ହୃଦୟ	-4504
ନ୍ତରୀଣ	-4505
ପିଟାଲ୍	-4506
ସ୍ଥ୍ୟା	-4507
▁ଅନ୍ତି	-4508
▁ଅର୍ପଣ	-4509
▁ଉପୁଜି	-4510
▁ଗୁଣ୍ଡ	-4511
▁ଝାରସୁ	-4512
▁ନିଖୋଜ	-4513
▁ପୋର୍ଟ	-4514
▁ବଦଳାଇ	-4515
▁ରିଲିଜ	-4516
▁Office	-4517
▁ଆଇପିଏଲ	-4518
▁କରାଗଲା	-4519
▁କଳାକାର	-4520
▁ଚୋପ୍ରା	-4521
▁ଜୀବନସା	-4522
▁ତନାଘନା	-4523
▁ବିଦ୍ୟା	-4524
▁ସ୍ବାମୀ	-4525
▁inister	-4526
▁ଅନୁମୋଦନ	-4527
▁ଇଣ୍ଟରନେ	-4528
▁କମ୍ପାନି	-4529
▁କ୍ରମାଗତ	-4530
▁ଡ଼ାକ୍ତର	-4531
▁ଦେହାନ୍ତ	-4532
▁ନିର୍ଦ୍ଧ	-4533
▁ପରୀକ୍ଷଣ	-4534
▁ପ୍ରସାରଣ	-4535
▁ବ୍ଯକ୍ତି	-4536
▁ରାଜଧାନୀ	-4537
▁କ୍ୟାମେରା	-4538
▁ନ୍ୟାସନାଲ	-4539
▁ପ୍ରତିଦ୍ୱ	-4540
▁ବାଚସ୍ପତି	-4541
▁ସାମର୍ଥ୍ୟ	-4542
▁ଅନ୍ୟମାନଙ୍କ	-4543
▁ପହଞ୍ଚିଥିଲା	-4544
▁ହତ୍ୟାକାଣ୍ଡ	-4545
▁ହିତାଧିକାରୀ	-4546
ଢି	-4547
ଶୂ	-4548
000	-4549
ଡରେ	-4550
ଣିଆ	-4551
ଥାଉ	-4552
ପିଲ	-4553
ଯାଇ	-4554
ରୋଧ	-4555
ାସୁ	-4556
୍ବି	-4557
▁ଡ଼	-4558
▁ପଥ	-4559
▁ପୌ	-4560
▁ମଦ	-4561
▁ଶୌ	-4562
ଟ୍ରି	-4563
ଣ୍ଡୋ	-4564
ନିଆର	-4565
ନିୟମ	-4566
ସଙ୍ଗ	-4567
▁ଅପ୍	-4568
▁ଅବି	-4569
▁ଆଶୀ	-4570
▁ଚାମ	-4571
▁ଦାମ	-4572
▁ବୋଧ	-4573
▁ମଧୁ	-4574
▁ସିକ	-4575
ବିଶେଷ	-4576
ମୁକ୍ତ	-4577
ର୍ବାଦ	-4578
ିକେଟ୍	-4579
▁ଅଘଟଣ	-4580
▁ଆଗରୁ	-4581
▁ଉତ୍କ	-4582
▁ଏକ୍ସ	-4583
▁କ୍ଷତ	-4584
▁ଗୁଜୁ	-4585
▁ଚିଦା	-4586
▁ନାରୀ	-4587
▁ବଙ୍ଗ	-4588
▁ରାଶି	-4589
▁ରାୟଗ	-4590
▁ସମୟର	-4591
▁ହିମା	-4592
ବ୍ୟାପୀ	-4593
▁Prime	-4594
▁କଡ଼ାକ	-4595
▁କୋରିଆ	-4596
▁ଗୁପ୍ତ	-4597
▁ଗୃହରେ	-4598
▁ଥଣ୍ଡା	-4599
▁ଦୂରତା	-4600
▁ପୁସ୍ତ	-4601
▁ବସ୍ତୁ	-4602
▁ବିଶାଳ	-4603
▁ଶିକାର	-4604
▁ଶିଳାନ	-4605
▁ସୁରେଶ	-4606
କେନ୍ଦ୍ର	-4607
ାଉଛନ୍ତି	-4608
▁ଅଧ୍ୟୟନ	-4609
▁ଅନ୍ତିମ	-4610
▁ଜଣାଇବା	-4611
▁ଦୀପିକା	-4612
▁ନିକଟରୁ	-4613
▁ବାହାରେ	-4614
▁ବ୍ୟୁରୋ	-4615
▁ଶରୀରକୁ	-4616
ାଯାଇଥିବା	-4617
େଙ୍କାନାଳ	-4618
▁କୋରାପୁଟ	-4619
▁ଚାଷୀଙ୍କ	-4620
▁ଚେତାବନୀ	-4621
▁ଜାତିସଂଘ	-4622
▁ଜେନେରାଲ	-4623
▁ନିଯୁକ୍ତ	-4624
▁ଫ୍ରାନ୍ସ	-4625
▁ବିସ୍ତାର	-4626
▁ଯେକୌଣସି	-4627
▁ରୋଗୀଙ୍କ	-4628
▁ସୋସିଆଲ୍	-4629
▁ସ୍ଥାନକୁ	-4630
▁ହରିୟାଣା	-4631
ଷ୍ଟାଗ୍ରାମ	-4632
▁ଥିବାବେଳେ	-4633
▁ଦୁହିଁଙ୍କ	-4634
▁ନେତାମାନେ	-4635
▁ପରସ୍ପରକୁ	-4636
▁ପରିଦର୍ଶନ	-4637
▁ପାଇଛନ୍ତି	-4638
▁ପିଲାମାନେ	-4639
▁ବିଶେଷଜ୍ଞ	-4640
▁ବ୍ୟବସାୟୀ	-4641
▁ବ୍ୟାଙ୍କର	-4642
▁ଭଉଣୀମାନେ	-4643
▁ମୟୂରଭଞ୍ଜ	-4644
▁ସମାରୋହରେ	-4645
▁ସମ୍ବଲପୁର	-4646
ରାଷ୍ଟ୍ରପତି	-4647
▁ଡାକ୍ତରଙ୍କ	-4648
▁ପ୍ରେତ୍ୟକକ	-4649
▁ଶିଳାନ୍ୟାସ	-4650
▁ଶ୍ରୀଲଙ୍କା	-4651
▁ହରାଇଛନ୍ତି	-4652
▁ପାକିସ୍ତାନୀ	-4653
▁ହସ୍ପିଟାଲକୁ	-4654
▁କରାଯାଇନାହିଁ	-4655
▁ପ୍ରତିଯୋଗିତା	-4656
on	-4657
ୀଯ	-4658
ଏହା	-4659
ଡ଼ୁ	-4660
ପାଲ	-4661
ବେଗ	-4662
ଲାଲ	-4663
ସିର	-4664
ାନକ	-4665
ିଲା	-4666
▁25	-4667
▁ଏଫ	-4668
▁ଚମ	-4669
ଆରପି	-4670
ଟ୍ରୋ	-4671
▁ଓଜନ	-4672
▁କଟା	-4673
▁କ୍ଲ	-4674
▁ପଟେ	-4675
ଟଫର୍ମ	-4676
ଦାବାଦ	-4677
▁ଆଗୁଆ	-4678
▁ଆଭ୍ୟ	-4679
▁ଆସାମ	-4680
▁କାଗଜ	-4681
▁ତେଲେ	-4682
▁ନୟାଗ	-4683
▁ବୟାନ	-4684
▁ମହାସ	-4685
▁ଲଗାଣ	-4686
▁ସଠାେ	-4687
▁ସ୍ପେ	-4688
▁ୟୁପି	-4689
ଡ଼ାନ୍ତ	-4690
ଶିକ୍ଷା	-4691
▁ଅବଶ୍ୟ	-4692
▁ଆଜ୍ଞା	-4693
▁ଆସନରୁ	-4694
▁ଇଂରାଜ	-4695
▁କଟକଣା	-4696
▁କନଫରେ	-4697
▁ପିଇବା	-4698
▁ବିୟୋଗ	-4699
▁ବେଳକୁ	-4700
▁ଭର୍ତି	-4701
▁ମଜବୁତ	-4702
▁ମାର୍କ	-4703
▁ଷ୍ଟ୍ର	-4704
▁ସଚିବା	-4705
▁ସେଭଳି	-4706
▁ହୋଟେଲ	-4707
▁ଜୟନ୍ତୀ	-4708
▁ପୀଡିତା	-4709
▁ପ୍ରତିକ	-4710
▁ବନ୍ଧୁକ	-4711
▁ବିଜୁଳି	-4712
▁ଭବିଷ୍ଯ	-4713
▁ମିଡ଼ିଆ	-4714
▁ଶତାଧିକ	-4715
▁ସଙ୍ଗୀତ	-4716
▁ସ୍ଥାୟୀ	-4717
▁ୱେବସାଇ	-4718
ବପୂର୍ଣ୍ଣ	-4719
▁ଅଧିବେଶନ	-4720
▁ଆବେଦନକୁ	-4721
▁କରୁଥିଲା	-4722
▁କହିବାକୁ	-4723
▁କୁହାଯାଏ	-4724
▁କ୍ଷୁଦ୍ର	-4725
▁ଖ୍ରୀଷ୍ଟ	-4726
▁ପକାନ୍ତୁ	-4727
▁ପରିମାଣର	-4728
▁ପାରନ୍ତି	-4729
▁ସିଂହଙ୍କ	-4730
▁ଆଣିଛନ୍ତି	-4731
▁ଆଶୀର୍ବାଦ	-4732
▁ଚାଷୀମାନେ	-4733
▁ଜନସଂଖ୍ୟା	-4734
▁ନାଗରିକତା	-4735
▁ପ୍ରମାଣିତ	-4736
▁ଯୁବତୀଙ୍କ	-4737
▁ଆପଣମାନଙ୍କ	-4738
▁ଦୁର୍ଭାଗ୍ୟ	-4739
▁ସଶକ୍ତିକରଣ	-4740
▁ଆଭ୍ୟନ୍ତରୀଣ	-4741
ମୁଖ୍ୟମନ୍ତ୍ରୀ	-4742
▁ଆକ୍ରାନ୍ତଙ୍କ	-4743
▁ଶିକ୍ଷାନୁଷ୍ଠାନ	-4744
ପୂ	-4745
’।	-4746
"""	-4747
ଚାପ	-4748
ଟିଆ	-4749
ଠିଆ	-4750
ଦ୍ବ	-4751
ପୂର	-4752
ସିଲ	-4753
୍ତା	-4754
୍ଯୁ	-4755
ୱାଇ	-4756
▁କଥ	-4757
▁ତୃ	-4758
▁ନଗ	-4759
▁ପଇ	-4760
▁ହଇ	-4761
▁ହଜ	-4762
▁୧୧	-4763
କ୍ଟୋ	-4764
ଙ୍କେ	-4765
ଧାରୀ	-4766
ନାଲ୍	-4767
ଭିନ୍	-4768
ଶାଳା	-4769
▁ଆହ୍	-4770
▁ଗୋଗ	-4771
▁ପାପ	-4772
▁ଫସି	-4773
▁ବୟସ	-4774
▁ମହତ	-4775
▁ସୁର	-4776
କଙ୍କୁ	-4777
ଥୀଙ୍କ	-4778
ପୁରୁଷ	-4779
ବେଳକୁ	-4780
▁ଅଜଣା	-4781
▁କ୍ରି	-4782
▁ଗ୍ରୀ	-4783
▁ଚାମଚ	-4784
▁ଚୋରି	-4785
▁ଟିକା	-4786
▁ପିଛା	-4787
▁ମିଲି	-4788
▁ସଠିକ	-4789
▁ହବେେ	-4790
▁ଅର୍ଜନ	-4791
▁ଅଲ୍ଲୀ	-4792
▁ଆଣ୍ଟି	-4793
▁ପରାଜୟ	-4794
▁ବାକ୍ଯ	-4795
▁ବିନ୍ଯ	-4796
▁ବିଶ୍ବ	-4797
▁ମାର୍ଗ	-4798
▁ମାଲିକ	-4799
▁ଯାତ୍ର	-4800
▁ଲକ୍ଷା	-4801
▁ସୁଟିଂ	-4802
କାନଗିରି	-4803
ଥାଆନ୍ତି	-4804
▁ଆମ୍ବୁଲ	-4805
▁କମିଟିର	-4806
▁କ୍ୟାରି	-4807
▁ଜ୍ଞାପନ	-4808
▁ଦୟାକରି	-4809
▁ନିନ୍ଦା	-4810
▁ପଠାଇବା	-4811
▁ପରାସ୍ତ	-4812
▁ପୋଷ୍ଟମ	-4813
▁ବାତ୍ୟା	-4814
▁ବାନ୍ଧି	-4815
▁ଯେଉଁଠି	-4816
▁ସଂସଦୀୟ	-4817
▁ସିହ୍ନା	-4818
▁ଏକମାତ୍ର	-4819
▁ଚାହୁଁଛି	-4820
▁ତେଲେଙ୍ଗ	-4821
▁ପଞ୍ଚାୟତ	-4822
▁ମିଳିଥାଏ	-4823
▁ମୋବାଇଲ୍	-4824
▁ଶୃଙ୍ଖଳା	-4825
▁ହେଉଥିଲା	-4826
▁କଡ଼ାକଡ଼ି	-4827
▁ଚୂଡ଼ାନ୍ତ	-4828
▁ଦିଆଯାଉଛି	-4829
▁ଲକ୍ଷାଧିକ	-4830
▁ଚ୍ୟାଲେଞ୍ଜ	-4831
▁ନିର୍ବାଚିତ	-4832
▁ପ୍ରଶିକ୍ଷଣ	-4833
▁ମହିଳାମାନେ	-4834
▁ମୁମ୍ବାଇରେ	-4835
▁ସମ୍ବନ୍ଧୀୟ	-4836
▁ସରକାରଙ୍କର	-4837
▁କରାଯାଉଥିବା	-4838
▁ରାଜ୍ୟସଭାରେ	-4839
▁ଜଣାପଡିନାହିଁ	-4840
▁ବାଧ୍ୟତାମୂଳକ	-4841
ଆନ	-4842
ଇଓ	-4843
▁’	-4844
ଗ୍ନ	-4845
ଛେଦ	-4846
ଜୁନ	-4847
ଟକୁ	-4848
ବଂସ	-4849
ଭୁତ	-4850
ଲାମ	-4851
ଷମା	-4852
ହରି	-4853
୍କା	-4854
ୟମ୍	-4855
ୟାଲ	-4856
▁'%	-4857
▁18	-4858
▁30	-4859
▁ଘୁ	-4860
▁ଚକ	-4861
▁ଡଃ	-4862
▁ତୀ	-4863
▁ଦୈ	-4864
▁୨୫	-4865
▁‘‘	-4866
ଚ୍ଛି	-4867
ଜୀବନ	-4868
ଣ୍ଣି	-4869
ତ୍ତର	-4870
ତ୍ଯା	-4871
ମିଟେ	-4872
ଷ୍କା	-4873
ସାରେ	-4874
ାଯାଇ	-4875
ାରୋପ	-4876
ିକେଟ	-4877
ୟିକା	-4878
▁କାନ	-4879
▁ଗଲା	-4880
▁ଚିତ	-4881
▁ତେଜ	-4882
▁ଦାନ	-4883
▁ପ୍ଲ	-4884
▁ଯିବ	-4885
▁ଶତକ	-4886
▁ଶିଖ	-4887
ଦ୍ଦିକ	-4888
ଶଙ୍କର	-4889
ଷ୍ମାନ	-4890
▁ଆଇସି	-4891
▁ଆରୋହ	-4892
▁ଇନ୍ଧ	-4893
▁କାଲି	-4894
▁କ୍ରେ	-4895
▁ଗୁଣା	-4896
▁ଗୋଟେ	-4897
▁ଜେଡି	-4898
▁ଦଳୀୟ	-4899
▁ଦେଲା	-4900
▁ନାମକ	-4901
▁ପଛକୁ	-4902
▁ପୋଡି	-4903
▁ବର୍ତ	-4904
▁ବାବୁ	-4905
▁ବାରା	-4906
▁ବୋମା	-4907
▁ବୋଲର	-4908
▁ଭାରି	-4909
▁ଭୁଲ୍	-4910
▁ମାଶା	-4911
▁ଯେତେ	-4912
▁ସାହି	-4913
▁ସେତୁ	-4914
▁ସ୍ଥଳ	-4915
ଦ୍ବାରା	-4916
ିଛନ୍ତି	-4917
▁ଏକତ୍ର	-4918
▁କୃଷ୍ଣ	-4919
▁କ୍ରମେ	-4920
▁ଦ୍ୱାର	-4921
▁ପାରସ୍	-4922
▁ପ୍ରତୀ	-4923
▁ବୋଲିଂ	-4924
▁ଭ୍ରମଣ	-4925
▁ଯୁକ୍ତ	-4926
▁ସୁଷମା	-4927
▁ସେନେଇ	-4928
ଜିଲାଣ୍ଡ	-4929
▁ଅନୁକୂଳ	-4930
▁ଗ୍ରାମା	-4931
▁ଚାମ୍ପି	-4932
▁ଜିଏସଟି	-4933
▁ଦୁନିଆର	-4934
▁ନିଆଯାଇ	-4935
▁ବସ୍ତ୍ର	-4936
▁ଭୂତାଣୁ	-4937
▁ଯେମିତି	-4938
▁ଶରୀରରେ	-4939
▁ସର୍ତ୍ତ	-4940
▁ସ୍ୱରୂପ	-4941
▁ଉନ୍ମୋଚନ	-4942
▁ଓଡିଶାରେ	-4943
▁କମାଣ୍ଡର	-4944
▁ନିଷ୍ପତି	-4945
▁ପଡିଥିଲା	-4946
▁ପ୍ରବାସୀ	-4947
▁ହୁଅନ୍ତୁ	-4948
କ୍ଷେତ୍ରରେ	-4949
▁ଟ୍ରାଫିକ୍	-4950
▁ପାଣ୍ଡ୍ୟା	-4951
▁ବିପକ୍ଷରେ	-4952
▁ଭିଟାମିନ୍	-4953
▁ମିଳିପାରେ	-4954
▁ଯନ୍ତ୍ରଣା	-4955
▁ସମ୍ମାନିତ	-4956
▁ସମ୍ମୁଖରେ	-4957
▁ସର୍ବୋଚ୍ଚ	-4958
▁ସାବ୍ୟସ୍ତ	-4959
▁ଜାଣିଛନ୍ତି	-4960
▁ଢେଙ୍କାନାଳ	-4961
▁ପ୍ଲାଟଫର୍ମ	-4962
▁ବିପର୍ଯ୍ୟୟ	-4963
▁ମିଳିନଥିଲା	-4964
▁ଆସନ୍ତାକାଲି	-4965
▁କରିପାରନ୍ତି	-4966
▁ଘଟଣାସ୍ଥଳକୁ	-4967
▁ପିଲାମାନଙ୍କ	-4968
▁ପ୍ରତିବନ୍ଧକ	-4969
▁ବିମାନବନ୍ଦର	-4970
▁ମାଲକାନଗିରି	-4971
▁ଅଧିକାରୀଙ୍କୁ	-4972
▁ପ୍ରତିଦ୍ୱନ୍ଦ	-4973
▁ଉପରାଷ୍ଟ୍ରପତି	-4974
-2	-4975
ଶେ	-4976
ୟଂ	-4977
ୟୋ	-4978
ଟର୍	-4979
ଟିଳ	-4980
ଫୋନ	-4981
ଯାପ	-4982
ସନର	-4983
ସିନ	-4984
▁14	-4985
▁ଲକ	-4986
▁୧୬	-4987
ଙ୍ଗୀ	-4988
ଚଳିତ	-4989
ଣ୍ଡେ	-4990
ନାମା	-4991
ପୋରେ	-4992
୍ତିକ	-4993
▁ଖୋଲ	-4994
▁ଚାପ	-4995
▁ଚାଲ	-4996
▁ଠିଆ	-4997
▁ତଲା	-4998
▁ଫୁଟ	-4999
▁ବିଭ	-5000
▁ମାଡ	-5001
▁ମିଛ	-5002
▁ମେଷ	-5003
▁ଯୁଗ	-5004
▁ରାଓ	-5005
▁ରୁଷ	-5006
▁ଲଦା	-5007
▁ସାତ	-5008
▁ସୋନ	-5009
କ୍ରମେ	-5010
ଜୀଙ୍କ	-5011
ନିଷ୍ଠ	-5012
ାପ୍ତି	-5013
ିକାଲ୍	-5014
ିବଦ୍ଧ	-5015
▁2016	-5016
▁ଅଥବା	-5017
▁ଓଲଟି	-5018
▁ଗଣ୍ଡ	-5019
▁ଛାଡ଼	-5020
▁ଜଟିଳ	-5021
▁ଠାକୁ	-5022
▁ପ୍ରି	-5023
▁ବାସି	-5024
▁ବିଷଯ	-5025
▁ଲଣ୍ଡ	-5026
▁ଶାରୀ	-5027
▁ଶାସକ	-5028
▁ସହରର	-5029
▁ସେବେ	-5030
▁ହାତୀ	-5031
କ୍ଷୀରେ	-5032
ଚନ୍ଦ୍ର	-5033
ବାହିନୀ	-5034
▁ଏବେବି	-5035
▁ଟିକେଟ	-5036
▁ମାଗଣା	-5037
▁ରାଜ୍ଯ	-5038
▁ସଂକେତ	-5039
▁ସନ୍ତୁ	-5040
▁ସାର୍ବ	-5041
▁ସୈନିକ	-5042
▁ଅଧ୍ୟାପ	-5043
▁ଆଇସିସି	-5044
▁ଆକର୍ଷଣ	-5045
▁ଉତ୍ତରା	-5046
▁ଚାହିଦା	-5047
▁ଦେବାରେ	-5048
▁ନିଶ୍ଚୟ	-5049
▁ପକ୍ସ୍ଟ	-5050
▁ପ୍ରଚୁର	-5051
▁ଶୃଙ୍ଖଳ	-5052
▁ସହଯୋଗୀ	-5053
▁ସାରିଛି	-5054
▁ସ୍ତମ୍ଭ	-5055
▁ସ୍ମୃତି	-5056
▁ଅଞ୍ଚଳକୁ	-5057
▁କରିପାରୁ	-5058
▁କରିବାରୁ	-5059
▁କରିସାରି	-5060
▁ଗ୍ରାମରେ	-5061
▁ପରିପ୍ରେ	-5062
▁ବର୍ତମାନ	-5063
▁ଶାରୀରିକ	-5064
▁ସେମିଫାଇ	-5065
ନାହାଁନ୍ତି	-5066
▁ଆମେରିକୀୟ	-5067
▁ଆୟୁଷ୍ମାନ	-5068
▁ଏମାନଙ୍କୁ	-5069
▁ଗଣମାଧ୍ୟମ	-5070
▁ନ୍ୟାୟାଳୟ	-5071
▁ଯେଉଁଠାରେ	-5072
▁ରାଷ୍ଟ୍ରର	-5073
▁ସପ୍ତାହରେ	-5074
▁ସମ୍ବୋଧିତ	-5075
▁ଉପାଧ୍ୟକ୍ଷ	-5076
▁ତାମିଲନାଡୁ	-5077
▁ନିମନ୍ତ୍ରଣ	-5078
▁ପାରସ୍ପରିକ	-5079
▁ବ୍ୟବସାୟିକ	-5080
▁ଭୁବନେଶ୍ବର	-5081
▁ହାର୍ଦ୍ଦିକ	-5082
▁ଯାହାଦ୍ୱାରା	-5083
▁ଆନ୍ଦୋଳନକାରୀ	-5084
▁ପରିସ୍ଥିତିକୁ	-5085
▁ପ୍ରୋତ୍ସାହିତ	-5086
▁ସଂକ୍ରାନ୍ତରେ	-5087
▁ପରିପ୍ରେକ୍ଷୀରେ	-5088
ra	-5089
ଦଳ	-5090
ମହ	-5091
ୟତ	-5092
ଅଧି	-5093
କେଲ	-5094
କ୍ୟ	-5095
ଗ୍ଧ	-5096
ଜାତ	-5097
ପନା	-5098
ଷ୍ପ	-5099
ସମ୍	-5100
ସାବ	-5101
ହିକ	-5102
ହୁଏ	-5103
ାୟନ	-5104
▁ଦଖ	-5105
▁ଧ୍	-5106
▁ସଫ	-5107
▁ୟେ	-5108
କ୍କର	-5109
ଡ୍ଡା	-5110
ନେତା	-5111
ବାହୀ	-5112
ବିଧି	-5113
ଭାଷଣ	-5114
ଭୂତି	-5115
ଯୋଗୁ	-5116
ରୀରେ	-5117
ର୍ଟମ	-5118
▁ସରଳ	-5119
ଜ୍ଜ୍ୱ	-5120
ଣ୍ଟ୍ର	-5121
ନ୍ତିତ	-5122
ବଶ୍ୟକ	-5123
ରୁଶାଲ	-5124
ାଯିବା	-5125
▁2014	-5126
▁ଆଡକୁ	-5127
▁ଉଭୟେ	-5128
▁ଖାତା	-5129
▁ଜେଲ୍	-5130
▁ପରଦା	-5131
▁ପୋଷଣ	-5132
▁ବାଦ୍	-5133
▁ବାବା	-5134
▁ବାରଣ	-5135
▁ବିଲି	-5136
▁ଭରସା	-5137
▁ଭୋଟର	-5138
▁ମୋଟର	-5139
▁ମୋହନ	-5140
▁ଯାଏଁ	-5141
▁ଶକ୍ତ	-5142
▁ସାଧନ	-5143
▁ହୁଏତ	-5144
କଶ୍ମୀର	-5145
ତୁମ୍ଭେ	-5146
ତ୍ୟାଦି	-5147
ପ୍ରଦାୟ	-5148
ଲକ୍ଷିତ	-5149
ସଭାପତି	-5150
ସାମରିକ	-5151
ୂର୍ତ୍ତ	-5152
▁ଅରୁଣା	-5153
▁ଉପହାର	-5154
▁କନ୍ୟା	-5155
▁କୋଇଲା	-5156
▁ଚାର୍ଜ	-5157
▁ଦିନିଆ	-5158
▁ଧ୍ବଂସ	-5159
▁ନାଗରି	-5160
▁ପ୍ରମୋ	-5161
▁ମହତ୍ୱ	-5162
▁ମିଶାଇ	-5163
▁ଯୋଗ୍ୟ	-5164
▁ରହସ୍ୟ	-5165
▁ରହିଲା	-5166
▁ଲକ୍ଷଣ	-5167
▁ଲଙ୍କା	-5168
▁ଶିବିର	-5169
▁ହିସାବ	-5170
ବର୍ତ୍ତନ	-5171
▁ଉର୍ଦ୍ଧ	-5172
▁ଏଠାକାର	-5173
▁କଷ୍ଟକର	-5174
▁ତହିଁରେ	-5175
▁ତିନିଜଣ	-5176
▁ପିନ୍ଧି	-5177
▁ପୀଡ଼ିତ	-5178
▁ମଧ୍ଯରୁ	-5179
▁ମନୋନୀତ	-5180
▁ମୁଦ୍ରା	-5181
▁ମୃତ୍ଯୁ	-5182
▁ସହଯୋଗର	-5183
▁ଅନୁଷ୍କା	-5184
▁ଅଭିଭାଷଣ	-5185
▁ଗୁରୁତ୍ଵ	-5186
▁ଦାୟିତ୍ବ	-5187
▁ନିରଞ୍ଜନ	-5188
▁ନୁହନ୍ତି	-5189
▁ପରିବେଷଣ	-5190
▁ପାର୍ଶ୍ୱ	-5191
▁ପ୍ରକୃତି	-5192
▁ପ୍ରଣାଳୀ	-5193
▁ସମ୍ବେଦନ	-5194
▁ସରକାରରେ	-5195
▁ସୁପାରିଶ	-5196
▁ସୂତ୍ରରୁ	-5197
▁ସୌଭାଗ୍ୟ	-5198
▁ହୋଇପାରୁ	-5199
▁ୟିରୁଶାଲ	-5200
▁ପୁରସ୍କୃତ	-5201
▁ବିଦ୍ୟୁତ୍	-5202
▁ମୁମ୍ବାଇର	-5203
▁ହୋଇନଥିବା	-5204
▁ଇଣ୍ଡଷ୍ଟ୍ର	-5205
▁କାର୍ଯ୍ୟକୁ	-5206
▁ପରିଲକ୍ଷିତ	-5207
▁ପ୍ରସଙ୍ଗକୁ	-5208
▁ସନ୍ଧ୍ୟାରେ	-5209
▁ସମସ୍ତଙ୍କର	-5210
ସ୍ଥ୍ୟାବସ୍ଥା	-5211
▁କାର୍ଯ୍ୟକାର	-5212
▁ଦିଆଯାଇଥିବା	-5213
▁ପ୍ରସ୍ତାବକୁ	-5214
▁ଲୋକମାନଙ୍କର	-5215
▁ସ୍ୱାକ୍ଷରିତ	-5216
▁କରିଦେଇଛନ୍ତି	-5217
▁ଆତଙ୍କବାଦୀଙ୍କ	-5218
ଓ୍	-5219
ସୂ	-5220
ହୂ	-5221
ୀଶ	-5222
▁I	-5223
ଗୁଣ	-5224
ଗ୍ମ	-5225
ଜିର	-5226
ଦିଆ	-5227
ଧିନ	-5228
ବିକ	-5229
ଲ୍ସ	-5230
ଳ୍କ	-5231
ଶୋଧ	-5232
ାଇଁ	-5233
୍ୟର	-5234
ୱାର	-5235
▁କଏ	-5236
▁ଢ଼	-5237
ଦେବା	-5238
ବାୟୁ	-5239
ଭୂଷଣ	-5240
ର୍ଦ୍	-5241
ଲୁଗୁ	-5242
ଶ୍ରେ	-5243
ଷ୍ଟେ	-5244
ୃଷ୍ଟ	-5245
▁202	-5246
▁ଆୟତ	-5247
▁ଏସି	-5248
▁ଜର୍	-5249
▁ଜଳି	-5250
▁ଟିଏ	-5251
▁ତାଳ	-5252
▁ଥାଇ	-5253
▁ଦେଓ	-5254
▁ପାସ	-5255
▁ପୂଜ	-5256
▁ଫୋଲ	-5257
▁ବାଜ	-5258
▁ସଡକ	-5259
▁ସଫ୍	-5260
▁ସାନ	-5261
▁ହବୋ	-5262
▁ହାଉ	-5263
▁ହିତ	-5264
କ୍ତରୀ	-5265
ବସ୍ତୁ	-5266
ଳ୍ପନା	-5267
ାସୁଝା	-5268
▁ଅନୁପ	-5269
▁ଆଇନ୍	-5270
▁ଆଶ୍ର	-5271
▁କହିବ	-5272
▁ଟ୍ବି	-5273
▁ଦ୍ରା	-5274
▁ନିରା	-5275
▁ପାକ୍	-5276
▁ପ୍ଲେ	-5277
▁ବରାଦ	-5278
▁ଭୋଟ୍	-5279
▁ରମେଶ	-5280
▁ସଂଘର	-5281
▁ସତ୍ଯ	-5282
▁ସାଜି	-5283
▁ସୁନୀ	-5284
ତିକ୍ରମ	-5285
ବ୍ୟତୀତ	-5286
▁ଆତ୍ମା	-5287
▁କୁମ୍ଭ	-5288
▁ପତ୍ତା	-5289
▁ପାରିତ	-5290
▁ମିତ୍ର	-5291
▁ଯୁଗ୍ମ	-5292
▁ରୋଗରେ	-5293
▁ଲାଗିବ	-5294
▁ସାଇବର	-5295
▁ଏନସିପି	-5296
▁ଏହିଭଳି	-5297
▁କର୍ଣ୍ଣ	-5298
▁କୁଲଦୀପ	-5299
▁କୋଟିରୁ	-5300
▁ଜୀବନକୁ	-5301
▁ପୂର୍ବା	-5302
▁ରୋକିବା	-5303
▁ଲାଗିଲା	-5304
▁ଷ୍ଟେସନ	-5305
▁ସମୃଦ୍ଧ	-5306
▁ସ୍ବର୍ଗ	-5307
▁ଅବଲମ୍ବନ	-5308
▁ଇତ୍ୟାଦି	-5309
▁କପୁରଙ୍କ	-5310
▁କିଛିଦିନ	-5311
▁ଗତିବିଧି	-5312
▁ଗର୍ଭବତୀ	-5313
▁ଦିନିକିଆ	-5314
▁ଦେଉଥିବା	-5315
▁ବଢିବାରେ	-5316
▁ବିବେଚନା	-5317
▁ବ୍ୟବଛେଦ	-5318
▁ବ୍ୟବହୃତ	-5319
▁ସତ୍ତ୍ୱେ	-5320
ରାଷ୍ଟ୍ରୀୟ	-5321
▁ଉପସଭାପତି	-5322
▁କହୁଛନ୍ତି	-5323
▁ଚାଷୀଙ୍କୁ	-5324
▁ନେଟୱାର୍କ	-5325
▁ପଡ଼ିଥିବା	-5326
▁ପେଟ୍ରୋଲି	-5327
▁ବାସିନ୍ଦା	-5328
▁ବୁଝାସୁଝା	-5329
▁ଆଦିତ୍ୟନାଥ	-5330
▁କ୍ୟାପଟେନ୍	-5331
▁ଚିଦାମ୍ବରମ	-5332
▁ଦୁର୍ବୃତ୍ତ	-5333
▁ପ୍ରଦର୍ଶନୀ	-5334
▁ସମ୍ପର୍କକୁ	-5335
▁ସୁନ୍ଦରଗଡ଼	-5336
▁ହୋଇଥିବାରୁ	-5337
▁ଉପସ୍ଥିତିରେ	-5338
▁ଚିନ୍ତାଧାରା	-5339
▁ପହଞ୍ଚିଥିଲେ	-5340
▁ମତ୍ସ୍ୟଜୀବୀ	-5341
▁ଗୁରୁତ୍ବପୂର୍ଣ୍ଣ	-5342
▁ଛାତ୍ରଛାତ୍ରୀଙ୍କୁ	-5343
ଏକ	-5344
ଆଡେ	-5345
ଆରୀ	-5346
ଦୂର	-5347
ବରଦ	-5348
ମେହ	-5349
ାଳି	-5350
ୀନା	-5351
ୁଲ୍	-5352
ୋନ୍	-5353
▁ଅଚ	-5354
▁କଂ	-5355
▁ଘୃ	-5356
,000	-5357
କୃତି	-5358
କ୍ଷୀ	-5359
ଙ୍କି	-5360
ଟେରା	-5361
ଡ଼ିବ	-5362
ତାକା	-5363
ୃଷ୍ଣ	-5364
▁200	-5365
▁ଆକ୍	-5366
▁ଆଗତ	-5367
▁ଆଭି	-5368
▁କଟି	-5369
▁ଙ୍କ	-5370
▁ଦମ୍	-5371
▁ପୋଲ	-5372
▁ଫୁଲ	-5373
▁ବିଜ	-5374
▁ମୁହ	-5375
▁ସଦର	-5376
▁ସିଏ	-5377
ଂକ୍ଷା	-5378
ପୁତ୍ର	-5379
ରିମାନ	-5380
ଷ୍ଟାର	-5381
ସେନାର	-5382
▁2019	-5383
▁ଅବଦୁ	-5384
▁ଏସପି	-5385
▁କୁକୁ	-5386
▁ଖୋଜି	-5387
▁ଗଣଦୁ	-5388
▁ଗୋପନ	-5389
▁ଗୌରବ	-5390
▁ଛୁଇଁ	-5391
▁ଜବରଦ	-5392
▁ଜଳସେ	-5393
▁ଜେରା	-5394
▁ଝଟକା	-5395
▁ଡାକି	-5396
▁ତତ୍କ	-5397
▁ତଳକୁ	-5398
▁ତାପମ	-5399
▁ଦବେେ	-5400
▁ଦାୟର	-5401
▁ପଳାଇ	-5402
▁ବିଭା	-5403
▁ଭାଷଣ	-5404
▁ଭିଡ଼	-5405
▁ମରାମ	-5406
▁ମାତା	-5407
▁ଯାକୁ	-5408
▁ଯୋଡି	-5409
▁ଲଦାଖ	-5410
▁ସଂଗଠ	-5411
ଆଯାଇଛି	-5412
ଉଛନ୍ତି	-5413
କରନ୍ତୁ	-5414
ଚାଲିଛି	-5415
ପ୍ରକାର	-5416
ଶସ୍ତ୍ର	-5417
ାଉଥିଲା	-5418
▁ଇନ୍ଧନ	-5419
▁ଉପକୃତ	-5420
▁କାଳରେ	-5421
▁ଖୋଜାଖ	-5422
▁ଚାହେଁ	-5423
▁ଡାହାଣ	-5424
▁ନେପାଳ	-5425
▁ପାଠ୍ୟ	-5426
▁ପାଲଟା	-5427
▁ପୋଷାକ	-5428
▁ରଖିବେ	-5429
▁ଲକଡାଉ	-5430
▁ଶିଷ୍ଯ	-5431
▁ସାକାର	-5432
▁ସ୍ମାର	-5433
▁ହତ୍ଯା	-5434
▁ହାତକୁ	-5435
▁ହୋଇନି	-5436
ଅଧିନାୟକ	-5437
ବର୍ଦ୍ଧନ	-5438
ଶ୍ରେଷ୍ଠ	-5439
▁ଅଧିକରୁ	-5440
▁ଅନ୍ୟତମ	-5441
▁ଅର୍ଥାତ	-5442
▁ଇଂରାଜୀ	-5443
▁ଖବରପାଇ	-5444
▁ଡିଗ୍ରୀ	-5445
▁ତକ୍ସ୍ଟ	-5446
▁ନରସିଂହ	-5447
▁ପୁଲିସର	-5448
▁ପ୍ରଦୀପ	-5449
▁ରିହାତି	-5450
▁ଲିମିଟେ	-5451
▁ଲୋକାର୍	-5452
▁ଶିକ୍ଷୟ	-5453
▁ସଂସଦରେ	-5454
▁ସାମିଲ୍	-5455
▁ସାମ୍ନା	-5456
▁ସେଣ୍ଟର	-5457
ଗୁଡ଼ିକରେ	-5458
ସଦାପ୍ରଭୁ	-5459
▁ଅରୁଣାଚଳ	-5460
▁କର୍ପୋରେ	-5461
▁କ୍ୟାମ୍ପ	-5462
▁ଚିତ୍କାର	-5463
▁ଟାର୍ଗେଟ	-5464
▁ଦୁନିଆରେ	-5465
▁ଧକ୍କାରେ	-5466
▁ପରିସରରେ	-5467
▁ପାଇଥିଲେ	-5468
▁ବ୍ଯବହାର	-5469
▁ଯାଉଥିଲା	-5470
▁ଯୋଗ୍ୟତା	-5471
▁ଷ୍ଟାର୍ଟ	-5472
▁କରିନାହିଁ	-5473
▁କାର୍ଯ୍ୟକ	-5474
▁ଚରିତ୍ରରେ	-5475
▁ନିର୍ମାତା	-5476
▁ବନ୍ଧୁଙ୍କ	-5477
▁ବାସ୍ତବରେ	-5478
▁ମୋଦୀଙ୍କୁ	-5479
▁ଉଲ୍ଲେଖନୀୟ	-5480
▁ଗାନ୍ଧିଙ୍କ	-5481
▁ତାପମାତ୍ରା	-5482
▁ଦୁହିଁଙ୍କୁ	-5483
▁ପ୍ରଦର୍ଶିତ	-5484
▁ବ୍ୟବସ୍ଥାର	-5485
▁ଭାରତୀୟଙ୍କ	-5486
▁ଯାତ୍ରୀଙ୍କ	-5487
▁ଆମ୍ବୁଲାନ୍ସ	-5488
▁ଗଣଦୁଷ୍କର୍ମ	-5489
▁ଗଣମାଧ୍ୟମକୁ	-5490
▁ଡାକ୍ତରମାନେ	-5491
▁ନିର୍ଦ୍ଧାରଣ	-5492
▁ପର୍ଯ୍ୟାପ୍ତ	-5493
▁ପୀଡ଼ିତାଙ୍କ	-5494
▁ପୋଷ୍ଟମର୍ଟମ	-5495
▁ସମ୍ବେଦନଶୀଳ	-5496
▁ସେମିଫାଇନାଲ	-5497
▁ଅନ୍ତର୍ଭୁକ୍ତ	-5498
▁ଜୀବନସାଥୀଙ୍କ	-5499
▁ନ୍ୟୁଜିଲାଣ୍ଡ	-5500
▁ପ୍ରକ୍ରିୟାରେ	-5501
▁ଅସ୍ତ୍ରଶସ୍ତ୍ର	-5502
▁ଉପମୁଖ୍ୟମନ୍ତ୍ରୀ	-5503
ଂଜ	-5504
ଏଚ	-5505
ଶୟ	-5506
ୂହ	-5507
ୱେ	-5508
କଥା	-5509
କିଂ	-5510
ଗୃହ	-5511
ଡିତ	-5512
ଦୀର	-5513
ବ୍ର	-5514
ରାଣ	-5515
ଲକୁ	-5516
ଲାଏ	-5517
ୋରା	-5518
ୋଲ୍	-5519
୍କେ	-5520
୍ଵି	-5521
▁11	-5522
▁70	-5523
▁ଅଂ	-5524
▁ପଏ	-5525
▁ଫ୍	-5526
▁ମଲ	-5527
▁ଯଶ	-5528
▁ରନ	-5529
ଆଇଟି	-5530
ଆଇସି	-5531
କ୍ଷ୍	-5532
ଜ୍ଜୁ	-5533
ଟିଭ୍	-5534
ଣ୍ଟନ	-5535
ନ୍ଧି	-5536
ପଞ୍ଚ	-5537
ପାଳନ	-5538
ପ୍ରଦ	-5539
ଷ୍ଟଇ	-5540
ାଗାର	-5541
ାୟାତ	-5542
ୀକୃତ	-5543
୍ରିକ	-5544
▁ଉନ୍	-5545
▁ଛାନ	-5546
▁ଥିବ	-5547
▁ନୀଳ	-5548
▁ପୋଖ	-5549
▁ବର୍	-5550
▁ମଷେ	-5551
▁ମେଘ	-5552
▁ଲିଭ	-5553
▁ଷଡ଼	-5554
▁ୟିଏ	-5555
ଚିତ୍ର	-5556
ତ୍ତ୍ୱ	-5557
ଦର୍ଶୀ	-5558
ନିମ୍ନ	-5559
ବିଭାଗ	-5560
ରହିଛି	-5561
ଲାଇନ୍	-5562
ିତ୍ରୀ	-5563
▁ଆକ୍ଟ	-5564
▁ଆରୋପ	-5565
▁ଏକତା	-5566
▁କଡାକ	-5567
▁ଜଗନ୍	-5568
▁ଟ୍ଵି	-5569
▁ନଥାଏ	-5570
▁ନାରା	-5571
▁ନିତି	-5572
▁ପଣ୍ଡ	-5573
▁ପାଳି	-5574
▁ପୁଲୱ	-5575
▁ଫାଶୀ	-5576
▁ବକ୍ସ	-5577
▁ଲଞ୍ଚ	-5578
▁ଲାଠି	-5579
▁ସଂପା	-5580
▁ସିଇଓ	-5581
▁ସ୍ବତ	-5582
▁ସ୍ୱର	-5583
ପ୍ରକାଶ	-5584
ବୃତ୍ତି	-5585
ର୍ଯ୍ୟା	-5586
ଲାଏନ୍ସ	-5587
ାନୁମାନ	-5588
▁ଅପହରଣ	-5589
▁କ୍ଷେପ	-5590
▁ଘଟୁଛି	-5591
▁ଝିଅକୁ	-5592
▁ଟକ୍କର	-5593
▁ଠିକଣା	-5594
▁ନିୟୁତ	-5595
▁ପଡୁଛି	-5596
▁ପତାକା	-5597
▁ପଦାକୁ	-5598
▁ପୁନର୍	-5599
▁ବର୍ଗର	-5600
▁ମୁଦ୍ର	-5601
▁ଲଢ଼େଇ	-5602
▁ଶରୀରର	-5603
▁ଶାସିତ	-5604
▁ଷ୍ଟାର	-5605
▁ସମାଜର	-5606
▁ସୀମିତ	-5607
▁ସେବାର	-5608
▁ସେସବୁ	-5609
▁ଅଫିସରେ	-5610
▁ଅସମ୍ଭବ	-5611
▁ଆପତ୍ତି	-5612
▁ଇମ୍ରାନ	-5613
▁ଓଡିଶାର	-5614
▁କେଜ୍ରି	-5615
▁ଗ୍ରୁପ୍	-5616
▁ଜଣାଇଲେ	-5617
▁ତିନିଟି	-5618
▁ତେଲୁଗୁ	-5619
▁ନାବାଳକ	-5620
▁ପରିଚିତ	-5621
▁ମଧୁମେହ	-5622
▁ମନୁଷ୍ଯ	-5623
▁ମରାମତି	-5624
▁ଯାତାୟତ	-5625
▁ଯୁକ୍ତି	-5626
▁ସତ୍ୟତା	-5627
▁ସିଆରପି	-5628
▁ସେଥିରୁ	-5629
▁ସ୍କୁଲର	-5630
▁ସ୍କ୍ରି	-5631
▁ସ୍ୱରାଜ	-5632
କାରାତ୍ମକ	-5633
ଷ୍ଟଇଣ୍ଡି	-5634
ଷ୍ଟିଚ୍ୟୁ	-5635
ାନ୍ତ୍ରିକ	-5636
▁ଅବସ୍ଥିତ	-5637
▁ଅଭିଭାବକ	-5638
▁ଆନନ୍ଦିତ	-5639
▁କାରଖାନା	-5640
▁ଟ୍ରମ୍ପ୍	-5641
▁ଡାକ୍ତରୀ	-5642
▁ପ୍ରାଚୀନ	-5643
▁ଫିଲ୍ମକୁ	-5644
▁ବିଶ୍ୱକୁ	-5645
▁ମୂଲ୍ୟରେ	-5646
▁ଯାତାୟାତ	-5647
▁ଯାନବାହନ	-5648
▁ଯୀଶୁଙ୍କ	-5649
▁ରହୁଥିବା	-5650
▁ସ୍ୱାର୍ଥ	-5651
▁ହୁଅନ୍ତି	-5652
▁ଆଭିମୁଖ୍ୟ	-5653
▁ଏକ୍ସପ୍ରେ	-5654
▁କରାଯିବାର	-5655
▁କରିଦେଇଛି	-5656
▁ଖୋଜାଖୋଜି	-5657
▁ତାହାଙ୍କୁ	-5658
▁ପ୍ରକାଶିତ	-5659
▁ମିଡ଼ିଆରେ	-5660
▁ମୂର୍ତ୍ତି	-5661
▁ସହାୟତାରେ	-5662
▁କଂଗ୍ରେସରେ	-5663
▁କରିଥିବାରୁ	-5664
▁ଖୁବ୍ଶୀଘ୍ର	-5665
▁ନାଗରିକଙ୍କ	-5666
▁ପାରିନାହିଁ	-5667
▁ମେଡିକାଲକୁ	-5668
▁ଯୁବତୀଙ୍କୁ	-5669
▁ରାସ୍ତାରୋକ	-5670
▁ସେତେବେଳକୁ	-5671
▁ସ୍ବତନ୍ତ୍ର	-5672
▁ହୋଇପାରିଛି	-5673
▁ଉଚ୍ଚସ୍ତରୀୟ	-5674
▁ତେଲେଙ୍ଗାନା	-5675
▁ପ୍ରାରମ୍ଭିକ	-5676
▁ପରାମର୍ଶଦାତା	-5677
▁ପୂର୍ବାନୁମାନ	-5678
▁ହସ୍ପିଟାଲ୍ରେ	-5679
▁ଅର୍ଥବ୍ୟବସ୍ଥା	-5680
▁ଉତ୍ତରପ୍ରଦେଶର	-5681
▁କର୍ମଚାରୀଙ୍କୁ	-5682
▁ଦୁର୍ଘଟଣାଗ୍ରସ୍ତ	-5683
▁ବିଶ୍ୱବିଦ୍ୟାଳୟର	-5684
at	-5685
it	-5686
nd	-5687
om	-5688
re	-5689
ଇନ	-5690
ଏତ	-5691
ପଟ	-5692
ଯମ	-5693
ୁନ	-5694
-20	-5695
ଆରେ	-5696
ଗିତ	-5697
ଟାଏ	-5698
ଣରେ	-5699
ତିହ	-5700
ନୀର	-5701
ପନ୍	-5702
ଭିତ	-5703
ଶତଃ	-5704
ହିର	-5705
ୀତି	-5706
ୋନେ	-5707
୍ୟୋ	-5708
ୟ୍ଯ	-5709
▁ଛଅ	-5710
▁ଡକ	-5711
କ୍ଷେ	-5712
ଙ୍ଗର	-5713
ଥିବୀ	-5714
ଦଣ୍ଡ	-5715
ପିତା	-5716
ପ୍ରୀ	-5717
ମ୍ପର	-5718
ର୍ଲା	-5719
ଲାଇନ	-5720
ଲେଣି	-5721
ଳଙ୍କ	-5722
ଷ୍ଟମ	-5723
ଷ୍ଣୁ	-5724
ାଧୀନ	-5725
ାବଳୀ	-5726
ାମେର	-5727
ାଲରେ	-5728
ୃତ୍ୟ	-5729
ୟାର୍	-5730
▁ଅନା	-5731
▁ଅବା	-5732
▁ଅଯୋ	-5733
▁ଇଲେ	-5734
▁କରଣ	-5735
▁କିଣ	-5736
▁କୁଳ	-5737
▁କୁଶ	-5738
▁ଘରର	-5739
▁ତମେ	-5740
▁ପେନ	-5741
▁ବଂଚ	-5742
▁ବାଛ	-5743
▁ଭାଜ	-5744
▁ଲୁହ	-5745
▁ଶୋଭ	-5746
▁ହେଁ	-5747
ଖ୍ୟାନ	-5748
ତ୍କାର	-5749
ମାନ୍ତ	-5750
ଲିଖିତ	-5751
ସ୍ଥଳୀ	-5752
ହିତ୍ୟ	-5753
ୋକ୍ତା	-5754
୍ୟକ୍ତ	-5755
ୱାର୍ଡ	-5756
▁ଅଙ୍କ	-5757
▁ଅତୀତ	-5758
▁ଅନକେ	-5759
▁ଉପରୁ	-5760
▁କରାୟ	-5761
▁କ୍ଲି	-5762
▁ଚଢାଉ	-5763
▁ଚୀନର	-5764
▁ଜଡିତ	-5765
▁ଝାଡ଼	-5766
▁ଡାଟା	-5767
▁ଦାରି	-5768
▁ଦିନେ	-5769
▁ଦୋହର	-5770
▁ପଚରା	-5771
▁ପାଟି	-5772
▁ବଜ୍ର	-5773
▁ବିଧି	-5774
▁ବେଆଇ	-5775
▁ମିଶର	-5776
▁ଯାଜକ	-5777
▁ରାଉତ	-5778
▁ରାଲି	-5779
▁ରେଖା	-5780
▁ଲଢ଼ି	-5781
▁ଲଢେଇ	-5782
▁ଲେଖା	-5783
▁ଶୁଖି	-5784
▁ସଭ୍ୟ	-5785
▁ହାଜର	-5786
ଥିଲାଗି	-5787
ନ୍ଦିରା	-5788
ମଧ୍ୟରୁ	-5789
ମ୍ପରିକ	-5790
ରିମାନା	-5791
▁କହିବେ	-5792
▁କେତକେ	-5793
▁କେରଳର	-5794
▁କ୍ରାଇ	-5795
▁ଗୋଗୋଇ	-5796
▁ଗୋଟାଏ	-5797
▁ଜରୁରି	-5798
▁ଜୟପୁର	-5799
▁ତୁଲାଇ	-5800
▁ପାଇଲଟ	-5801
▁ଫୁଟେଜ	-5802
▁ଫୋର୍ସ	-5803
▁ବଢୁଛି	-5804
▁ବରଗଡ଼	-5805
▁ବିଦ୍ର	-5806
▁ବିନାଶ	-5807
▁ବିବିଧ	-5808
▁ଭାଗ୍ୟ	-5809
▁ମଙ୍ଗଳ	-5810
▁ମଞ୍ଜୁ	-5811
▁ରହିଲେ	-5812
▁ଶ୍ରେୟ	-5813
▁ସଠିକ୍	-5814
▁ସତ୍ୟା	-5815
ଷ୍ଠାନିକ	-5816
▁ଅଗ୍ରସର	-5817
▁ଅନଲାଇନ	-5818
▁ଅଯୋଧ୍ୟ	-5819
▁ଅର୍ଜୁନ	-5820
▁ଉଜ୍ଜ୍ୱ	-5821
▁କଡାକଡି	-5822
▁କଲେଜରେ	-5823
▁କଳ୍ପନା	-5824
▁ଖାନଙ୍କ	-5825
▁ଗୁଳିରେ	-5826
▁ଗ୍ରାହକ	-5827
▁ଜଳବାୟୁ	-5828
▁ଜଳସେଚନ	-5829
▁ନିଜସ୍ୱ	-5830
▁ପରିଷଦର	-5831
▁ପୁସ୍ତକ	-5832
▁ବିପକ୍ଷ	-5833
▁ଭାଇରସ୍	-5834
▁ମାତ୍ରା	-5835
▁ମେଟ୍ରୋ	-5836
▁ସଠାେରେ	-5837
▁ସମାପ୍ତ	-5838
▁ସରପଞ୍ଚ	-5839
▁ସ୍କୁଲ୍	-5840
▁ସ୍ଥଗିତ	-5841
▁ସ୍ୱଳ୍ପ	-5842
କାରୀଙ୍କୁ	-5843
▁ଅର୍ଥାତ୍	-5844
▁ଇନ୍ଦିରା	-5845
▁ଏହାସହିତ	-5846
▁କୁହନ୍ତି	-5847
▁ଖାଇବାକୁ	-5848
▁ଗୁଜରାଟର	-5849
▁ଚିନ୍ତିତ	-5850
▁ଜଗନ୍ନାଥ	-5851
▁ଜନ୍ମଦିନ	-5852
▁ପାର୍ଟିର	-5853
▁ରପ୍ତାନୀ	-5854
▁ରାଜ୍ୟକୁ	-5855
▁ରାୟଗଡ଼ା	-5856
▁ସିନେମାର	-5857
▁ସ୍ଥାପିତ	-5858
▁ହେଉଥିଲେ	-5859
▁ଇତିହାସରେ	-5860
▁ଉପଭୋକ୍ତା	-5861
▁କରିନଥିଲେ	-5862
▁ପରିଚାଳିତ	-5863
▁ବାନାର୍ଜୀ	-5864
▁ବିଶେଷକରି	-5865
▁ବେସାମରିକ	-5866
▁ଭାଗିଦାରୀ	-5867
▁ଶର୍ମାଙ୍କ	-5868
▁ସୁବର୍ଣ୍ଣ	-5869
▁ଆକାଉଣ୍ଟରେ	-5870
▁ଖେଳିଯାଇଛି	-5871
▁ଚର୍ଚ୍ଚାରେ	-5872
▁ଚଳାଇଛନ୍ତି	-5873
▁ରାଜସ୍ଥାନର	-5874
▁ସର୍ବନିମ୍ନ	-5875
▁ସ୍ୱାଭାବିକ	-5876
▁ହସପିଟାଲରେ	-5877
▁ଗଣମାଧ୍ୟମରେ	-5878
▁ଝାରସୁଗୁଡ଼ା	-5879
▁ବିଦ୍ୟାର୍ଥୀ	-5880
▁ସଙ୍କଟାପନ୍ନ	-5881
▁ସମ୍ପ୍ରସାରଣ	-5882
▁ହୋଇପାରନ୍ତି	-5883
▁ହୋଇଯାଇଥିବା	-5884
▁କରୁନାହାନ୍ତି	-5885
▁ଦେଶବାସୀଙ୍କୁ	-5886
▁ପିଲାମାନଙ୍କୁ	-5887
▁ପ୍ରାର୍ଥୀଙ୍କ	-5888
▁ମହାରାଷ୍ଟ୍ରର	-5889
▁ସର୍ବଶ୍ରେଷ୍ଠ	-5890
▁ଅଭିଯୁକ୍ତମାନେ	-5891
.0	-5892
ଆସ	-5893
ଖ୍	-5894
ଷୁ	-5895
ୃଶ	-5896
କାଉ	-5897
ଟାନ	-5898
ଡବ୍	-5899
ଣୀର	-5900
ପଡା	-5901
ଯାତ	-5902
ରକେ	-5903
ଲେଟ	-5904
ଶାସ	-5905
ାରଖ	-5906
▁ଅଗ	-5907
▁ଜୀ	-5908
▁ବ୍	-5909
▁ମଇ	-5910
▁ଶୂ	-5911
....	-5912
ଆମ୍ଭ	-5913
ଦେଲେ	-5914
ପୂରଣ	-5915
ଯୀଶୁ	-5916
ଶୁଣା	-5917
ଶ୍ରୀ	-5918
ସଙ୍କ	-5919
ସନ୍ତ	-5920
ହାରେ	-5921
ାମରେ	-5922
ିକତା	-5923
ୃହତ୍	-5924
▁ଅନ୍	-5925
▁ଗୋଲ	-5926
▁ଧ୍ୱ	-5927
▁ନଗଦ	-5928
▁ନିଅ	-5929
▁ନିଦ	-5930
▁ବେଲ	-5931
▁ମାଓ	-5932
▁ରିଜ	-5933
▁ରୋଲ	-5934
କ୍ଷିତ	-5935
ଚନାରେ	-5936
ଦିନିଆ	-5937
ମିତ୍ତ	-5938
ର୍ୟ୍ଯ	-5939
ଶିଳ୍ପ	-5940
ଶ୍ୱିକ	-5941
ସାମ୍ୟ	-5942
ାନିର୍	-5943
ିକ୍ସେ	-5944
ୀମାନେ	-5945
▁2020	-5946
▁ଅବଧି	-5947
▁ଆଇଟି	-5948
▁ଉଗ୍ର	-5949
▁କିମି	-5950
▁କିମ୍	-5951
▁କ୍ରୟ	-5952
▁ଗାଁର	-5953
▁ଛାୟା	-5954
▁ଜାଳି	-5955
▁ଦୀପକ	-5956
▁ନାନା	-5957
▁ପଇସା	-5958
▁ପୃଥକ	-5959
▁ଫରେି	-5960
▁ବଜେଟ	-5961
▁ବାରି	-5962
▁ବାଲା	-5963
▁ବେଶୀ	-5964
▁ମୁକୁ	-5965
▁ମୁଜା	-5966
▁ମେହେ	-5967
▁ରଜନୀ	-5968
▁ସିପି	-5969
▁ହର୍ଷ	-5970
ଙ୍ଗୁଲି	-5971
ନିର୍ଭର	-5972
ଶ୍ୱରରେ	-5973
ସରକାରୀ	-5974
ାତ୍ମିକ	-5975
▁ଅପମାନ	-5976
▁ଆଖପାଖ	-5977
▁ଆମ୍ଭର	-5978
▁ଏଠାକୁ	-5979
▁ଘଣ୍ଟା	-5980
▁ଚଢ଼ାଉ	-5981
▁ଚ୍ୟାନ	-5982
▁ଠାକୁର	-5983
▁ଦୂରରେ	-5984
▁ପାଉଛି	-5985
▁ପାଖରୁ	-5986
▁ବାଜପେ	-5987
▁ବିଧାୟ	-5988
▁ଭାଗରେ	-5989
▁ମସିହା	-5990
▁ଲମ୍ବା	-5991
▁ଶୁଳ୍କ	-5992
▁ସର୍କି	-5993
▁ସେପରି	-5994
▁ସ୍ତରର	-5995
▁ସ୍ୱୟଂ	-5996
ପୂର୍ବରୁ	-5997
▁ଉଦବୋଧନ	-5998
▁କରିହେବ	-5999
▁ଜନଜାତି	-6000
▁ଦିବସରେ	-6001
▁ନିହାତି	-6002
▁ପୃଥିବୀ	-6003
▁ବଜେଟରେ	-6004
▁ବଢ଼ୁଛି	-6005
▁ବଳିଦାନ	-6006
▁ବାହାରୁ	-6007
▁ବିହାରର	-6008
▁ରୁଜ୍ଜୁ	-6009
▁ଲଗାତାର	-6010
▁ଲାଗିଲେ	-6011
▁ଲୁଟେରା	-6012
▁ସମାଜରେ	-6013
▁ସମାବେଶ	-6014
▁ସଲମାନ୍	-6015
▁ହିମାଚଳ	-6016
▁ହୋଇଗଲେ	-6017
▁ହୋଇଯାଏ	-6018
▁ଅଧିନିୟମ	-6019
▁ଅନୁଭୂତି	-6020
▁ଆକାଉଣ୍ଟ	-6021
▁ଆଣିଥିଲେ	-6022
▁ଆଣିବାକୁ	-6023
▁ଇମ୍ରାନ୍	-6024
▁ଉତ୍ତୋଳନ	-6025
▁କ୍ୟାମେର	-6026
▁ଟଙ୍କାରୁ	-6027
▁ଦେଶବାସୀ	-6028
▁ନେଇଥିବା	-6029
▁ପୁଲୱାମା	-6030
▁ପ୍ରତିଭା	-6031
▁ପ୍ରସନ୍ନ	-6032
▁ବୈଶ୍ୱିକ	-6033
▁ବ୍ରିଟେନ	-6034
▁ଯୋଗଦେବେ	-6035
▁ସପକ୍ଷରେ	-6036
▁ସେଠାକାର	-6037
▁ସ୍କୁଲରେ	-6038
▁କାହାରିକୁ	-6039
▁କୁମାରଙ୍କ	-6040
▁ଗାଙ୍ଗୁଲି	-6041
▁ଗୁଣାତ୍ମକ	-6042
▁ଚାହାନ୍ତି	-6043
▁ବେସରକାରୀ	-6044
▁ଭାରସାମ୍ୟ	-6045
▁ରହୁଛନ୍ତି	-6046
▁ହୋଇନଥିଲା	-6047
▁କର୍ତ୍ତବ୍ୟ	-6048
▁କାଶ୍ମୀରରେ	-6049
▁କ୍ଷତିପୂରଣ	-6050
▁କ୍ଷେତ୍ରକୁ	-6051
▁ଦୁର୍ଘଟଣାର	-6052
▁ନିର୍ବାଚନୀ	-6053
▁ପକ୍ସ୍ଟତ୍ର	-6054
▁ପୃଷ୍ଠଭୂମି	-6055
▁ବିଦ୍ୟାଳୟର	-6056
▁ମିଳିପାରିବ	-6057
▁ମିଳୁନାହିଁ	-6058
▁ସଦସ୍ୟମାନେ	-6059
▁ଆତ୍ମନିର୍ଭର	-6060
▁ଆନୁଷ୍ଠାନିକ	-6061
▁ପେଟ୍ରୋଲିୟମ	-6062
▁ମନ୍ତ୍ରୀଙ୍କ	-6063
▁ସ୍ୱରାଷ୍ଟ୍ର	-6064
▁ହାଇକୋର୍ଟଙ୍କ	-6065
▁ହୋଇଥିବାବେଳେ	-6066
▁ଅଗ୍ନିକାଣ୍ଡରେ	-6067
▁କ୍ଷେପଣାସ୍ତ୍ର	-6068
▁ଚିକିତ୍ସାଳୟକୁ	-6069
▁ଆତଙ୍କବାଦୀମାନେ	-6070
▁ପ୍ରତିଦ୍ୱନ୍ଦ୍ୱ	-6071
50	-6072
al	-6073
ut	-6074
ନକ	-6075
ୋତ	-6076
ୋଶ	-6077
ୟଲ	-6078
▁A	-6079
▁D	-6080
▁N	-6081
କୋନ	-6082
ଚିବ	-6083
ଜାଇ	-6084
ଟାଇ	-6085
ଟିଭ	-6086
ଟ୍ସ	-6087
ଣ୍ୟ	-6088
ତ୍ସ	-6089
ଦୂତ	-6090
ନିଂ	-6091
ବାଟ	-6092
ସମା	-6093
୍ର୍	-6094
▁80	-6095
▁ଅତ	-6096
▁ଘା	-6097
▁ଘୋ	-6098
▁୧୪	-6099
ଏସପି	-6100
ଗ୍ରା	-6101
ଞ୍ଚା	-6102
ଟ୍ଟା	-6103
ଡ଼କୁ	-6104
ଣ୍ଟେ	-6105
ପାଠୀ	-6106
ପ୍ପା	-6107
ବ୍ରେ	-6108
ମାର୍	-6109
ଲୋକେ	-6110
ଲୋଜି	-6111
ାମୀଣ	-6112
୍ରିୟ	-6113
▁ଅତୁ	-6114
▁ଅଦା	-6115
▁ଅମର	-6116
▁ଅସମ	-6117
▁ଆସୋ	-6118
▁ଏକର	-6119
▁ଏଲି	-6120
▁ଖଡ୍	-6121
▁ଖଣି	-6122
▁ଚାଇ	-6123
▁ଚୌଧ	-6124
▁ଛାଡ	-6125
▁ତୁମ	-6126
▁ନିତ	-6127
▁ପୌର	-6128
▁ଭବନ	-6129
▁ଭୂକ	-6130
▁ମାୟ	-6131
▁ରବି	-6132
▁ଲକ୍	-6133
▁ସତେ	-6134
▁ସୁଲ	-6135
ଆସିଛି	-6136
ଙ୍ଗନା	-6137
ଦେଇଛି	-6138
ନିବେଶ	-6139
ରାଜିତ	-6140
ଶିଷ୍ଟ	-6141
୍ୟୋତି	-6142
▁ଇଚ୍ଛ	-6143
▁ଏପ୍ର	-6144
▁ଓହରି	-6145
▁କନ୍ଯ	-6146
▁କବଳେ	-6147
▁ଖଣିଜ	-6148
▁ଖାସ୍	-6149
▁ଗୁଣବ	-6150
▁ଚଳାଇ	-6151
▁ଜ୍ୟା	-6152
▁ଟାଟା	-6153
▁ତୁଳା	-6154
▁ତ୍ୟା	-6155
▁ଦରରେ	-6156
▁ଦେଖୁ	-6157
▁ଧିରେ	-6158
▁ନିରବ	-6159
▁ବକ୍ତ	-6160
▁ଭକ୍ତ	-6161
▁ଭଙ୍ଗ	-6162
▁ଭାଗୀ	-6163
▁ମର୍ମ	-6164
▁ଯେବେ	-6165
▁ରଦ୍ଦ	-6166
▁ଲାଇନ	-6167
▁ଷଷ୍ଠ	-6168
▁ଷ୍ଟି	-6169
▁ସଚିନ	-6170
▁ସେବନ	-6171
▁ସ୍ନେ	-6172
▁ସ୍ବର	-6173
▁ହୁସେ	-6174
▁ୟିବା	-6175
କ୍ଟୋବର	-6176
ନିୟରିଂ	-6177
ଯନ୍ତ୍ର	-6178
ରକ୍ସ୍ଟ	-6179
ାନାହିଁ	-6180
ାନ୍ୱିତ	-6181
ାବସ୍ଥା	-6182
ାମୀଙ୍କ	-6183
ୁଦ୍ରିକ	-6184
▁ଅବଦାନ	-6185
▁ଆଣିଲେ	-6186
▁ଆଲର୍ଟ	-6187
▁ଉପତ୍ୟ	-6188
▁ଏସ୍ପି	-6189
▁କହିବି	-6190
▁ଗାଁକୁ	-6191
▁ଟର୍ମି	-6192
▁ଟୁଇଟ୍	-6193
▁ଧାରଣା	-6194
▁ନଡ୍ଡା	-6195
▁ନହେଲେ	-6196
▁ନିରାଶ	-6197
▁ପଏଣ୍ଟ	-6198
▁ପୋଡ଼ି	-6199
▁ବଢ଼ାଇ	-6200
▁ବନ୍ଦୀ	-6201
▁ବସନ୍ତ	-6202
▁ବୁଡ଼ି	-6203
▁ଭବନରେ	-6204
▁ଭରପୂର	-6205
▁ଭାବନା	-6206
▁ମନୋହର	-6207
▁ମାଧ୍ୟ	-6208
▁ରେକର୍	-6209
▁ଲାଇନ୍	-6210
▁ଶାନ୍ତ	-6211
▁ସଂଳାପ	-6212
▁ସଂସଦର	-6213
▁ସପ୍ତମ	-6214
▁ସାଉଦି	-6215
ଙ୍କଠାରୁ	-6216
ଚାର୍ଯ୍ୟ	-6217
ଯାଇଥିବା	-6218
▁ଅଫିସିଆ	-6219
▁ଅହମ୍ମଦ	-6220
▁ଆସିଥାଏ	-6221
▁ଇସ୍ପାତ	-6222
▁ଗୁଳିମା	-6223
▁ଗ୍ୟାସ୍	-6224
▁ଘନିଷ୍ଠ	-6225
▁ଜାଗାରେ	-6226
▁ଦମ୍ପତି	-6227
▁ନାୟିକା	-6228
▁ନିୟମକୁ	-6229
▁ନୋଟିସ୍	-6230
▁ପଞ୍ଚାୟ	-6231
▁ପଡ଼ୋଶୀ	-6232
▁ପୂର୍ବେ	-6233
▁ପ୍ରଶାସ	-6234
▁ବଢ଼ିଛି	-6235
▁ବର୍ଷାର	-6236
▁ବିକ୍ରମ	-6237
▁ମହାରାଜ	-6238
▁ମିଶ୍ରଣ	-6239
▁ରିଜର୍ଭ	-6240
▁ଲକ୍ଷରୁ	-6241
▁ସଂଖ୍ୟକ	-6242
▁ସଙ୍ଗଠନ	-6243
▁ସମୁଦାୟ	-6244
▁ସାମରିକ	-6245
▁ସେବାକୁ	-6246
କ୍ସ୍ଟଦ୍ଧ	-6247
▁ଅକ୍ଟୋବର	-6248
▁ଅପରେସନ୍	-6249
▁କୃଷକଙ୍କ	-6250
▁ଗ୍ରାମୀଣ	-6251
▁ନିମିତ୍ତ	-6252
▁ପାଲଟିଛି	-6253
▁ପ୍ୟାକେଜ	-6254
▁ବଜ୍ରପାତ	-6255
▁ବିୟୋଗରେ	-6256
▁ଭିଡିଓରେ	-6257
▁ମଞ୍ଜୁରି	-6258
▁ମନ୍ଦିରର	-6259
▁ମହାନିର୍	-6260
▁ମାନ୍ୟବର	-6261
▁ମୁଣ୍ଡରେ	-6262
▁ଯାଆନ୍ତୁ	-6263
▁ରଖିଥିବା	-6264
▁ସମର୍ପିତ	-6265
▁ସ୍ଥିରତା	-6266
ପାକିସ୍ତାନ	-6267
▁ଦୀର୍ଘଦିନ	-6268
▁ନେତାଙ୍କୁ	-6269
▁ଫେରିଥିଲେ	-6270
▁ବଲାଙ୍ଗିର	-6271
▁ବିଳମ୍ବିତ	-6272
▁ମୁଖାର୍ଜୀ	-6273
▁ଶୁଣିବାକୁ	-6274
▁ସୁପ୍ରିମ୍	-6275
▁ସେବେଠାରୁ	-6276
▁ସ୍ୱଚ୍ଛତା	-6277
▁ସ୍ୱର୍ଣ୍ଣ	-6278
▁ଏୟାରପୋର୍ଟ	-6279
▁ତକ୍ସ୍ଟମ୍ଭ	-6280
▁ପାରମ୍ପରିକ	-6281
▁ପ୍ରତ୍ୟକ୍ଷ	-6282
▁ଶ୍ରଦ୍ଧାଳୁ	-6283
▁ସମ୍ପର୍କିତ	-6284
▁ସାମୁଦ୍ରିକ	-6285
▁ସ୍ଵାସ୍ଥ୍ୟ	-6286
▁ହୋଇପାରିବେ	-6287
▁ଗାନ୍ଧୀଙ୍କୁ	-6288
▁ନିମ୍ନଲିଖିତ	-6289
▁ପରିସ୍ଥିତିର	-6290
▁ପ୍ରତ୍ୟାହାର	-6291
▁ବିସ୍ଫୋରଣରେ	-6292
▁ଯାତ୍ରୀମାନେ	-6293
▁ଅଗ୍ନିକାଣ୍ଡର	-6294
▁ଇନଷ୍ଟାଗ୍ରାମ	-6295
▁କାର୍ଯ୍ୟକଳାପ	-6296
▁ହୋଇଯାଇଛନ୍ତି	-6297
▁ସ୍ୱାସ୍ଥ୍ୟାବସ୍ଥା	-6298
,“	-6299
en	-6300
il	-6301
ଅର	-6302
ଖୁ	-6303
ଘା	-6304
ତକ	-6305
ନୌ	-6306
ବଲ	-6307
ବସ	-6308
ୱନ	-6309
ଆଇଏ	-6310
ଆସୁ	-6311
ଉଁଶ	-6312
ଗମନ	-6313
ଗାପ	-6314
ଜଣେ	-6315
ଟରୁ	-6316
ଟିକ	-6317
ପଦା	-6318
ପର୍	-6319
ପାଠ	-6320
ବର୍	-6321
ବିତ	-6322
ମାସ	-6323
ଲାଭ	-6324
ଶ୍ଯ	-6325
ସକୁ	-6326
ସଲି	-6327
ହାମ	-6328
ିଲେ	-6329
େଲା	-6330
ୋଦୟ	-6331
▁24	-6332
▁40	-6333
▁ଉତ	-6334
▁ଉଲ	-6335
▁ଘଉ	-6336
▁ଚହ	-6337
▁ତମ	-6338
▁ରସ	-6339
▁୧୩	-6340
▁୨୧	-6341
▁୪୦	-6342
ଜନୀନ	-6343
ଜ୍ଜା	-6344
ଥିରେ	-6345
ଦେଖା	-6346
ଶେଖର	-6347
ସାଗର	-6348
ସିଆର	-6349
▁ଅଶ୍	-6350
▁ଆଳୁ	-6351
▁ଆଶୁ	-6352
▁ଆହା	-6353
▁ଉର୍	-6354
▁କନ୍	-6355
▁କାଠ	-6356
▁ଗୋଡ	-6357
▁ଜେଟ	-6358
▁ଡକା	-6359
▁ଡ଼ି	-6360
▁ନହେ	-6361
▁ନେବ	-6362
▁ପରମ	-6363
▁ପାଗ	-6364
▁ପୀୟ	-6365
▁ଫର୍	-6366
▁ବିଚ	-6367
▁ଭିଡ	-6368
▁ମାଳ	-6369
▁ରଘୁ	-6370
▁ଶାଉ	-6371
▁ସଦା	-6372
▁ସେଲ	-6373
▁ହଟି	-6374
▁ହସି	-6375
ଣ୍ଟାଇ	-6376
ଣ୍ଡାର	-6377
ଦେ୍ର୍	-6378
ଦ୍ୱାର	-6379
ର୍ତ୍ତ	-6380
ହିନୀର	-6381
▁ଆଇଜି	-6382
▁ଆଦାନ	-6383
▁ଏପଟେ	-6384
▁ଖଡ୍ଗ	-6385
▁ଜଣକୁ	-6386
▁ଜାନୁ	-6387
▁ଦଖାଇ	-6388
▁ନର୍ସ	-6389
▁ପଦ୍ଧ	-6390
▁ପାଢ଼	-6391
▁ପାରା	-6392
▁ଫାଟି	-6393
▁ବଢିବ	-6394
▁ଭାବୁ	-6395
▁ଯିହା	-6396
▁ଯିହୁ	-6397
▁ରୂପା	-6398
▁ଶୋକର	-6399
▁ସଜାଗ	-6400
▁ସହମତ	-6401
▁ସିଧା	-6402
▁ସିଭି	-6403
▁ହଳଦୀ	-6404
ଞ୍ଚଲ୍ୟ	-6405
ଟ୍ରିନା	-6406
ବେକ୍ଷଣ	-6407
ଯାତ୍ରା	-6408
▁ଅଭିନବ	-6409
▁ଆଦର୍ଶ	-6410
▁କାନ୍ଧ	-6411
▁ଖୋଳତା	-6412
▁ଚାଲିବ	-6413
▁ଚାଳନା	-6414
▁ତ୍ୟାଗ	-6415
▁ଦେଶରୁ	-6416
▁ପଞ୍ଚମ	-6417
▁ଫେରାଇ	-6418
▁ବାଙ୍ଗ	-6419
▁ବାସଭବ	-6420
▁ମିଥୁନ	-6421
▁ଯିଏକି	-6422
▁ରଖିଲେ	-6423
▁ରାୟକୁ	-6424
▁ଲିଙ୍କ	-6425
▁ଶିଶୁର	-6426
▁ସଫ୍ଟୱ	-6427
▁ସମିତି	-6428
ନ୍ତ୍ରଣା	-6429
ାନ୍ତରିତ	-6430
▁ଅଗ୍ରଣୀ	-6431
▁ଅନୁଦାନ	-6432
▁ଅନୁପ୍ର	-6433
▁ଏପ୍ରିଲ	-6434
▁ତନ୍ତ୍ର	-6435
▁ଦ୍ରବ୍ୟ	-6436
▁ନୌସେନା	-6437
▁ନୟାଗଡ଼	-6438
▁ପଦାର୍ଥ	-6439
▁ପରଠାରୁ	-6440
▁ପାଣ୍ଡେ	-6441
▁ପୂର୍ବକ	-6442
▁ଫାଇଲକୁ	-6443
▁ବୁଝିବା	-6444
▁ବୁଦ୍ଧି	-6445
▁ମୁଖ୍ୟା	-6446
▁ଯେତିକି	-6447
▁ରଣନୀତି	-6448
▁ସଙ୍କେତ	-6449
▁ସମନ୍ୱୟ	-6450
▁ସମର୍ପଣ	-6451
ୀମାନଙ୍କୁ	-6452
▁ଅତିକ୍ରମ	-6453
▁ଆସିବାକୁ	-6454
▁ଏଥିଯୋଗୁ	-6455
▁କରିପାରେ	-6456
▁ଚମତ୍କାର	-6457
▁ଜଣାପଡିବ	-6458
▁ଜଣାଶୁଣା	-6459
▁ଟ୍ରାଫିକ	-6460
▁ଦିଆଯିବା	-6461
▁ଧରିବାକୁ	-6462
▁ନିର୍ଯାତ	-6463
▁ପାଇପାରି	-6464
▁ପିଲାଙ୍କ	-6465
▁ପ୍ରତିଫଳ	-6466
▁ବର୍ତ୍ତି	-6467
▁ବିକାଶରେ	-6468
▁ବିଜେଡ଼ି	-6469
▁ବିନ୍ଯାସ	-6470
▁ବ୍ରିକ୍ସ	-6471
▁ରକ୍ତଚାପ	-6472
▁ଶ୍ରୀମତୀ	-6473
▁ସଂଯୁକ୍ତ	-6474
▁ସନ୍ଧ୍ୟା	-6475
▁ସମ୍ପନ୍ନ	-6476
▁ସାହାୟ୍ଯ	-6477
▁ସାହିତ୍ୟ	-6478
▁ସ୍ଥାପନା	-6479
▁ଆକାଂକ୍ଷା	-6480
▁ଆଲୋଚନାରେ	-6481
▁କର୍ମୀଙ୍କ	-6482
▁ଜଣାପଡ଼ିବ	-6483
▁ପ୍ରକୃତରେ	-6484
▁ପ୍ରତିନିଧ	-6485
▁ପ୍ରଦେଶରେ	-6486
▁ପ୍ରସାରିତ	-6487
▁ପ୍ରାପ୍ତି	-6488
▁ବଲାଙ୍ଗୀର	-6489
▁ରିଲାଏନ୍ସ	-6490
▁ଷ୍ଟେସନରେ	-6491
▁ହେବନାହିଁ	-6492
▁ଆମ୍ଭମାନେେ	-6493
▁ଇଣ୍ଡିଆନ୍ସ	-6494
▁କେନ୍ଦ୍ରକୁ	-6495
▁ଜିତେନ୍ଦ୍ର	-6496
▁ଦେବେନ୍ଦ୍ର	-6497
▁ନିଷ୍କ୍ରିୟ	-6498
▁ପରୀକ୍ଷାରେ	-6499
▁ବିଷୟବସ୍ତୁ	-6500
▁ମୁହୂର୍ତ୍ତ	-6501
▁ସକାରାତ୍ମକ	-6502
▁ସାର୍ବଜନୀନ	-6503
▁ଅତ୍ୟାଧୁନିକ	-6504
▁ଅତ୍ୟାବଶ୍ୟକ	-6505
▁କରାଯାଉଥିଲା	-6506
▁ଗୁରୁତରଙ୍କୁ	-6507
▁ବ୍ୟବସ୍ଥାରେ	-6508
▁କାର୍ଯ୍ୟକ୍ଷମ	-6509
▁କୃଷକମାନଙ୍କୁ	-6510
▁ଜନସାଧାରଣଙ୍କ	-6511
▁ମଧ୍ୟପ୍ରଦେଶର	-6512
▁ସୁପ୍ରିମକୋର୍ଟର	-6513
▁ସ୍ୱାସ୍ଥ୍ୟସେବା	-6514
ଅଛ	-6515
ଏବ	-6516
କୂ	-6517
ଥୁ	-6518
ବଣ	-6519
ମୂ	-6520
ଯି	-6521
ଳବ	-6522
ଶହ	-6523
ୀଦ	-6524
ୁଷ	-6525
ion	-6526
ଂଚଳ	-6527
ଗାଁ	-6528
ଙ୍ଘ	-6529
ଜିଂ	-6530
ଠାର	-6531
ଡ଼ର	-6532
ଡାଇ	-6533
ଦାସ	-6534
ଦୁଲ	-6535
ଦେଓ	-6536
ଫ୍ର	-6537
ବଲ୍	-6538
ଭେଦ	-6539
ସ୍ଯ	-6540
ାମୁ	-6541
ୋଷଣ	-6542
ୟକର	-6543
▁27	-6544
▁ଗହ	-6545
▁ତହ	-6546
▁ଧୁ	-6547
▁ବଧ	-6548
?"""	-6549
ଆଡ଼େ	-6550
କ୍ଷକ	-6551
ଙ୍ଘନ	-6552
ଚାଳୟ	-6553
ଦିନର	-6554
ଦ୍ଦି	-6555
ଫୋନ୍	-6556
ବାନ୍	-6557
ବ୍ଦୀ	-6558
ବ୍ୟୁ	-6559
ମୁଖୀ	-6560
ମୁଖେ	-6561
ମ୍ବୁ	-6562
ଲ୍ୟା	-6563
ସଭାର	-6564
ସ୍କଟ	-6565
ସ୍ଥଳ	-6566
୍ୟାର	-6567
ୟୁରେ	-6568
▁100	-6569
▁500	-6570
▁ଅନୀ	-6571
▁ଆଲି	-6572
▁ଏବି	-6573
▁କବର	-6574
▁କିଶ	-6575
▁ଗାଇ	-6576
▁ଗୋଳ	-6577
▁ଦୂତ	-6578
▁ନୀର	-6579
▁ପଚି	-6580
▁ପଛର	-6581
▁ବାଘ	-6582
▁ମାପ	-6583
▁ମିଜ	-6584
▁ମେହ	-6585
▁ଯୌନ	-6586
▁ରଖୁ	-6587
▁ରୋଷ	-6588
▁ଶ୍ୱ	-6589
▁ସୋର	-6590
▁ହ୍ୱ	-6591
▁ୟୁନ	-6592
ଖ୍ୟାତ	-6593
ଙ୍ଗିକ	-6594
ଧିକରଣ	-6595
ରାଜ୍ୟ	-6596
ଲଙ୍କୁ	-6597
▁2015	-6598
▁ଅପରି	-6599
▁ଅଶ୍ୱ	-6600
▁ଅସ୍ୱ	-6601
▁ଆଚରଣ	-6602
▁ଐତିହ	-6603
▁କକ୍ଷ	-6604
▁କନ୍ନ	-6605
▁କପିଲ	-6606
▁ଗୋଏଲ	-6607
▁ଜାଣେ	-6608
▁ଡାଲି	-6609
▁ତାଲା	-6610
▁ଦସ୍ତ	-6611
▁ଦେବଗ	-6612
▁ନାଟକ	-6613
▁ପାଦୁ	-6614
▁ପିଏମ	-6615
▁ଫେସ୍	-6616
▁ବିଗ୍	-6617
▁ଭଲରେ	-6618
▁ମହଜୁ	-6619
▁ଯୋଡ଼	-6620
▁ରେଜି	-6621
▁ଲାଗେ	-6622
▁ଶ୍ରମ	-6623
▁ସମୀର	-6624
▁ସାଗର	-6625
▁ସୂର୍	-6626
▁ସୌରଭ	-6627
କିନ୍ତୁ	-6628
ସ୍ତରରେ	-6629
ସ୍ଥାୟୀ	-6630
ାନୀଙ୍କ	-6631
▁ଅଂଚଳର	-6632
▁ଅଙ୍ଗନ	-6633
▁ଆସ୍ଥା	-6634
▁କହିଲି	-6635
▁କ୍ଷୀର	-6636
▁ତୁଳନା	-6637
▁ନୃତ୍ୟ	-6638
▁ପାଳିତ	-6639
▁ଫେସବୁ	-6640
▁ଫୋଲଡର	-6641
▁ବାଟରେ	-6642
▁ଭାରତୀ	-6643
▁ମଜଭୁତ	-6644
▁ମ୍ୟାନ	-6645
▁ରଙ୍ଗର	-6646
▁ରିଲିଫ	-6647
▁ଲାଞ୍ଚ	-6648
▁ଶସ୍ତା	-6649
▁ଶୋଭାଯ	-6650
▁ଅବହେଳା	-6651
▁ଅଭିଜ୍ଞ	-6652
▁ଅସମର୍ଥ	-6653
▁ଆତଙ୍କୀ	-6654
▁ଉପଗ୍ରହ	-6655
▁ଏଥିନେଇ	-6656
▁ଓହ୍ଲାଇ	-6657
▁କୋଭିଡ୍	-6658
▁ଗ୍ରାମର	-6659
▁ଟ୍ୱିଟର	-6660
▁ଡେବ୍ୟୁ	-6661
▁ଡେସ୍କଟ	-6662
▁ଢଙ୍ଗରେ	-6663
▁ଦାବିରେ	-6664
▁ଦେଇଥାଏ	-6665
▁ନେତ୍ରୀ	-6666
▁ନେବାରେ	-6667
▁ପଡ଼ିଲେ	-6668
▁ପଢନ୍ତୁ	-6669
▁ପଣ୍ଡିତ	-6670
▁ପରାଜିତ	-6671
▁ପିଟିସନ	-6672
▁ପୋଷ୍ଟର	-6673
▁ଫେରିବା	-6674
▁ବିଭାଜନ	-6675
▁ମଣିପୁର	-6676
▁ମଧ୍ୟକୁ	-6677
▁ମୁହଁରେ	-6678
▁ରାଉରକେ	-6679
▁ସହଭାଗୀ	-6680
▁ସିଙ୍ଗା	-6681
▁ସିରିଜ୍	-6682
▁ସେଠାକୁ	-6683
▁ସେବାରେ	-6684
▁ହୃଦଘାତ	-6685
ଙ୍କକ୍ସ୍ଟ	-6686
▁ଅଧ୍ୟାପକ	-6687
▁ଅଭିମୁଖେ	-6688
▁ଉପଲକ୍ଷେ	-6689
▁କଶ୍ମୀରର	-6690
▁ଜବରଦସ୍ତ	-6691
▁ଜୟଶଙ୍କର	-6692
▁ନଥିବାରୁ	-6693
▁ପଚାରିଲେ	-6694
▁ପାଇଥିବା	-6695
▁ପାଠପଢ଼ା	-6696
▁ପୋର୍ଟାଲ	-6697
▁ବନବିଭାଗ	-6698
▁ବାହିନୀର	-6699
▁ବିନିଯୋଗ	-6700
▁ମାନଙ୍କର	-6701
▁ରଖିଥିଲା	-6702
▁ଲକ୍ଷ୍ନୌ	-6703
▁ଲାଭଦାୟକ	-6704
▁ଶତାବ୍ଦୀ	-6705
▁ଶାହାଙ୍କ	-6706
▁ସରକାରକୁ	-6707
▁ସହଯୋଗରେ	-6708
▁ହୋଇନଥାଏ	-6709
▁ଆମନ୍ତ୍ରଣ	-6710
▁ଉଦ୍ଦିଷ୍ଟ	-6711
▁କରାଇଥିଲେ	-6712
▁କାଗଜପତ୍ର	-6713
▁କାଶ୍ମୀରର	-6714
▁ଚାଞ୍ଚଲ୍ୟ	-6715
▁ଟର୍ମିନାଲ	-6716
▁ନେଉଛନ୍ତି	-6717
▁ପୁଲିସ୍କୁ	-6718
▁ମୂଲ୍ୟବାନ	-6719
▁ସଂରକ୍ଷିତ	-6720
▁ସଦସ୍ୟଙ୍କ	-6721
▁ହେଉନାହିଁ	-6722
ତୁମ୍ଭମାନେେ	-6723
▁ଉତ୍ତ୍ୟକ୍ତ	-6724
▁କାର୍ଯ୍ୟରତ	-6725
▁ଦର୍ଶାନ୍ତୁ	-6726
▁ପ୍ରତିଶତରୁ	-6727
▁ସଚିବାଳୟରେ	-6728
▁ସାରିଛନ୍ତି	-6729
▁ହସ୍ପିଟାଲ୍	-6730
▁ହୋଇଥାନ୍ତି	-6731
▁କନଫରେନ୍ସିଂ	-6732
▁ଚଳଚ୍ଚିତ୍ରରେ	-6733
▁ସଂକ୍ରମିତଙ୍କ	-6734
▁ହୋଇନାହାନ୍ତି	-6735
▁ପରମେଶ୍ବରଙ୍କୁ	-6736
▁ହୋଇପାରିନାହିଁ	-6737
▁ଶାନ୍ତିପୂର୍ଣ୍ଣ	-6738
▁ଅଭିଯୁକ୍ତମାନଙ୍କୁ	-6739
▁ସୁପ୍ରିମକୋର୍ଟଙ୍କ	-6740
ar	-6741
କନ	-6742
ବୈ	-6743
ୋବ	-6744
ୋମ	-6745
୍ନ	-6746
ଖିଆ	-6747
ଡ୍ର	-6748
ତୁକ	-6749
ଦ୍ଯ	-6750
ପଡି	-6751
ପାଟ	-6752
ଫ୍ଟ	-6753
ଭର୍	-6754
ମ୍ସ	-6755
ଯଦି	-6756
ଲଘୁ	-6757
ଶିଷ	-6758
ଷାର	-6759
ସାନ	-6760
ସୁଣ	-6761
ହିମ	-6762
ାତନ	-6763
ାମତ	-6764
ିନୀ	-6765
ୀରା	-6766
ୋଗୁ	-6767
୍ବେ	-6768
ୟାନ	-6769
▁1.	-6770
▁21	-6771
▁31	-6772
▁।”	-6773
▁ଆଠ	-6774
▁ଘନ	-6775
▁ଛେ	-6776
▁ଝଗ	-6777
▁ଭୀ	-6778
▁ମଡ	-6779
▁ମସ	-6780
▁ସଭ	-6781
▁୩୦	-6782
ment	-6783
ଆଇଏସ	-6784
ଆଇପି	-6785
ଏସଏମ	-6786
ଗାମୀ	-6787
ଜେପି	-6788
ଞ୍ଜେ	-6789
ପୁରା	-6790
ପ୍ଟର	-6791
ବଶତଃ	-6792
ବାଦର	-6793
ବ୍ରା	-6794
ମାନ୍	-6795
ମିତା	-6796
ର୍ପଣ	-6797
ସନୀୟ	-6798
ସିଜି	-6799
ହାନୀ	-6800
ାବତୀ	-6801
ିକୃତ	-6802
ୁରୋପ	-6803
ୟମରେ	-6804
▁ଅନି	-6805
▁ଅଲି	-6806
▁ଅହମ	-6807
▁ଆଡଭ	-6808
▁ଆରବ	-6809
▁ଇତି	-6810
▁ଇରା	-6811
▁ଇଲୀ	-6812
▁ଉପର	-6813
▁କନକ	-6814
▁ଗୋଆ	-6815
▁ଗ୍ଭ	-6816
▁ଛାଉ	-6817
▁ଜ୍ୱ	-6818
▁ଝାଡ	-6819
▁ଟାଉ	-6820
▁ଦଲି	-6821
▁ଦିଏ	-6822
▁ଧନୁ	-6823
▁ନାଥ	-6824
▁ବାପ	-6825
▁ବୁମ	-6826
▁ଭୟର	-6827
▁ମନୀ	-6828
▁ରବୀ	-6829
▁ଶତୃ	-6830
▁ସାଥ	-6831
▁ହିଜ	-6832
▁ୟୁଜ	-6833
କୁମାର	-6834
ତିରାଜ	-6835
ଦ୍ର୍ୟ	-6836
ଧିକାର	-6837
ନାହୁଁ	-6838
ପ୍ରୀତ	-6839
ବନ୍ଦୀ	-6840
ମାନିକ	-6841
▁ଅଜିତ	-6842
▁ଅଭିଷ	-6843
▁ଆଧ୍ୟ	-6844
▁ଆଲିଆ	-6845
▁ଇଟାଲ	-6846
▁ଇନ୍ଦ	-6847
▁କଟିବ	-6848
▁କଣ୍ଠ	-6849
▁କାଉନ	-6850
▁କାନା	-6851
▁କିଟ୍	-6852
▁କୃତି	-6853
▁ଚକ୍ର	-6854
▁ଛତ୍ର	-6855
▁ଜିଣି	-6856
▁ଦବେି	-6857
▁ଦରମା	-6858
▁ଧୋନୀ	-6859
▁ନକରି	-6860
▁ନିଗମ	-6861
▁ନେଲା	-6862
▁ପଢ଼ି	-6863
▁ପଥରେ	-6864
▁ପଦରେ	-6865
▁ପ୍ରୋ	-6866
▁ଫାର୍	-6867
▁ଫ୍ଲା	-6868
▁ବାବି	-6869
▁ବିପ୍	-6870
▁ବୁଡି	-6871
▁ବେଶି	-6872
▁ବ୍ଲା	-6873
▁ଭଟ୍ଟ	-6874
▁ଭିଏତ	-6875
▁ଭୂଷଣ	-6876
▁ମାଲେ	-6877
▁ମିଳେ	-6878
▁ରାଣୀ	-6879
▁ରୋଗର	-6880
▁ଲେଖକ	-6881
▁ଶସ୍ଯ	-6882
▁ଶୁଣୁ	-6883
▁ଶୈଳୀ	-6884
▁ସଦୃଶ	-6885
▁ସମୂହ	-6886
▁ସାମି	-6887
▁ସେଲ୍	-6888
▁ସ୍ପି	-6889
▁ସ୍ୱେ	-6890
▁ହେତୁ	-6891
ଞ୍ଚଳରେ	-6892
ମଧ୍ୟରେ	-6893
ର୍ଣ୍ଣର	-6894
ଲମ୍ବିତ	-6895
ସ୍ଥଳରେ	-6896
▁ଆବର୍ଜ	-6897
▁ଏନଡିଏ	-6898
▁କଥାରେ	-6899
▁ଜୀବିତ	-6900
▁ଟ୍ୱିଟ	-6901
▁ତାରକା	-6902
▁ତାଲିମ	-6903
▁ଦିଗକୁ	-6904
▁ଧରିଛି	-6905
▁ନୋଟିସ	-6906
▁ବସ୍ଟି	-6907
▁ବାରାଣ	-6908
▁ବାଷ୍ପ	-6909
▁ବେଆଇନ	-6910
▁ବୟସରେ	-6911
▁ମଣ୍ଡଳ	-6912
▁ମତାମତ	-6913
▁ମାନ୍ଦ	-6914
▁ମୂଲ୍ଯ	-6915
▁ଯାକୁବ	-6916
▁ରାତ୍ର	-6917
▁ସଂଧ୍ୟ	-6918
▁ସଙ୍କଟ	-6919
▁ସହମତି	-6920
▁ସୁନୀଲ	-6921
▁ହଇରାଣ	-6922
▁ୟୁଦ୍ଧ	-6923
ନିର୍ବାଚ	-6924
▁ଅଣଦେଖା	-6925
▁ଅଭ୍ୟାସ	-6926
▁ଅର୍ଦ୍ଧ	-6927
▁ଉପାଦାନ	-6928
▁ଏନଡିଆର	-6929
▁ଏହାଛଡା	-6930
▁କଙ୍ଗନା	-6931
▁କିଙ୍ଗ୍	-6932
▁କେଉଁଠୁ	-6933
▁କେରଳରେ	-6934
▁କୋରୋନା	-6935
▁ଗୁପ୍ତା	-6936
▁ଗୁଳିକା	-6937
▁ଚେହେରା	-6938
▁ଚୌଧୁରୀ	-6939
▁ଜ୍ୟୋତି	-6940
▁ତାହେଲେ	-6941
▁ଦର୍ଶାଇ	-6942
▁ପଡିଥାଏ	-6943
▁ପିସିସି	-6944
▁ବଞ୍ଚିତ	-6945
▁ଭେଟିବେ	-6946
▁ଶକ୍ତିର	-6947
▁ଶୌଚାଳୟ	-6948
▁ସଂଗଠନର	-6949
▁ସିନ୍ଧୁ	-6950
▁ସେକ୍ଟର	-6951
▁ୱିକେଟ୍	-6952
ମ୍ମଦାବାଦ	-6953
▁ଅଗ୍ରଗତି	-6954
▁ଅଭାବନୀୟ	-6955
▁ଆତଙ୍କିତ	-6956
▁ଇଣ୍ଡିଆନ	-6957
▁ଇଣ୍ଡୋନେ	-6958
▁ଉତ୍ତରରେ	-6959
▁ଉଦ୍ବୋଧନ	-6960
▁ଉପତ୍ୟକା	-6961
▁ଏଜେନ୍ସି	-6962
▁ଏଥିଲାଗି	-6963
▁ଏହାଛଡ଼ା	-6964
▁ଏହାଫଳରେ	-6965
▁କମିଟିରେ	-6966
▁କମ୍ପ୍ୟୁ	-6967
▁କୁହନ୍ତୁ	-6968
▁ଖାନ୍ଙ୍କ	-6969
▁ଖୋଲନ୍ତୁ	-6970
▁ଖୋଳତାଡ଼	-6971
▁ଗରିବଙ୍କ	-6972
▁ଗୁଜୁରାଟ	-6973
▁ଦିଅନ୍ତି	-6974
▁ଦିଲ୍ଲୀପ	-6975
▁ନିଦେ୍ର୍	-6976
▁ନ୍ୟୁଜିଲ	-6977
▁ପରିବର୍ତ	-6978
▁ପ୍ରତିହତ	-6979
▁ପ୍ରବଳରୁ	-6980
▁ବଲିଉଡରେ	-6981
▁ବିଭାଗକୁ	-6982
▁ବିମାନକୁ	-6983
▁ବିମାନରେ	-6984
▁ବିଶ୍ରାମ	-6985
▁ବିହାରରେ	-6986
▁ଭିଟାମିନ	-6987
▁ଭିଡିଓଟି	-6988
▁ଭିତ୍ତିକ	-6989
▁ମସିହାରେ	-6990
▁ମାର୍ଚ୍ଚ	-6991
▁ଶିଶୁଙ୍କ	-6992
▁ସଂସ୍କରଣ	-6993
▁ସତର୍କତା	-6994
▁ସମ୍ଭବପର	-6995
▁ସହେିପରି	-6996
▁ହୋଇସାରି	-6997
▁ଆକ୍ରମଣକୁ	-6998
▁ଆନୁମାନିକ	-6999
▁ତ୍ରିପାଠୀ	-7000
▁ନିଲମ୍ବିତ	-7001
▁ପଞ୍ଜିକୃତ	-7002
▁ପରିଷ୍କାର	-7003
▁ଫାଇନାଲରେ	-7004
▁ବିଜେଡିରେ	-7005
▁ବ୍ଯବସ୍ଥା	-7006
▁ସିଆରପିଏଫ	-7007
▁ସ୍ଥିତିକୁ	-7008
▁ହରାଇଥିଲେ	-7009
▁ହୋଇଗଲାଣି	-7010
▁ହୋଇନଥିଲେ	-7011
▁ଏହାଦ୍ବାରା	-7012
▁କର୍ମୀମାନେ	-7013
▁ଛାତ୍ରଙ୍କୁ	-7014
▁ଟ୍ରମ୍ପଙ୍କ	-7015
▁ଦାରିଦ୍ର୍ୟ	-7016
▁ପଦାଧିକାରୀ	-7017
▁ବିଧାୟକଙ୍କ	-7018
▁ମୃତ୍ୟୁବରଣ	-7019
▁ହୋଇପଡ଼ିଛି	-7020
▁କ୍ୟାବିନେଟ୍	-7021
▁କ୍ୟାମେରାରେ	-7022
▁ଡ଼ାକ୍ତରଖାନ	-7023
▁ପ୍ରତିବାଦରେ	-7024
▁ଯେଉଁଥିପାଇଁ	-7025
▁ଯୋଗଦେଇଥିଲେ	-7026
▁ଲୋକପ୍ରିୟତା	-7027
▁ସ୍ମାର୍ଟଫୋନ	-7028
▁ଅନ୍ୟମାନଙ୍କୁ	-7029
▁ଉଲ୍ଲେଖଯୋଗ୍ୟ	-7030
▁କରିଦିଆଯାଇଛି	-7031
▁କର୍ମକର୍ତ୍ତା	-7032
▁ଦେଖାଦେଇଥିଲା	-7033
▁ପଶ୍ଚିମବଙ୍ଗର	-7034
▁ପହଞ୍ଚିଛନ୍ତି	-7035
▁ବନ୍ଧୁମାନଙ୍କ	-7036
▁ଜଣାପଡ଼ିନାହିଁ	-7037
▁ପଟ୍ଟନାୟକଙ୍କୁ	-7038
▁ଅନ୍ତରାଷ୍ଟ୍ରୀୟ	-7039
es	-7040
et	-7041
ଚୁ	-7042
ଛେ	-7043
ଧକ	-7044
ନଗ	-7045
ରଖ	-7046
ଷି	-7047
ୋଳ	-7048
ୌପ	-7049
▁/	-7050
କେଇ	-7051
ଛୁଆ	-7052
ତରଣ	-7053
ତ୍ଵ	-7054
ମିର	-7055
ମୂଳ	-7056
ରାଗ	-7057
ଲିକ	-7058
ଲୱେ	-7059
ହୋଇ	-7060
ାବହ	-7061
ାହୀ	-7062
ିଣୀ	-7063
ୀକୁ	-7064
ୋଲା	-7065
୦୦୦	-7066
▁(%	-7067
▁28	-7068
▁ଥି	-7069
▁ଦବ	-7070
▁୧୮	-7071
କ୍ରା	-7072
ଗାରେ	-7073
ଚନୀୟ	-7074
ଡେନ୍	-7075
ଡ୍ରେ	-7076
ନିୟର	-7077
ପାନୀ	-7078
ପ୍ଟେ	-7079
ମାଣୁ	-7080
ରୋଧକ	-7081
ଲିଟି	-7082
ଲେଟ୍	-7083
ସାରା	-7084
ହେରୁ	-7085
ାଜନକ	-7086
ାଣସି	-7087
ାୟାର	-7088
ିକ୍ତ	-7089
ୱାରୀ	-7090
▁ଅଛୁ	-7091
▁ଆଂଚ	-7092
▁ଇନି	-7093
▁ଋତୁ	-7094
▁ଏଚ୍	-7095
▁ଓଭର	-7096
▁କବି	-7097
▁କଲୁ	-7098
▁କଳହ	-7099
▁କାଉ	-7100
▁କାଟ	-7101
▁କୂଳ	-7102
▁ଗୁଳ	-7103
▁ଗେହ	-7104
▁ଚିର	-7105
▁ଚୋର	-7106
▁ଜୁଲ	-7107
▁ଝଡ଼	-7108
▁ଟଳି	-7109
▁ଡେପ	-7110
▁ଦେୟ	-7111
▁ଧନୀ	-7112
▁ନୀତ	-7113
▁ପାଏ	-7114
▁ବୁଲ	-7115
▁ବେଦ	-7116
▁ଭାତ	-7117
▁ଭେଦ	-7118
▁ମଜା	-7119
▁ମହୁ	-7120
▁ମାଉ	-7121
▁ଶଷେ	-7122
▁ସବୋ	-7123
ଗୋଷ୍ଠ	-7124
ଜୟନ୍ତ	-7125
ଦ୍ଦିନ	-7126
ଦ୍ୟୋଗ	-7127
ନ୍ତୁଦ	-7128
ନ୍ଦିର	-7129
ପକ୍ଷେ	-7130
ଯାଉଛି	-7131
ାଉଣ୍ଡ	-7132
ାମାତା	-7133
ୀକୃତି	-7134
▁2022	-7135
▁ଅଂଶୀ	-7136
▁ଅବ୍ର	-7137
▁ଆବାସ	-7138
▁ଉଡ଼ା	-7139
▁ଉଦ୍ଧ	-7140
▁କର୍ତ	-7141
▁କ୍ଷମ	-7142
▁ଖିଲା	-7143
▁ଗଢ଼ି	-7144
▁ଗିରି	-7145
▁ଗ୍ରା	-7146
▁ଚାଲେ	-7147
▁ଚିନି	-7148
▁ଚୁପ୍	-7149
▁ଛାନ୍	-7150
▁ଡାଉନ	-7151
▁ଦିନର	-7152
▁ଦୂତା	-7153
▁ନିବି	-7154
▁ନିଶା	-7155
▁ନୀରବ	-7156
▁ପାଇପ	-7157
▁ପୁଅର	-7158
▁ଫ୍ରେ	-7159
▁ବିପି	-7160
▁ବ୍ରେ	-7161
▁ଭାସି	-7162
▁ମଦ୍ୟ	-7163
▁ମନୋଜ	-7164
▁ମାନି	-7165
▁ରକ୍ଷ	-7166
▁ଲାଲୁ	-7167
▁ଲିଟର	-7168
▁ସଫେଇ	-7169
▁ସବୁଜ	-7170
▁ସୋନା	-7171
▁ସ୍ନା	-7172
ଗ୍ରାହୀ	-7173
ଥାନ୍ତା	-7174
ନୀତିରେ	-7175
ପୂର୍ବକ	-7176
ପ୍ରତିକ	-7177
ପ୍ରସାଦ	-7178
ବସ୍ଥାର	-7179
ମେଣ୍ଟ୍	-7180
ଶାନ୍ତି	-7181
ସ୍ତ୍ରୀ	-7182
ସ୍ୱାମୀ	-7183
ାଯାଉଛି	-7184
ୂର୍ଣ୍ଣ	-7185
▁ଆରୋହୀ	-7186
▁କ୍ଷେତ	-7187
▁ଗୋପାଳ	-7188
▁ଚାନ୍ଦ	-7189
▁ତୀର୍ଥ	-7190
▁ତ୍ୱଚା	-7191
▁ଦ୍ବାର	-7192
▁ନାଇଡୁ	-7193
▁ବଂଶଧର	-7194
▁ଭିଜିଲ	-7195
▁ମଣିଷର	-7196
▁ମହଜୁଦ	-7197
▁ମହାଶୟ	-7198
▁ମିଜୋର	-7199
▁ରେଲୱେ	-7200
▁ଷ୍ଟୋର	-7201
▁ସଂଗୀତ	-7202
▁ସୈନ୍ୟ	-7203
▁ହେଲିକ	-7204
କରାତ୍ମକ	-7205
କାର୍ଯ୍ୟ	-7206
ବସ୍ଥାରେ	-7207
▁ଅଧିପତି	-7208
▁ଆଂଚଳିକ	-7209
▁ଆଗ୍ରହୀ	-7210
▁ଆରଜେଡି	-7211
▁ଆୱାର୍ଡ	-7212
▁ଉଦ୍ବେଗ	-7213
▁କମ୍ପାନ	-7214
▁କ୍ରୀଡା	-7215
▁ଚାକିରୀ	-7216
▁ଜବାବରେ	-7217
▁ଜୀବନ୍ତ	-7218
▁ଟେକ୍ନୋ	-7219
▁ଡିସିପି	-7220
▁ତତ୍କାଳ	-7221
▁ଧାରାରେ	-7222
▁ପରମାଣୁ	-7223
▁ପ୍ରତୀକ	-7224
▁ପ୍ରମୋଦ	-7225
▁ବ୍ୟାଟ୍	-7226
▁ଭୂକମ୍ପ	-7227
▁ମାଟିରେ	-7228
▁ମାଧ୍ୟମ	-7229
▁ମିଥ୍ୟା	-7230
▁ମୁମ୍ବଇ	-7231
▁ରାଜସ୍ୱ	-7232
▁ରିଲିଫ୍	-7233
▁ଲକଡାଉନ	-7234
▁ଲାଭବାନ	-7235
▁ଶୁଣିବା	-7236
▁ଶୁଣିଲେ	-7237
▁ଶୋଚନୀୟ	-7238
▁ସାମନ୍ତ	-7239
ଠାରକ୍ସ୍ଟ	-7240
ମୂର୍ତ୍ତି	-7241
ର୍ଣ୍ଣାମେ	-7242
▁ଅନଲାଇନ୍	-7243
▁ଏତିକିରେ	-7244
▁କହିଥିଲା	-7245
▁କାର୍ତ୍ତ	-7246
▁ଗଣ୍ଡଗୋଳ	-7247
▁ଗ୍ରାମ୍ୟ	-7248
▁ଚ୍ୟାନେଲ	-7249
▁ଜାନୁଆରୀ	-7250
▁ଟଙ୍କାକୁ	-7251
▁ଦୋଷୀଙ୍କ	-7252
▁ଦ୍ଵିତୀୟ	-7253
▁ନିଶ୍ୱାସ	-7254
▁ନୂଆପଡ଼ା	-7255
▁ପାଉଥିବା	-7256
▁ପୁଲିସରେ	-7257
▁ବନ୍ଦରରେ	-7258
▁ବିଦେଶରେ	-7259
▁ବିବାଦୀୟ	-7260
▁ବୈଜୟନ୍ତ	-7261
▁ଭିଡିଓକୁ	-7262
▁ମୁଖ୍ୟତଃ	-7263
▁ଯୋଜନାକୁ	-7264
▁ରାଜନେତା	-7265
▁ସମ୍ବୋଧନ	-7266
▁ସୂର୍ଯ୍ୟ	-7267
▁ସ୍ମାରକୀ	-7268
▁ହେବାପରେ	-7269
କେନ୍ଦ୍ରରେ	-7270
▁ଅତ୍ୟାଚାର	-7271
▁ଅଭିଜ୍ଞତା	-7272
▁କଶ୍ମୀରରେ	-7273
▁ଚର୍ଚ୍ଚାର	-7274
▁ଦୃଶ୍ୟମାନ	-7275
▁ଦେଇନଥିଲେ	-7276
▁ନୁହଁନ୍ତି	-7277
▁ପଡ଼ିଥିଲେ	-7278
▁ବିଧିବଦ୍ଧ	-7279
▁ଭଗବାନଙ୍କ	-7280
▁ମୃତ୍ୟୁରେ	-7281
▁ଯାନବାହାନ	-7282
▁ରାଜନୀତିକ	-7283
▁ରାଜିନାମା	-7284
▁ଲୋକାର୍ପଣ	-7285
▁ସନ୍ତାନଗଣ	-7286
▁ସମସ୍ୟାକୁ	-7287
▁ସମସ୍ୟାରେ	-7288
▁ସମ୍ଭାବ୍ୟ	-7289
▁ସୁପ୍ରିମୋ	-7290
▁ସେତବେେଳେ	-7291
▁ସ୍ତ୍ରୀକୁ	-7292
▁ୟିରୁଶାଲମ	-7293
▁ଅପରପକ୍ଷରେ	-7294
▁ଅଷ୍ଟ୍ରେଲି	-7295
▁ଉଠାଇଛନ୍ତି	-7296
▁ଉପସ୍ଥାପିତ	-7297
▁କଂଗ୍ରେସକୁ	-7298
▁ଦାୟିତ୍ୱରେ	-7299
▁ଦେଶବ୍ୟାପୀ	-7300
▁ନିର୍ଯାତନା	-7301
▁ପଦକ୍ଷେପକୁ	-7302
▁ପାରିନଥିଲା	-7303
▁ମର୍ମନ୍ତୁଦ	-7304
▁ରାଜେନ୍ଦ୍ର	-7305
▁ସଂଖ୍ୟାଲଘୁ	-7306
▁ଆଧୁନିକୀକରଣ	-7307
▁ଚାଷୀମାନଙ୍କ	-7308
▁ଟୁର୍ଣ୍ଣାମେ	-7309
▁ନାବାଳିକାକୁ	-7310
▁ଭୁବନେଶ୍ୱରର	-7311
▁ଯାତ୍ରୀଙ୍କୁ	-7312
▁ରାଜସ୍ଥାନରେ	-7313
▁ୱେଷ୍ଟଇଣ୍ଡି	-7314
▁ନିଷ୍ପତ୍ତିକୁ	-7315
▁ମାନ୍ଦାବସ୍ଥା	-7316
▁ଜିଲ୍ଲାଗୁଡ଼ିକ	-7317
▁ମହତ୍ୱପୂର୍ଣ୍ଣ	-7318
▁ସଦାପ୍ରଭୁଙ୍କର	-7319
▁ବ୍ୟକ୍ତିମାନଙ୍କୁ	-7320
▁ରାଷ୍ଟ୍ରପତିଙ୍କୁ	-7321
,”	-7322
el	-7323
is	-7324
ro	-7325
ଅପ	-7326
ଏଇ	-7327
ଜତ	-7328
ଡୀ	-7329
ମଳ	-7330
ସବ	-7331
୨୦	-7332
’,	-7333
▁M	-7334
-16	-7335
ଂଜନ	-7336
ଅପ୍	-7337
ଖାେ	-7338
ଡର୍	-7339
ଡୁର	-7340
ଦୀଯ	-7341
ଦୁର	-7342
ଦ୍ଵ	-7343
ନୋଲ	-7344
ପ୍ନ	-7345
ଫାନ	-7346
ଫୋର	-7347
ଭିସ	-7348
ମସି	-7349
ରିଫ	-7350
ରୁଖ	-7351
ର୍ଚ	-7352
ର୍ଧ	-7353
ଲିଯ	-7354
ଳେଇ	-7355
ଶିର	-7356
ଷ୍ମ	-7357
ିମା	-7358
ୀକା	-7359
ୋକା	-7360
ୋବର	-7361
▁22	-7362
▁26	-7363
▁ଉଇ	-7364
▁ଏଡ	-7365
▁କଦ	-7366
▁ତଳ	-7367
▁ମର	-7368
▁ଷଡ	-7369
▁ସୃ	-7370
▁ସୟ	-7371
ଏସଏସ	-7372
ଓ୍ବା	-7373
କ୍ସନ	-7374
ଗ୍ରେ	-7375
ଜନିତ	-7376
ଡ଼ାର	-7377
ଣମୂଳ	-7378
ଣ୍ଡ୍	-7379
ଧର୍ମ	-7380
ଫିକ୍	-7381
ବଜାର	-7382
ବିଂଶ	-7383
ମାରୀ	-7384
ମିଶି	-7385
ମୁନା	-7386
ଲାରୁ	-7387
ହେଲା	-7388
ାନସର	-7389
ାବଳି	-7390
ୟର୍କ	-7391
▁150	-7392
▁ଉତର	-7393
▁ଉଷୁ	-7394
▁ଏଲ୍	-7395
▁କଏଦ	-7396
▁କୀର	-7397
▁କୋଉ	-7398
▁ଖରା	-7399
▁ଗାଧ	-7400
▁ଚରଣ	-7401
▁ଚାଳ	-7402
▁ଜନକ	-7403
▁ଜୈଶ	-7404
▁ଠପ୍	-7405
▁ଠାବ	-7406
▁ଡାଇ	-7407
▁ତତ୍	-7408
▁ଥାଉ	-7409
▁ଦାଶ	-7410
▁ନକଲ	-7411
▁ନୋଟ	-7412
▁ପାଶ	-7413
▁ଫଳକ	-7414
▁ବସୁ	-7415
▁ବିବ	-7416
▁ବୋଝ	-7417
▁ଭରଣ	-7418
▁ମଂଚ	-7419
▁ମରଣ	-7420
▁ମେକ	-7421
▁ଯାକ	-7422
▁ଶହେ	-7423
▁ସଂଖ	-7424
▁ସୁଇ	-7425
▁ସେଟ	-7426
▁ୟାଇ	-7427
ଉଥିବା	-7428
ଏସ୍ପି	-7429
ଘାଟନୀ	-7430
ଚନ୍ଦନ	-7431
ଚାର୍ଜ	-7432
ଦ୍ଦାର	-7433
ଦ୍ୱୀପ	-7434
ନ୍ନତି	-7435
ପେକ୍ଷ	-7436
ବର୍ତୀ	-7437
ବାହିକ	-7438
ାନ୍ସର	-7439
୍ୟାରେ	-7440
୍ୟୁରି	-7441
▁ଅଦ୍ୟ	-7442
▁ଅନୀଲ	-7443
▁ଆରାମ	-7444
▁ଆୟକର	-7445
▁ଇସଲା	-7446
▁କାଶୀ	-7447
▁କୃତୀ	-7448
▁ଗଙ୍ଗ	-7449
▁ଗଣତି	-7450
▁ଗୋଡ଼	-7451
▁ଟିପ୍	-7452
▁ତ୍ୱର	-7453
▁ଦତ୍ତ	-7454
▁ଦଳରୁ	-7455
▁ଧନିଆ	-7456
▁ଧରାପ	-7457
▁ନଦୀର	-7458
▁ନେତୃ	-7459
▁ପନ୍ତ	-7460
▁ପାନ୍	-7461
▁ପ୍ରବ	-7462
▁ଫୁଟି	-7463
▁ଫ୍ୟା	-7464
▁ବହୁଳ	-7465
▁ବାଛି	-7466
▁ଭିତି	-7467
▁ମନୀଷ	-7468
▁ମନୋର	-7469
▁ମଲ୍ଲ	-7470
▁ମାଟି	-7471
▁ମାଡି	-7472
▁ମାଲା	-7473
▁ମିଆଁ	-7474
▁ମୃତୁ	-7475
▁ମେକ୍	-7476
▁ରଖିବ	-7477
▁ରସୁଣ	-7478
▁ଶିଖି	-7479
▁ସାନି	-7480
▁ସାହସ	-7481
▁ସିଲି	-7482
▁ସେବକ	-7483
▁ସ୍ବୀ	-7484
▁ହଟାଇ	-7485
▁ହାଲୁ	-7486
▁ହିଂସ	-7487
▁ହିଟ୍	-7488
ଂଗ୍ରେସ	-7489
ଯିବାକୁ	-7490
▁ଅଚାନକ	-7491
▁ଅସ୍ଥି	-7492
▁ଆଜୀବନ	-7493
▁ଆଣିଛି	-7494
▁ଇସ୍ରୋ	-7495
▁ଉଠିଛି	-7496
▁ଏକାକୀ	-7497
▁ଏନକାଉ	-7498
▁କମ୍ପୁ	-7499
▁କରୀନା	-7500
▁କାନ୍ଥ	-7501
▁ଗଙ୍ଗା	-7502
▁ଘୋଷିତ	-7503
▁ଚୌହାନ	-7504
▁ଛିଡ଼ା	-7505
▁ତଦାରଖ	-7506
▁ତହସିଲ	-7507
▁ତୁଷାର	-7508
▁ଦିନରୁ	-7509
▁ନଦୀରେ	-7510
▁ନୈତିକ	-7511
▁ପଡିଲା	-7512
▁ପିସ୍ତ	-7513
▁ପୀଡିତ	-7514
▁ପ୍ରଣବ	-7515
▁ବଢିବା	-7516
▁ବସବାସ	-7517
▁ବିତରଣ	-7518
▁ବୃକ୍ଷ	-7519
▁ମଧ୍ୟା	-7520
▁ମହୋଦୟ	-7521
▁ଯୁବପି	-7522
▁ରହୁଛି	-7523
▁ରେଳପଥ	-7524
▁ଶଯ୍ୟା	-7525
▁ଶେୟାର	-7526
▁ସର୍ଭେ	-7527
▁ସୁପରି	-7528
▁ସୋଶାଲ	-7529
▁ସ୍ନେହ	-7530
▁ହାରୋଣ	-7531
▁ହେଉନି	-7532
▁ୟୁରୋପ	-7533
ର୍ଦ୍ଧିତ	-7534
ାଗୁଡ଼ିକ	-7535
▁ଅପରାହ୍	-7536
▁ଅଭିଷେକ	-7537
▁ଅଳ୍ପକେ	-7538
▁ଇନ୍ଦୋର	-7539
▁ଉଚ୍ଛେଦ	-7540
▁ଐତିହ୍ୟ	-7541
▁କରିଆସୁ	-7542
▁କୈାଣସି	-7543
▁କ୍ରେଡି	-7544
▁ଖେଳିବା	-7545
▁ଗର୍ବିତ	-7546
▁ଗୋପନୀୟ	-7547
▁ଜଳସ୍ତର	-7548
▁ଟିକେଟ୍	-7549
▁ତୃଣମୂଳ	-7550
▁ଦିଆଗଲା	-7551
▁ଦିବ୍ୟା	-7552
▁ନେହେରୁ	-7553
▁ପଦ୍ଧତି	-7554
▁ପୁରାତନ	-7555
▁ଫେସ୍ବୁ	-7556
▁ବିଶ୍ଳେ	-7557
▁ବିଷ୍ଣୁ	-7558
▁ବିହାରୀ	-7559
▁ବ୍ରିଟି	-7560
▁ଭେଦଭାବ	-7561
▁ମିଥ୍ଯା	-7562
▁ଯୁବରାଜ	-7563
▁ରୂପରେଖ	-7564
▁ସାଇକେଲ	-7565
▁ସାକ୍ଷୀ	-7566
▁ସ୍ଥାନର	-7567
▁ହେଲାଣି	-7568
▁ହୋଇଥିବ	-7569
ଗାପିକ୍ସେ	-7570
▁ଅଗ୍ରୱାଲ	-7571
▁ଅପରାଧିକ	-7572
▁ଅବ୍ରହାମ	-7573
▁ଅଭିଯୋଗର	-7574
▁ଅମ୍ବାନୀ	-7575
▁ଆଇନଜୀବୀ	-7576
▁ଆବର୍ଜନା	-7577
▁କରିଥିଲୁ	-7578
▁ଖେଳାଯିବ	-7579
▁ଗୁଡ଼ିକୁ	-7580
▁ଜରିମାନା	-7581
▁ଦୂତାବାସ	-7582
▁ଧାର୍ଯ୍ୟ	-7583
▁ପଡିଥିଲେ	-7584
▁ପାଆନ୍ତି	-7585
▁ପାଇବାକୁ	-7586
▁ପ୍ରଭାରୀ	-7587
▁ବର୍ଦ୍ଧନ	-7588
▁ବିଦ୍ରୋହ	-7589
▁ବିନ୍ୟାସ	-7590
▁ବିଲ୍ଡିଂ	-7591
▁ବ୍ୟବଧାନ	-7592
▁ମାର୍ଗରେ	-7593
▁ରପ୍ତାନି	-7594
▁ରହୁଥିଲେ	-7595
▁ଲଗାନ୍ତୁ	-7596
▁ଶିଶୁଟିର	-7597
▁ଶୀର୍ଷରେ	-7598
▁ଶ୍ରୀନଗର	-7599
▁ସମନ୍ୱିତ	-7600
▁ସମ୍ଭାଳି	-7601
▁ସହଯୋଗକୁ	-7602
▁ସାଙ୍ଗକୁ	-7603
▁ସିଂହଦେଓ	-7604
▁ସୀମାନ୍ତ	-7605
▁ଆସିନାହିଁ	-7606
▁ଉତ୍ସାହିତ	-7607
▁କମିଶନଙ୍କ	-7608
▁କୃତଜ୍ଞତା	-7609
▁କେନ୍ଦ୍ରର	-7610
▁ଗଣଶିକ୍ଷା	-7611
▁ଘଟାଇଥିବା	-7612
▁ଛାନ୍ଭିନ୍	-7613
▁ଝାଡ଼ଖଣ୍ଡ	-7614
▁ପଞ୍ଜିକରଣ	-7615
▁ପଠାଇଥିଲା	-7616
▁ପିନ୍ଧିବା	-7617
▁ପ୍ରଖ୍ୟାତ	-7618
▁ପ୍ରଯୋଜନା	-7619
▁ବିଶ୍ୱକପ୍	-7620
▁ବ୍ୟାଟ୍ସମ	-7621
▁ମିଳିମିଶି	-7622
▁ମୂଲ୍ୟବୋଧ	-7623
▁ରବୀନ୍ଦ୍ର	-7624
▁ଲେଖିଥିଲେ	-7625
▁ହୋଇପଡିଛି	-7626
▁ଅଧ୍ୟକ୍ଷତା	-7627
▁ଉପନିର୍ବାଚ	-7628
▁ଏହାବ୍ୟତୀତ	-7629
▁କେଜ୍ରିୱାଲ	-7630
▁ଗଣମାଧ୍ୟମର	-7631
▁ନିର୍ଭରଶୀଳ	-7632
▁ପଚରାଉଚୁରା	-7633
▁ପାଇପାରିବେ	-7634
▁ପାଠ୍ୟକ୍ରମ	-7635
▁ପୀଡିତାଙ୍କ	-7636
▁ପ୍ରତିଜ୍ଞା	-7637
▁ପ୍ରତିରୋଧକ	-7638
▁ବାଣିଜ୍ୟିକ	-7639
▁ବାୟୁସେନାର	-7640
▁ଭବିଷ୍ଯଦ୍ବ	-7641
▁ଭିଜିଲାନ୍ସ	-7642
▁ରଜନୀକାନ୍ତ	-7643
▁ସମ୍ପର୍କୀୟ	-7644
▁ସିଦ୍ଧାନ୍ତ	-7645
▁ସୁରେନ୍ଦ୍ର	-7646
▁ହେଲିକପ୍ଟର	-7647
▁ଅହମ୍ମଦାବାଦ	-7648
▁ଇନଷ୍ଟିଚ୍ୟୁ	-7649
▁କ୍ୟାଟ୍ରିନା	-7650
▁ଚନ୍ଦ୍ରଶେଖର	-7651
▁ଚଳଚ୍ଚିତ୍ରର	-7652
▁ତାମିଲନାଡୁର	-7653
▁ନାଗରିକଙ୍କୁ	-7654
▁ପୂର୍ବପୁରୁଷ	-7655
▁ପ୍ରଭାବଶାଳୀ	-7656
▁ମାରଣାସ୍ତ୍ର	-7657
▁ଯେଉଁମାନଙ୍କ	-7658
▁ପୁଞ୍ଜିନିବେଶ	-7659
▁କରିନାହାଁନ୍ତି	-7660
▁ଜନସାଧାରଣଙ୍କୁ	-7661
▁ପଶ୍ଚିମବଙ୍ଗରେ	-7662
▁ସୁରକ୍ଷାକର୍ମୀ	-7663
▁ପ୍ରତିଯୋଗୀଙ୍କୁ	-7664
)।	-7665
30	-7666
ID	-7667
ଆଉ	-7668
କମ	-7669
ଖୀ	-7670
ଚୀ	-7671
ଝି	-7672
ଣର	-7673
ତୋ	-7674
ପତ	-7675
ୂଷ	-7676
େଟ	-7677
େୟ	-7678
ୈେ	-7679
୧୬	-7680
.20	-7681
ଅନୁ	-7682
କରୁ	-7683
କୋଟ	-7684
ଝାର	-7685
ଡ଼ଘ	-7686
ତାନ	-7687
ଥିତ	-7688
ଦକୁ	-7689
ଦିତ	-7690
ପକୁ	-7691
ପଥର	-7692
ବଧି	-7693
ବାବ	-7694
ମନା	-7695
ମିୟ	-7696
ରାଓ	-7697
ଷିତ	-7698
ିନ୍	-7699
ୋରେ	-7700
▁16	-7701
▁17	-7702
▁ଅଯ	-7703
▁ଏଚ	-7704
▁ଗଢ	-7705
▁ଫଡ	-7706
▁ବଂ	-7707
▁ଭୌ	-7708
▁ହବ	-7709
,...	-7710
କ୍ୟା	-7711
ଗୁଡା	-7712
ଚାଳନ	-7713
ଞ୍ଜର	-7714
ଞ୍ଜ୍	-7715
ଟ୍ରୁ	-7716
ଦାୟୀ	-7717
ଦେବେ	-7718
ନେସ୍	-7719
ପଡ଼ି	-7720
ଫୋରକ	-7721
ଭିଜନ	-7722
ଯିବେ	-7723
ରାଟ୍	-7724
ର୍ଗତ	-7725
ଲଗ୍ନ	-7726
ଲ୍ୟୁ	-7727
ଳନୀର	-7728
ଳିବା	-7729
ଷ୍ଣା	-7730
ସିଡି	-7731
ସିରେ	-7732
ହାରୀ	-7733
ହାରୁ	-7734
ହୂଦୀ	-7735
ାରିତ	-7736
ାଲାଇ	-7737
ୁକ୍ତ	-7738
ୁରୂପ	-7739
ୃତ୍ୱ	-7740
▁ଅଚଳ	-7741
▁ଅସଲ	-7742
▁ଆପେ	-7743
▁ଆସେ	-7744
▁ଇଡି	-7745
▁ଉଭା	-7746
▁କମେ	-7747
▁ଖୁର	-7748
▁ଛଡା	-7749
▁ଜିଓ	-7750
▁ଜୈବ	-7751
▁ଝୁଲ	-7752
▁ଡାଏ	-7753
▁ଦରି	-7754
▁ଦର୍	-7755
▁ଦଲୋ	-7756
▁ଦୋହ	-7757
▁ଧରା	-7758
▁ଧଳା	-7759
▁ପଜି	-7760
▁ପଟି	-7761
▁ପନି	-7762
▁ଫୋଟ	-7763
▁ବେଗ	-7764
▁ମଜୁ	-7765
▁ମୁର	-7766
▁ଲବେ	-7767
▁ସଭି	-7768
ଆମ୍ଭେ	-7769
କୃଷ୍ଣ	-7770
ଖଣ୍ଡର	-7771
ଗତିରେ	-7772
ଢ଼ିବା	-7773
ଦିଗରେ	-7774
ଦ୍ଦମା	-7775
ବାଡ଼ି	-7776
ବୃନ୍ଦ	-7777
ଶୃଙ୍ଖ	-7778
ାଙ୍କନ	-7779
ାର୍ଥି	-7780
ିକେସନ	-7781
ିବିନି	-7782
ୃତ୍ତି	-7783
ୈେଦ୍ଯ	-7784
▁ଅଂଚଳ	-7785
▁ଅପାର	-7786
▁ଅପିଲ	-7787
▁ଅମୃତ	-7788
▁ଆଡମି	-7789
▁ଆଣିବ	-7790
▁ଆଦାୟ	-7791
▁ଉଷୁମ	-7792
▁ଏଇଟା	-7793
▁କବାଟ	-7794
▁କରୋନ	-7795
▁କୁହୁ	-7796
▁କ୍ରମ	-7797
▁ଗୁଜବ	-7798
▁ଗ୍ରେ	-7799
▁ଘୃଣା	-7800
▁ଘେରି	-7801
▁ଛାତି	-7802
▁ଜଣିଆ	-7803
▁ଜାଗା	-7804
▁ଠକେଇ	-7805
▁ଡିଫେ	-7806
▁ଥିଲି	-7807
▁ଦ୍ବି	-7808
▁ନକଲି	-7809
▁ନିଯମ	-7810
▁ପୋତି	-7811
▁ଫର୍ମ	-7812
▁ଫେରୁ	-7813
▁ବାୟୋ	-7814
▁ବିଛା	-7815
▁ବିତି	-7816
▁ବୋର୍	-7817
▁ବୟସର	-7818
▁ଭୁଶୁ	-7819
▁ମସଲା	-7820
▁ମିର୍	-7821
▁ରଚନା	-7822
▁ରୋମା	-7823
▁ରୋହି	-7824
▁ଲଜ୍ଜ	-7825
▁ଲୁଟ୍	-7826
▁ଶସ୍ୟ	-7827
▁ଶାହି	-7828
▁ସଂକଟ	-7829
▁ସମାଗ	-7830
▁ସ୍ୱି	-7831
▁ୱାର୍	-7832
ଦୃଷ୍ଟି	-7833
ପ୍ରଦାନ	-7834
ମ୍ପତ୍ୟ	-7835
ାଇପାରେ	-7836
ିବିଶେଷ	-7837
୍ୟାନ୍ସ	-7838
▁ଅଗଷ୍ଟ	-7839
▁ଅଟକାଇ	-7840
▁ଆଇନକୁ	-7841
▁ଆଚ୍ଛା	-7842
▁ଆନ୍ତଃ	-7843
▁ଆଶ୍ରୟ	-7844
▁ଆସାମର	-7845
▁ଆହ୍ଲା	-7846
▁ଉପଚାର	-7847
▁ଏକାଡେ	-7848
▁ଏସିଆର	-7849
▁କନ୍ଯା	-7850
▁କବିତା	-7851
▁କମ୍ୟୁ	-7852
▁କରିଡର	-7853
▁କାର୍ଯ	-7854
▁କିଙ୍ଗ	-7855
▁କେଦାର	-7856
▁ଖୁସିର	-7857
▁ଘଟିବା	-7858
▁ଜମିରେ	-7859
▁ଜୁଲାଇ	-7860
▁ଜୋରରେ	-7861
▁ଟ୍ରଫି	-7862
▁ଡିଜାଇ	-7863
▁ତିକ୍ତ	-7864
▁ତୁଲ୍ଯ	-7865
▁ତୋମାର	-7866
▁ଦଖାଇେ	-7867
▁ଦେହରେ	-7868
▁	-7869
ା	-7870
୍	-7871
ି	-7872
ର	-7873
କ	-7874
େ	-7875
ନ	-7876
ତ	-7877
ବ	-7878
ସ	-7879
ମ	-7880
ୁ	-7881
ପ	-7882
ହ	-7883
ଲ	-7884
ଦ	-7885
।	-7886
ୟ	-7887
ଇ	-7888
ୋ	-7889
ଥ	-7890
ଏ	-7891
ୀ	-7892
ଣ	-7893
ଟ	-7894
ଜ	-7895
ଗ	-7896
ଛ	-7897
ଯ	-7898
ଆ	-7899
ଭ	-7900
ଶ	-7901
ଙ	-7902
ଧ	-7903
ଳ	-7904
ଷ	-7905
ଅ	-7906
ଚ	-7907
ଡ	-7908
ଉ	-7909
ଁ	-7910
ଖ	-7911
,	-7912
ଂ	-7913
ଫ	-7914
ୂ	-7915
ଓ	-7916
ୃ	-7917
ଠ	-7918
ଘ	-7919
ୱ	-7920
଼	-7921
ଞ	-7922
.	-7923
"	-7924
ୌ	-7925
ଢ	-7926
-	-7927
ୈ	-7928
:	-7929
’	-7930
0	-7931
?	-7932
1	-7933
)	-7934
(	-7935
2	-7936
ଝ	-7937
୧	-7938
ଵ	-7939
୦	-7940
‘	-7941
5	-7942
'	-7943
e	-7944
ଃ	-7945
୨	-7946
i	-7947
s	-7948
୫	-7949
“	-7950
3	-7951
7	-7952
4	-7953
9	-7954
t	-7955
8	-7956
!	-7957
r	-7958
n	-7959
%	-7960
6	-7961
a	-7962
o	-7963
୩	-7964
”	-7965
m	-7966
୪	-7967
S	-7968
–	-7969
୯	-7970
ଋ	-7971
୬	-7972
P	-7973
c	-7974
୮	-7975
[	-7976
]	-7977
C	-7978
l	-7979
d	-7980
f	-7981
u	-7982
୭	-7983
I	-7984
N	-7985
_	-7986
A	-7987
O	-7988
ଔ	-7989
D	-7990
ଐ	-7991
M	-7992
G	-7993
/	-7994
p	-7995
